<unk>	0
<s>	0
</s>	0
[PAD]	0
[UNK]	0
[CLS]	0
[SEP]	0
[MASK]	0
▁	-2.70097
དང་	-4.42002
།	-4.53322
་	-4.66325
ལ་	-4.79851
ནས་	-5.43645
ནི་	-5.45505
ཀྱི་	-5.48093
གྱི་	-5.56347
དང་།	-5.59684
པའི་	-5.6814
ས་	-5.69731
འི་	-5.71102
དང།	-5.7536
གི་	-5.87129
དེ་	-5.88723
ན་	-5.90498
▁“	-5.99741
▁”	-6.02937
དུ་	-6.03311
མ་	-6.03459
ལས་	-6.04288
མི་	-6.14461
པ་	-6.16425
སོགས་	-6.31007
ཡང་	-6.36685
གྱིས་	-6.39265
པར་	-6.39483
ར་	-6.41287
ཀྱིས་	-6.4307
པ།	-6.46646
བར་	-6.48872
བྱེད་པའི་	-6.53072
བའི་	-6.53339
བཅས་	-6.56453
བ་	-6.61521
ཡོད།	-6.73794
གིས་	-6.76012
པས་	-6.76718
ཏེ་	-6.80971
འཛུགས་སྐྲུན་	-6.84843
ལ།	-6.85722
བ	-6.92798
ཀྱང་	-6.93513
བྱེད་	-6.95297
སྟེ།	-6.95732
རྣམས་	-6.95775
འཕེལ་རྒྱས་	-6.97837
གཉིས་	-6.99226
བ།	-6.99622
གསར་འགྱུར།	-7.00673
▁མཚོ་སྔོན་ཞིང་ཆེ	-7.02171
ཞིག་	-7.02431
ནང་	-7.02828
དཔལ་འབྱོར་	-7.03731
བྱས་ནས་	-7.04807
ཏེ།	-7.06264
བྱས་ཏེ་	-7.08523
ཞིང་	-7.08816
ཆེན་པོ་	-7.08887
ན།	-7.10301
ནས།	-7.11175
འདི་	-7.14236
སྤྱི་ཚོགས་	-7.15274
ནི།	-7.15319
པ་དང་།	-7.15841
གནས་	-7.15989
▁《	-7.17494
▁》	-7.1799
པ་དང་	-7.22844
གྲོང་ཁྱེར་	-7.23283
རྒྱུ་	-7.26566
དོན་	-7.26575
སུ་	-7.27652
བྱེད་པ།	-7.29101
བྱས་ཏེ།	-7.30171
སྟེ་	-7.30369
གཅིག་	-7.31933
གསུམ་	-7.32795
ཡིན།	-7.32842
རྒྱལ་ཁབ་	-7.33165
རིག་གནས་	-7.33608
ལོ་	-7.34032
དེའི་	-7.35798
དག་	-7.36676
རང་སྐྱོང་ལྗོངས་	-7.39188
ལས་དོན་	-7.39561
▁དེ་	-7.40939
ཡིས་	-7.41492
ཆོས་	-7.42019
པ	-7.44182
བྱས།	-7.44515
ལམ་	-7.44906
བྱེད་པ་དང་།	-7.45132
བྱ་བ་	-7.45293
ཁ་	-7.48072
ཤིང་	-7.48437
པོ་	-7.48554
པའོ།	-7.4865
ཨུ་ཡོན་ལྷན་ཁང་	-7.50686
བྱ་	-7.50808
བས་	-7.5111
སྐབས་	-7.51318
ཐོག་	-7.5183
བཅས་ཀྱི་	-7.52788
ཀྲུང་གོའི་	-7.53017
བྱ་བའི་	-7.5309
རུ་	-7.53217
ཡོད་པ་རེད།	-7.53446
བཀོད་སྒྲིག་	-7.53453
བྱེད་དགོས།	-7.55001
བྱས་པའི་	-7.55065
དུས་	-7.55065
ཡི་	-7.55067
བོད་ཀྱི་	-7.55391
ཐམས་ཅད་	-7.56016
རིགས་	-7.5715
ཆུ་	-7.57934
▁ཚེས་	-7.58108
ད་	-7.58558
ཅན་	-7.58772
▁དེ་ནས་	-7.59011
ཚད་	-7.59813
ཕྱིར་	-7.60946
ཞེས་	-7.6144
▁མཚོ་སྔོན་	-7.61999
མེད་	-7.63705
ག་	-7.63738
གང་	-7.64029
བྱེད་པར་	-7.64358
ང་	-7.64614
སེམས་	-7.65705
རྒྱལ་སྤྱིའི་	-7.66031
དབུལ་སྐྱོར་	-7.66578
ཡུལ་སྐོར་	-7.66822
ཚོགས་	-7.67126
བ་དང་།	-7.68093
ལྟར་	-7.68734
ཞེས་བྱ་བ་ནི་	-7.68791
གྲོས་ཚོགས་	-7.69475
སོགས་ཀྱི་	-7.69739
དེར་	-7.7045
བདེ་འཇགས་	-7.70497
དེས་	-7.70961
དགོས།	-7.71553
བཞི་	-7.71673
ཡུལ་	-7.71744
▁ཉིན་	-7.71781
རྣམ་པ་	-7.73304
ལ་སོགས་པ་	-7.73572
ཡོངས་སུ་	-7.73679
མོ་	-7.73688
ཕྱོགས་	-7.73763
ཏུ་	-7.74918
བོད་ལྗོངས་	-7.75259
རྒྱལ་ཁབ་ཀྱི་	-7.75466
རྗེས་	-7.75784
ལག་བསྟར་	-7.76411
བོད་	-7.77307
མི་རིགས་	-7.7749
རྣམ་གྲངས་	-7.77892
པ་དང།	-7.78374
དྲ་བའི་འཕྲིན།	-7.78466
▁"	-7.78633
ཁྲི་	-7.78957
མི་དམངས་	-7.79351
▁ཀྲུང་གོའི་	-7.79743
རང་	-7.80523
ི	-7.80884
གནས་ཚུལ་	-7.81293
ཐད་	-7.81751
ཞིང་ཆེན་	-7.8187
པ་རེད།	-7.82287
▁1	-7.82887
ག	-7.83172
གཞན་	-7.832
▁3	-7.84264
སྲིད་ཇུས་	-7.84462
▁ཀྲུང་གོ་	-7.84503
རང་བཞིན་གྱི་	-7.84516
ཁོར་ཡུག་	-7.84518
དོ་དམ་	-7.8456
མང་པོ་	-7.84719
སློབ་གསོ་	-7.84981
▁ལོར་	-7.86427
རྫོང་	-7.86476
ལ་བརྟེན་ནས་	-7.86508
ཅིང་	-7.86572
ཡོད་པའི་	-7.86754
དེ་དག་	-7.86987
རང་བཞིན་	-7.8706
མཉམ་ལས་	-7.87154
སྲུང་སྐྱོང་	-7.87217
བྱས་པ་དང་།	-7.87573
འ	-7.87722
འཕེལ་རྒྱས་ཀྱི་	-7.88103
རྣམ་པར་	-7.88224
▁ལོའི་	-7.8832
བྱེད་པ་	-7.88449
བྱས་ནས།	-7.88462
མ་དངུལ་	-7.89346
▁རྩོམ་སྒྲིག་པ།	-7.89494
བྱས་པ།	-7.89848
ཚེ་	-7.90327
བ་དང་	-7.90347
གཏོང་	-7.9053
མ	-7.90779
རྒྱལ་ཡོངས་	-7.90897
རི་	-7.91236
མེད་པའི་	-7.91429
གྲུབ་འབྲས་	-7.91727
བཞིན་	-7.92042
གྲོས་ཚོགས་ཐེངས་	-7.92062
▁འི་	-7.92163
དེ་ནི་	-7.92428
ཆེན་	-7.92444
རྡོ་རྗེ་	-7.92718
ལམ་ལུགས་	-7.92763
ཡོད་པ་	-7.93183
ཅི་	-7.93527
ལྔ་	-7.9354
ཁང་	-7.93867
▁བོད་	-7.94216
རེ་	-7.9426
▁བོད་ལྗོངས་	-7.94287
རེད།	-7.95062
ཙམ་	-7.9582
བྱང་ཆུབ་སེམས་དཔའ	-7.96264
ལྷ་	-7.96397
ས	-7.96567
རབ་ཏུ་	-7.96583
མང་ཚོགས་ཀྱི་	-7.96612
སོ།	-7.96984
ཉིད་	-7.9708
ལོ་རྒྱུས་	-7.9751
པས།	-7.97753
འབྲེལ་ཡོད་	-7.9781
ཡོད་པ་དང་།	-7.9791
▁5	-7.98488
གཙོ་བོ་	-7.98953
སློབ་གསོའི་	-7.99116
▁གསར་འགྱུར།	-7.99585
མཁན་	-7.99981
བྱས་པ་རེད།	-8.00429
སྨན་བཅོས་	-8.00719
▁དེ་ལ་	-8.00942
▁4	-8.01094
ལ་སྐུལ་འདེད་	-8.01333
མང་ཚོགས་	-8.01654
ལས།	-8.01976
▁དེ་ནི་	-8.02191
འགན་སྲུང་	-8.02501
ཐོན་ལས་	-8.02638
▁10	-8.02974
ཞིབ་བཤེར་	-8.03354
ཀྲུང་གོ་	-8.03576
ཚུལ་	-8.03747
ལི་	-8.04405
སྣ་ཚོགས་	-8.04903
མཚོ་སྔོན་ཞིང་ཆེ	-8.04991
ལ་སོགས་པའི་	-8.0528
བྱེད་ཐབས་	-8.05331
▁མི་	-8.05382
སྲིད་གཞུང་གིས་	-8.05633
མེད་པར་	-8.05768
▁(	-8.05774
གསོ་སྦྱོང་	-8.05795
སྲིད་གཞུང་གི་	-8.06437
▁འདི་ནི་	-8.06671
མེད་པ་	-8.06854
ཡོད་	-8.06933
སྤྱོད་	-8.0696
ཞེས་བྱ་བ་	-8.07152
སངས་རྒྱས་	-8.07449
སློབ་སྦྱོང་	-8.07546
སྲུང་སྐྱོབ་	-8.07671
རང་གི་	-8.07792
མཚོ་སྔོན་	-8.07852
རྒྱུན་འཁྱོངས་	-8.07925
བྱེད་པ་དང་	-8.07926
ཅན་གྱི་	-8.07947
ཐོན་སྐྱེད་	-8.08292
ཐབས་	-8.08467
▁)	-8.08868
བཅོམ་ལྡན་འདས་	-8.0892
ལྡན་	-8.09312
ཆ་	-8.09603
བུ་	-8.09644
ས།	-8.09761
ངང་	-8.10179
▁2	-8.10251
རོགས་སྐྱོར་	-8.1041
འཛིན་	-8.10427
ཤེས་	-8.10622
རིང་	-8.10939
ཐོན་	-8.11145
ཇི་ལྟར་	-8.11872
▁6	-8.1192
སྐུལ་འདེད་གཏོང་	-8.11969
འགྲོ་	-8.12272
ད	-8.12272
ཁྲོད་	-8.12469
▁༎	-8.12581
ཡིན་ལ།	-8.12593
དབང་	-8.13013
གནད་དོན་	-8.13059
སྟོང་	-8.13096
རྣམས་ཀྱིས་	-8.13137
▁ངེད་ཀྱི་སྐོར།	-8.13159
སྐོར་	-8.13604
▁མི་དམངས་	-8.1377
ལུས་	-8.14263
ཞིང་ཆེན་ཏང་ཨུའི་	-8.14502
▁7	-8.14603
ནུས་པ་	-8.14619
སྒྲུབ་	-8.14926
▁པའི་ཚེས	-8.1494
བྱས་ཡོད།	-8.14989
ཕྱོགས་ཡོངས་ནས་	-8.15112
གསར་འགྱུར་	-8.15319
ད་དུང་	-8.15479
དེ་བཞིན་གཤེགས་པ་	-8.15551
▁8	-8.15637
ལ	-8.15818
ཤིན་ཏུ་	-8.16029
དྲུག་	-8.16303
▁དེའི་	-8.16504
གཏོང་བའི་	-8.16618
གོ་	-8.16907
▁གལ་ཏེ་	-8.16926
ཞིབ་འཇུག་	-8.17009
བྱས་པ་	-8.1725
ཱ	-8.17369
▁ཉིན།	-8.17692
▁རྒྱལ་ཁབ་	-8.17763
ར	-8.17767
ཡ་	-8.17841
ཐག་གཅོད་	-8.17917
▁བཅོམ་ལྡན་འདས་	-8.17986
ཨ་	-8.18285
ཡིན་ནོ།	-8.18354
ཡག་པོ་	-8.1837
▁དེ་ལྟར་	-8.18569
ཁུལ་	-8.18591
འོ།	-8.18758
འགྱུར་	-8.18775
བྱས་	-8.18795
ཾ	-8.19085
མཆོག་	-8.19087
གྲོས་མོལ་	-8.19212
རྣམས་ཀྱི་	-8.19543
ན	-8.19901
རིང་ལུགས་ཀྱི་	-8.19942
ཀྲུང་དབྱང་	-8.20303
གཉིས་ཀྱི་	-8.2065
མེ་	-8.20804
ཐོབ་	-8.21416
གྲོང་ཚོའི་	-8.21458
དོན་འཁྱོལ་	-8.21523
གྲོང་ཁྱེར་གྱི་	-8.21589
མིང་	-8.21859
ན་མི་དམངས་འཐུས་	-8.21955
▁རྒྱལ་ཡོངས་	-8.21965
ཀ་	-8.22384
ཚིག་	-8.22389
▁...	-8.2261
མེད།	-8.22651
སྒྲ་	-8.22706
ོ	-8.23221
ལུང་	-8.23301
ཕྱོགས་བསྡུས་	-8.2335
ནང་དུ་	-8.23732
བདག་	-8.23829
▁ཡོང་ཁུངས།	-8.23844
བཤད་	-8.23852
འདུ་ཤེས་	-8.23956
ཉིན་	-8.24068
དྲིལ་བསྒྲགས་	-8.24199
ས་ཁུལ་གྱི་	-8.24416
ཟླ་	-8.2442
དངོས་	-8.24864
འཁོར་	-8.24872
▁མདུན་ཤོག	-8.24914
▁ཞེས་	-8.24964
རྒྱལ་	-8.25039
འདི་ནི་	-8.25091
གཞི་	-8.25358
བྱང་	-8.2546
འགན་འཁྲི་	-8.25603
▁ཟླ་	-8.25743
གཟུགས་	-8.25751
ེ	-8.25777
བྱུང་	-8.25953
སྤེལ་	-8.25998
ཞིང་།	-8.26207
མཐོང་	-8.26281
ཐོན་ཁུངས་	-8.26379
ངས་	-8.2673
▁9	-8.26791
དེ་ལྟར་	-8.26907
▁ཀྲུང་དབྱང་	-8.27084
བྱ་བར་	-8.27133
མཉམ་དུ་	-8.27781
ཞི་ཅིན་ཕེན་གྱིས་	-8.28082
རྒྱུད་	-8.28242
སྟོན་	-8.28341
བསྟན་	-8.28513
བརྒྱུད་	-8.287
གསར་པ་	-8.28809
དེ་ལ་	-8.28864
སྐུ་	-8.28979
འབྲས་བུ་	-8.2924
ལན་	-8.29356
ཁག་	-8.29534
༷	-8.29659
བརྒྱད་	-8.2973
ས་ཁུལ་	-8.29849
ཕ་རོལ་ཏུ་ཕྱིན་པ་	-8.30088
ཡིག་	-8.30631
དགོངས་དོན་	-8.30812
མིན་	-8.31038
འགན་ལེན་	-8.31175
འདིར་	-8.31258
ཡེ་ཤེས་	-8.31725
▁19	-8.31759
བཏང་ནས་	-8.31912
རླངས་འཁོར་	-8.32106
ཁམས་	-8.32345
དང་སྤྱི་ཚོགས་	-8.32713
▁བོད་ཀྱི་	-8.32717
འདུག	-8.32845
དངོས་སུ་	-8.32929
ནད་	-8.33958
འཆར་འགོད་	-8.34173
▁གཙོ་ངོས།	-8.34264
རྒྱུར་	-8.34491
བརྗོད་	-8.34705
སི་	-8.34732
ཤེས་པ་	-8.34882
མི་སྣ་	-8.34988
གས་	-8.35319
ཤང་	-8.35516
གལ་ཆེན་	-8.35715
སྒོར་དུང་ཕྱུར	-8.35987
▁ཟླ	-8.36499
བཟོ་	-8.36566
ཏ་	-8.36649
འགྲིམ་འགྲུལ་	-8.36661
རྣམས་ལ་	-8.36662
ཚང་མ་	-8.37065
སྐོར་གྱི་	-8.3716
ཏང་གི་	-8.37436
▁12	-8.37594
▁ཞིང་ཆེན་	-8.37625
རྩ་འཛུགས་	-8.37678
སྒོ་ནས་	-8.37894
མཉམ་	-8.37975
མར་	-8.38038
ཡིན་ཏེ།	-8.38467
པ་ནི་	-8.38498
གཅིག་གྱུར་	-8.38609
གསར་གཏོད་	-8.38652
སྟོབས་ཤུགས་	-8.38655
དང་པོ་	-8.38683
སྔར་བས་	-8.38702
སྟེང་	-8.39113
▁ཞིན་ཧྭ་གསར་འགྱུ	-8.39118
ལྷ་ས་གྲོང་ཁྱེར་	-8.39143
སྒོ་	-8.3929
ཤིག་	-8.39298
རྒྱུའི་	-8.39352
སྲིད་གཞུང་	-8.39355
མའི་	-8.39424
བྱེད་སྒོ་	-8.39559
▁དཔྱད་མཆན	-8.39572
▁2017	-8.39646
བཅུ་	-8.39815
ར་ཁང་གི་	-8.40206
ལྟ་སྐུལ་	-8.40426
སྔར་ལས་	-8.40595
རྒྱ་	-8.40603
ཀུན་	-8.40726
ུ	-8.41019
ལས་འགན་	-8.41107
བློ་	-8.41142
འགོ་ཁྲིད་	-8.41302
གཞུང་	-8.4137
དགུ་	-8.41396
འདོད་	-8.41545
དངོས་པོ་	-8.41574
མཉམ་འབྲེལ་	-8.41618
བར་གྱི་	-8.41722
གཉིས་ཀྱིས་	-8.41988
ལག་རྩལ་	-8.42005
▁ལྷག་ཙམ་	-8.42442
རིམ་པ་	-8.42468
རྗེས་སུ་	-8.42541
སྒོར་དུང་ཕྱུར་	-8.42651
ཀྲུང་གོ་བོད་ཀྱི་	-8.42669
ཞབས་ཞུ་	-8.42845
དཀར་	-8.42875
▁དེ་ཡང་	-8.42942
སློབ་མ་	-8.43083
▁11	-8.43231
ཆུང་	-8.43636
ལས་རིགས་	-8.43753
ལེན་	-8.439
ཚོགས་འདུ་	-8.44077
བཞིན་དུ་	-8.44176
སྐྱོན་	-8.44289
ཞི་	-8.44515
གསུམ་གྱི་	-8.44587
དེ་ཉིད་	-8.45074
རྩ་	-8.45319
ཁྱད་པར་	-8.45389
ཐོག་ནས་	-8.45401
ཆེད་དོན་	-8.45472
ཁྱོན་ཡོངས་ནས་	-8.45474
ཤ་	-8.45577
ཆེས་	-8.45714
ཡིན་པའི་	-8.45749
ཡི་གེ་	-8.45857
གྲུབ་	-8.46261
ཐུབ་	-8.46273
ཁེ་ལས་	-8.46363
དཀྱིལ་འཁོར་	-8.46452
སྨན་	-8.46457
ལྡན་པའི་	-8.46568
ཐང་	-8.46635
སྐྱེས་	-8.46756
གནང་	-8.4679
ཞེས་པ་	-8.47023
གནང་བ་རེད།	-8.47145
ཡིན་	-8.47208
སོ་སོར་	-8.47213
མཐོ་རིམ་	-8.47239
▁ཡི་	-8.47468
དབུལ་སྒྲོལ་	-8.47517
མང་	-8.47532
ལས་ཀ་	-8.47893
ཡོད་ལ།	-8.47962
ཧ་ཅང་	-8.48557
ཅིག་	-8.48711
གོང་འཕེལ་	-8.48747
བདུན་	-8.48909
དེ།	-8.49071
འབྱུང་	-8.49296
མ་ལག་	-8.49728
ཀྲུང་གོ་དང་	-8.49967
དཔེ་	-8.50197
ཧུར་ཐག་	-8.50248
སྤྱི་	-8.50345
འདིའི་	-8.50401
ལུགས་	-8.50491
ཆབ་སྲིད་	-8.50586
གསལ་	-8.50592
རྒྱལ་ཡོངས་ཀྱི་	-8.50802
གྲོང་གསེབ་ཀྱི་	-8.50827
འབྲེལ་བ་	-8.50902
འོ་	-8.51061
སློབ་	-8.51074
མངོན་པར་	-8.51113
ལས་ཞུགས་	-8.51246
འཇིག་རྟེན་	-8.51329
སྤྱིའི་	-8.51482
གཏན་འབེབས་	-8.51528
▁2018	-8.51851
མང་ཚོགས་ལ་	-8.51857
ཆ་འཕྲིན་	-8.52024
དར་	-8.52112
ལ་ཤུགས་སྣོན་	-8.5222
མིག་	-8.52279
སྐྱེ་ཁམས་	-8.52281
རོལ་མོ།	-8.52357
▁ཆེད་སྒྲིག	-8.52375
ཆེད་	-8.52411
མཐའ་	-8.5247
སྤྱི་ཁྱབ་ཧྲུའུ་	-8.52545
སྔོན་	-8.52825
བསྟན་དོན།	-8.53045
ཕབ་ལེན།	-8.53149
སྐད་རླུང་འཕྲིན།	-8.53464
ཞབས་ཞུའི་	-8.53559
ཀྲུའུ་ཞི་	-8.53686
▁20	-8.5374
བྱས་ཤིང་།	-8.54007
ཁྱིམ་ཚང་	-8.54292
སྒོར་	-8.54578
ལེ་	-8.54874
གཏིང་ཟབ་	-8.55126
ཆགས་	-8.55368
དང་མཉམ་དུ་	-8.55454
རྒྱུ་རེད།	-8.55567
ར།	-8.55751
▁རང་སྐྱོང་ལྗོངས་	-8.55808
མེ་ཏོག་	-8.56028
ཞིང་ལས་	-8.56032
▁ཅེས་	-8.56078
འབྱོར་འབྲིང་	-8.56126
འཕེལ་རྒྱས་སུ་	-8.56173
▁རྡོ་རྗེ་	-8.56407
ལྟ་	-8.566
གཞུང་ལམ་	-8.5667
ཡོང་	-8.56785
རྒྱལ་པོ་	-8.56846
ཆེན་པོའི་	-8.57041
དགོས་པའི་	-8.57103
རྒྱུན་ཆད་མེད་པར་	-8.57151
གླིང་	-8.57205
ཞེས་བྱ་བ་ལ་སོགས་	-8.57272
རྒྱབ་སྐྱོར་	-8.57307
ལས་ཀའི་	-8.57444
སྣང་བ་	-8.57454
སར་	-8.57508
གཏོང་བ།	-8.57547
གློག་འཕྲིན་ལྟར།	-8.57847
བཅོས་སྒྱུར་	-8.58056
སའི་	-8.58387
ལས་གཞི་	-8.58657
བའོ།	-8.58699
ཞེས་པའི་	-8.58898
▁ཀྲུང་གུང་ཀྲུང་ད	-8.59016
མ།	-8.59058
བྱེད་དགོས་པའི་	-8.59143
ཚན་རྩལ་	-8.59168
མཚན་ཉིད་	-8.59297
ཏི་	-8.59352
བཅོས་སྐྱོང་	-8.59644
བསྟན་པ་	-8.5969
ཡོན་ཏན་	-8.59975
བྱུང་།	-8.6014
རོ་	-8.6015
ཤུགས་	-8.60168
▁2016	-8.60185
མགོ་	-8.60221
ནང་གི་	-8.60568
▁འོན་ཀྱང་	-8.60681
ཀྲུང་དབྱང་གི་	-8.60822
དགོས་	-8.60956
▁རིག་གནས།	-8.61054
རྟོགས་	-8.6113
རྟེན་	-8.61159
ནུས་	-8.61172
སྐད་	-8.61183
གོང་	-8.61239
མི་དམངས་འཐུས་ཚོག	-8.61262
བྱ་རྒྱུ་	-8.61282
ཐོན་རྫས་	-8.61445
སྒྱུར་བཅོས་	-8.61623
ངེས་	-8.61674
ཡིན་པས་	-8.61952
འགྲོ་བ་	-8.62003
འཕྲོད་བསྟེན་	-8.62062
ཕན་ཚུན་	-8.6213
སོ་	-8.62166
འཛམ་གླིང་	-8.6232
བཟང་	-8.6233
བཅའ་ཁྲིམས་	-8.62599
▁སྤྱི་ཚོགས་	-8.62635
མས་	-8.62968
གྲོང་རྡལ་	-8.62978
བཟང་པོ་	-8.63083
སྣོད་བཅུད་	-8.63228
སྡུག་བསྔལ་	-8.63238
▁ཁོང་གིས་	-8.63316
ཡོད་པས་	-8.63453
འཐབ་ཇུས་	-8.63736
མཚོན་	-8.63918
ཉམས་	-8.63974
ཡིན་པ་	-8.63996
ཡིན་པ་དང་།	-8.64104
བརྙན་འཕྲིན།	-8.64113
མུ་མཐུད་	-8.64127
▁ལོ་	-8.64432
བྱ་སྤྱོད་	-8.64451
གཅིག	-8.64516
ཏང་གི་ཚོགས་ཆེན་	-8.64596
དེ་བས་	-8.64609
རླུང་	-8.64774
སྣང་	-8.64823
ཡང་དག་པར་	-8.65265
ཡན་ལག་	-8.6554
པའི་ཕྱིར་རོ།	-8.65741
ཧྲུའུ་ཅི་	-8.65886
ཚོར་	-8.66042
མཚན་	-8.66169
སྐྱེ་བ་	-8.66289
སྲོལ་རྒྱུན་	-8.66289
གྲངས་	-8.6647
ལག་	-8.66509
འོག་	-8.66834
ཕྱི་	-8.66856
▁ལིས་ཁི་ཆང་གིས་	-8.66907
མངོན་	-8.67161
འུ་	-8.67336
ཤིང་།	-8.67669
▁»	-8.68021
གསར་	-8.68022
ཀྲུང་གོའི་ཁྱད་ཆོ	-8.6809
སྐུལ་འདེད་	-8.68154
སྡེ་	-8.68466
ཞིང་འབྲོག་	-8.68515
ངེས་པར་	-8.68628
▁ང་ཚོས་	-8.69046
འདོན་	-8.69088
ལེགས་	-8.691
ལས་དོན་ལ་	-8.69115
བདེ་	-8.69324
ངེས་པར་དུ་	-8.6938
▁སངས་རྒྱས་	-8.69434
▁དེ་བཞིན་	-8.69467
བཤད་རྒྱུར།	-8.69493
ཟེར།	-8.69527
ལས་ཁུངས་	-8.69551
ལ་མཇལ་འཕྲད་གནང་།	-8.69583
མི་ཚོགས་ཆེན་གྱི་	-8.69628
བར་དུ་	-8.70065
བོད་ཀྱི་དྲ་བ།	-8.70086
རབ་	-8.70099
འི	-8.70131
▁15	-8.7038
ཞིང་ཆེན་གྱི་	-8.70414
▁གཞན་ཡང་	-8.7043
ཙུང་ཐུང་	-8.70457
མཚོ་	-8.70621
གསར་བ་	-8.70627
གྲོང་ཚོ་	-8.7084
ས་རང་སྐྱོང་ཁུལ་	-8.70941
དུས་ཚོད་	-8.7116
རྒྱུན་	-8.7132
གཉེར་	-8.71451
སློབ་གྲྭ་	-8.71476
གཏོང་བ་དང་།	-8.71607
བཅུ་གསུམ་པའི་	-8.71631
རྒྱལ་སྲིད་	-8.71704
ཉེ་བར་	-8.71874
པའི	-8.71925
▁དེ་བཞིན་དུ་	-8.71983
ཚེས་	-8.72066
འཚོ་བ་	-8.72251
འགྲན་བསྡུར་	-8.72319
དམིགས་བསལ་	-8.72344
ཚོགས་ཆེན་	-8.72364
སེམས་ཅན་	-8.72377
ལས་བྱེད་པ་	-8.72426
དངུལ་	-8.72602
ཤར་	-8.72755
ཆེད་དུ་	-8.7289
བས།	-8.7289
བསྒྱུར་	-8.72929
བྱ་ཐབས་	-8.7301
གཞི་རྩའི་	-8.73481
▁རྒྱལ་སྤྱིའི་	-8.73489
▁«	-8.73519
རྩིས་	-8.73866
ལྗོངས་ཡོངས་ཀྱི་	-8.73917
པར་གཞི་རྙིང་བ།	-8.73954
ཚོས་	-8.74106
ཨར་	-8.74108
མུ་མཐུད་དུ་	-8.74258
བསམ་བློ་	-8.74415
རྟགས་	-8.74459
ཞེས་པ་ནི་	-8.74464
ངོས་འཛིན་	-8.74666
བྱང་ཆུབ་	-8.74675
རིང་ལུགས་	-8.74818
ཆེ་	-8.74829
ཆ་རྐྱེན་	-8.74901
▁མིག་སྔར་	-8.75076
བཤད།	-8.75096
ཕྱོགས་ཀྱིས་	-8.75292
ཐད་ཀྱི་	-8.7532
དམར་	-8.75344
བྱེད་མཁན་	-8.75445
ཐད་ནས་	-8.75593
ཚོགས་པའི་	-8.7566
འཇོག་	-8.75686
བདག་ཉིད་	-8.75749
ལྟ་བ་	-8.75793
རྣམ་	-8.75894
ཡིད་	-8.75957
འབྲེལ་	-8.75973
▁ལྷ་ས་གྲོང་ཁྱེར་	-8.75998
བུད་མེད་	-8.76622
སྒྱུ་རྩལ་	-8.76728
ཚོགས་ཀྱི་	-8.76788
ཡོད་ཅིང་།	-8.77026
ཟླ་བ་	-8.7716
▁གློག་	-8.77163
སྤྱོད་པ་	-8.7739
ལེགས་པར་	-8.77423
སྐྲུན་	-8.77466
ཆོས་ཀྱི་	-8.77754
གསར་སྤེལ་	-8.77759
▁ཞི་ཅིན་ཕིང་གིས་	-8.77786
སྣེ་ཁྲིད་	-8.77799
རྒྱ་ཆེའི་	-8.77887
ནོར་	-8.77938
▁ལོའི་ཟླ་	-8.78065
▁བོད་ལྗོངས་ཀྱི་	-8.78211
བྱ་རྒྱུར་	-8.78235
ཡིན་པས།	-8.78439
▁དམངས་སྲོལ།	-8.78473
དགའ་	-8.78488
སྟོང་པ་ཉིད་	-8.78845
ཉིད་དུ་	-8.78847
རིམ་བཞིན་	-8.78893
གཏན་འཁེལ་	-8.79064
བེད་སྤྱོད་	-8.79208
པར།	-8.79609
ཞུགས་	-8.79834
སྤྱི་བསྒྲགས་ཨང་	-8.79866
བཀོད་	-8.80044
ཕྱག་	-8.80138
མཐུན་སྦྱོར་	-8.80204
སྲིད་འཛིན་	-8.80226
དམག་	-8.80256
དབུལ་ཕོངས་	-8.80272
ཆེ་བའི་	-8.80273
▁དེས་	-8.80313
ཡོན་ལྷན་ཁང་གི་	-8.80492
གྲོང་གསེབ་	-8.80535
ལའང་	-8.80548
སྒྲིག་	-8.80561
དུས་རབས་གསར་པའི་	-8.80627
ང	-8.8066
བཞིའི་	-8.8075
ལྟ་བུ་	-8.8099
དུ	-8.81015
རྐྱེན་	-8.81115
པ་མ་ཟད།	-8.81136
བྱང་ཆུབ་སེམས་དཔ	-8.81155
བྱུང་བ་	-8.81298
དཔལ་	-8.81307
ཡོད་པས།	-8.81341
དང་ལྡན་པ་	-8.81352
གནས་བབ་	-8.81532
ཁ་གསབ་	-8.81539
བསམ་	-8.81592
གང་ལེགས་	-8.81627
རེ་བ་	-8.81676
གཙང་	-8.81777
མཛད་	-8.81949
ཀྲང་	-8.81969
▁དེས་ན་	-8.82016
ཀྲུང་	-8.8203
རང་ཉིད་ཀྱི་	-8.821
ཚོད་འཛིན་	-8.82181
འཛུགས་	-8.82237
བྱུང་བའི་	-8.82271
སྤྱི་ཁྱབ་ཁང་གི་	-8.82325
བྱ་འགུལ་	-8.82329
རྫས་	-8.8235
བཅས་ལ་	-8.82453
འཇུག་	-8.82464
ཁུལ་གྱི་	-8.82468
ཡོང་འབབ་	-8.82478
སྲུང་	-8.82527
བསྐྲུན་	-8.8259
སྒྲིག་བཀོད་	-8.82794
སྲིད་	-8.8295
དགེ་རྒན་	-8.83015
ཆར་	-8.83055
བཏང་སྟེ་	-8.83285
པོའི་	-8.83326
རྒྱས་	-8.83348
བཅས་ཀྱིས་	-8.8344
ཐུབ་པ་	-8.83512
▁2015	-8.83716
ཆོས་ལུགས་	-8.83778
གནད་དོན་ཐག་གཅོད་	-8.841
སྲིད་གྲོས་ཀྱི་	-8.84119
ཚོགས་པ་	-8.84125
ཡང་དག་	-8.84169
གཙོ་གནད་	-8.84215
སྒྲིག་འཛུགས་	-8.84233
སྒྲིག་ཆས་	-8.84319
ས་ཀྱི་སྤྱི་ཚོགས་	-8.84342
བ་དང།	-8.84348
མི་དམངས་ཀྱི་	-8.84393
མི་རིགས་ཁག་གི་	-8.84401
ཐོག་མར་	-8.84542
དུ།	-8.84629
ཁྱིམ་	-8.84754
དམ་	-8.8481
ཁྱད་ཆོས་	-8.8498
▁ལྷག་	-8.85062
མི	-8.853
སྦྱོར་	-8.85342
ལྷག་	-8.85445
མ་ཡིན་པ་	-8.8548
རིམ་	-8.85549
སྐྱེལ་འདྲེན་	-8.85572
བོ་	-8.85678
ལུས་རྩལ་	-8.85682
ལས་དོན་གྱི་	-8.8583
འབྱུང་བ་	-8.86135
ཚད་གཞི་	-8.86284
གློག་	-8.86301
ཁྱོན་	-8.86327
མཆོད་	-8.86463
ཁྲིམས་	-8.86561
མངོན་འགྱུར་	-8.86854
སྟོབས་	-8.86892
འཁྲབ་སྟོན་	-8.86965
བཟོ་སྐྲུན་	-8.87187
▁ཀྲུང་གོ་དང་	-8.87198
▁ར་	-8.87237
རྒྱུར་སྐུལ་འདེད་	-8.87256
བོད་ལྗོངས་ཀྱི་	-8.87272
བྱེད་སྒོ་སྤེལ་	-8.87451
གཏོང་དགོས།	-8.87459
རྨང་གཞིའི་	-8.87497
སྐབས་སུ་	-8.87795
དཔེ་སྟོན་	-8.87859
རོགས་	-8.87872
ལག་ལེན་	-8.87928
ཁེ་	-8.87978
ཚོང་	-8.88005
ངོ་སྤྲོད་	-8.88051
འགྱུར་བ་	-8.88208
▁ཡང་	-8.8836
འཕེལ་རྒྱས་དང་	-8.88375
བྱ་དགོས།	-8.88398
འཕེལ་རྒྱས་ལ་	-8.884
ཕན་འབྲས་	-8.88466
བརྙན་འཕྲིན་	-8.88574
པར་འགྱུར་རོ།	-8.88626
འོད་	-8.88749
ནག་	-8.88752
ཉོ་ཚོང་	-8.88763
ནས	-8.88795
ན་གྱི་	-8.88935
ཐམས་ཅད་ཀྱི་	-8.88959
▁30	-8.89034
གྲོང་ཁྱེར་གྱིས་	-8.89038
བསྡུ་	-8.89219
རྩེ་	-8.8926
བ་རེད།	-8.89296
སྒྲིག་གཞི་	-8.89326
རྒྱུ།	-8.89332
སྟེང་དུ་	-8.8937
དགོས་པ་	-8.89374
རྡོ་	-8.89423
པའི་ཕྱིར་	-8.89427
ཚང་	-8.89519
རྗེས།	-8.89565
དཔྱད་	-8.89619
རྟ་	-8.89718
དག་གིས་	-8.89841
སྦྱོར་བ་	-8.89859
དམིགས་འབེན་	-8.89984
▁ད་དུང་	-8.9028
དགེ་སློང་	-8.90303
གྲོང་ཁྱེར་དང་	-8.90318
ཕྱོགས་སུ་	-8.90371
རིག་	-8.90415
ཅེས་	-8.90485
▁2014	-8.90495
སྒྱུར་	-8.90527
ལ་ཡང་	-8.90635
ཤུགས་སྣོན་རྒྱག་	-8.90756
▁ཇི་ལྟར་	-8.9088
སྒྲོག་འགྲེལ་	-8.90916
བཟུང་	-8.91108
བར།	-8.91222
▁དེའི་ཕྱིར་	-8.91235
གཅིག་གི་	-8.91354
ལོངས་སྤྱོད་	-8.91559
ལྟ་ཞིབ་	-8.91574
དེ་ཡང་	-8.91609
སྡོད་ཁང་	-8.9171
བཀོལ་སྤྱོད་	-8.91935
འབྱོར་	-8.91981
ཕུལ་བྱུང་	-8.91995
འམ་	-8.91997
འགྱུར་ལྡོག་	-8.92065
བདེ་བ་	-8.92095
ཅན།	-8.92103
བཞིན་ཡོད།	-8.92108
སྤྱི་ཚོགས་ཀྱི་	-8.92164
བརྟན་ལྷིང་	-8.92208
འདོད་པ་	-8.92223
ཁྲི	-8.92375
ཡིན་པར་	-8.92403
བས་བཅུ་གསུམ་པའི་	-8.92447
ངོ་བོ་	-8.92473
བྱས་རྗེས་	-8.92536
བྱས་པར་གཞིགས་ན།	-8.92595
ང་ཚོས་	-8.92596
ཞུ་	-8.92756
འཛུགས་སྐྱོང་	-8.92791
འཆར་གཞི་	-8.92833
བྱས་པ་དང་	-8.92891
གོས་	-8.93027
སོ་སོའི་	-8.93052
ལས་ཁུངས་ཀྱི་	-8.93067
བཀའ་	-8.93446
སྐྱེ་	-8.93466
ལོག་	-8.93507
རྒྱུན་ལས་ཨུ་ཡོན།	-8.9357
བཀྲ་ཤིས་	-8.93669
ས་གནས་	-8.93687
བདེ་ཐང་	-8.93759
སླར་ཡང་	-8.93768
ཤེས་རབ་	-8.93866
འཚོ་བའི་	-8.93951
རིགས་ཀྱི་	-8.94111
ཏང་	-8.94134
དུད་ཚང་	-8.94309
གསུང་	-8.9431
ཀ	-8.94378
ཟླ	-8.94455
བརྟག་དཔྱད་	-8.94464
ནང་དོན་	-8.94564
ཀྱི་ཀྲུའུ་ཞི་	-8.9463
བསོད་ནམས་	-8.94834
ཞལ་	-8.94914
ཧ་	-8.94915
འགྲེམས་སྟོན་	-8.94949
རྒྱན་	-8.9502
▁འབྲེལ་	-8.95023
མུའུ་	-8.95252
▁.	-8.9532
གསོ་སྐྱོང་	-8.95334
དང	-8.9542
སྡོད་	-8.95616
ཐེངས་	-8.95786
ཚ་	-8.95818
▁ཀློག་གྲངས།	-8.95841
རྒྱལ་ཁབ་གཉིས་	-8.95842
བཤད་པ་	-8.95954
ཁྱད་ཆོས་ལྡན་པའི་	-8.95958
ཡོང་བར་	-8.96058
མཱ་	-8.96097
ཉི་མ་	-8.96122
འཐུས་མི་	-8.96253
▁སྤེལ་དུས།	-8.96294
བྱེད་ཤུགས་ཆེ་རུ་	-8.96301
མདོ་	-8.96369
སློབ་ཁྲིད་	-8.96435
▁རྒྱལ་སྲིད་	-8.96529
▁ཚེས	-8.9658
མ་ཡིན་ཏེ།	-8.96581
▁ཨ་	-8.96583
གྱི	-8.9664
མཐོང་བ་	-8.96645
འགོག་	-8.96775
ཅིན་	-8.96816
གྲོང་	-8.96877
མཛུབ་སྟོན་	-8.96889
བཟང་བོ་	-8.97116
ལས་ཁུངས་ཀྱིས་	-8.97123
འཁོར་ལོ་	-8.97253
སྦྱོང་བརྡར་	-8.97332
བཞུགས་	-8.97401
ཞིང་ཆེན་ཡོངས་ཀྱི	-8.97698
▁ཡང་ན་	-8.9772
ཡོངས་ཀྱི་	-8.97749
ནན་	-8.97857
དྲིལ་སྒྲོག་	-8.98011
▁ཆོས་	-8.98113
▁17	-8.98233
འདུག་	-8.98275
རྩ་འཛུགས་ཀྱི་	-8.98285
▁དེ་དག་	-8.98312
མཐུན་སྒྲིལ་	-8.98332
དམིགས་ཚད་	-8.98529
ཆས་	-8.98556
ཁྱབ་	-8.9862
▁མཉམ་འབྲེལ་རྒྱལ་	-8.98821
▁18	-8.98847
ཡོད་པ་དང་	-8.98859
▁ཞེས་པའི་	-8.98862
ཕྱོགས་ཀྱི་	-8.98925
▁ཤེས་རྟོགས་	-8.98951
སྔགས་	-8.98954
ཁྱབ་ཁོངས་	-8.99037
བྱུང་བར་གཞིགས་ན།	-8.99183
རྨང་གཞི་	-8.99312
▁པར་མཛོད།	-8.99338
དབང་པོ་	-8.99409
གསེར་	-8.99525
དུས་སུ་	-8.99584
▁ཐེངས་འདིའི་	-8.99593
ཞིག་རེད།	-8.99671
བརྒྱ་	-8.99677
གནས་པ་	-8.99803
དང་དེ་བཞིན་	-8.99907
བཞུགས་མོལ་	-8.99932
▁མཚོ་སྔོན་བོད་	-8.99943
ཐད་གཏོང་།	-9.00168
ཁ་ཕྱོགས་	-9.00283
འཐུས་སྒོ་ཚང་དུ་	-9.00307
བྱིས་པ་	-9.00377
གྱིས།	-9.00525
ཅིང་།	-9.00539
འདུས་	-9.00715
སྐྱོང་	-9.00774
ཕྱི་འབྲེལ་	-9.0082
མིའི་	-9.00988
རང་ལྗོངས་ཀྱི་	-9.01035
གནང་བའི་	-9.01037
སོང་	-9.01156
ཤེས་རབ་ཀྱི་	-9.01171
སྐྱེལ་	-9.01178
▁གང་	-9.01199
ཆེད་ལས་	-9.01208
རིག་པ་	-9.01266
བྱེད་རྒྱུ་རེད།	-9.01344
རླུང་འཕྲིན་	-9.0146
ཟབ་མོ་	-9.01472
སྙིང་པོ་	-9.01509
འདི་ལ་	-9.01562
ལྟེ་གནས་	-9.01706
ངན་	-9.0184
ཡོན་	-9.01872
རང་བྱུང་	-9.0207
པུའུ་	-9.02108
▁13	-9.02129
འམ།	-9.02153
བོད་རིགས་	-9.02178
གཅིག་ཏུ་	-9.02191
སློབ་གྲྭའི་	-9.02305
དགོས་པ་དང་།	-9.02309
མྱོང་	-9.02356
ཀྱི	-9.02446
མི་ཚོགས་ཆེན་སྐ	-9.02494
མཐར་	-9.02653
བཅོས་བསྒྱུར་	-9.02701
ཁོ་ན་	-9.02767
ངོ་	-9.02802
སྲོལ་	-9.02802
མཚམས་	-9.03098
བཏང་	-9.03105
འགག་སྒྲོལ་	-9.03138
རྐྱེན་ལམ་དུ་ཤོར་	-9.03148
ཉམས་མྱོང་	-9.03188
རྒྱུན་མཐུད་	-9.03198
ཡིན་ཞིང་།	-9.03206
ཕྱག་རྒྱ་	-9.03283
གནས་སྐོར་	-9.03304
བྱས་པས་	-9.03309
▁ཨོཾ་	-9.03339
ལེགས་བཅོས་	-9.03434
ཿ	-9.03502
མོའི་	-9.03539
དང་པོའི་	-9.03782
ལོ་རྒྱུས་ཀྱི་	-9.03851
མི་སྣའི་	-9.03928
ཁྱོད་	-9.0397
▁16	-9.04028
ཡོད་པར་	-9.04131
ཉི་	-9.04201
ཐ་	-9.04216
ལས་བྱེད་པ་དང་	-9.04219
པ་སྟེ།	-9.04372
ཆེན་མོ་	-9.04442
ནུས་ལྡན་	-9.04445
▁རྒྱལ་ཁབ་ཀྱི་	-9.04552
བཅོས་	-9.04559
དུས་ཆེན་	-9.04597
ཏན་ཏིག་	-9.04613
མང་ཚོགས་ཀྱིས་	-9.04614
སྤྲོད་	-9.04669
▁ཀྲུང་གོའི་བོད་	-9.04682
བསྐྱོད་	-9.04773
གླེང་	-9.04842
ཕན་	-9.04865
མ་འཇོག་	-9.04908
ལོའི་	-9.05083
ཁྲིད་སྟོན་	-9.05113
ཁར་	-9.05211
བཞག་	-9.05261
ཕ་	-9.05353
སློབ་སྦྱོང་དང་	-9.05396
གཞོན་པ་	-9.05471
ལོ	-9.05538
སངས་རྒྱས་ཀྱི་	-9.05583
ཅུང་	-9.05635
བྱ་རྒྱུའི་	-9.05681
པོར་	-9.05705
སྣ་	-9.05762
རྣལ་འབྱོར་	-9.05828
ས་ཆ་	-9.05922
ཡན་	-9.05961
མྱུར་དུ་	-9.06026
གཏོང་བ་དང་	-9.06045
ཡོད་དེ།	-9.06124
རྒྱུ་ཡིན་པ་རེད།	-9.06213
ཅི་ཞི་ཅིན་ཕིང་གི	-9.0623
དམག་དོན་	-9.06333
ཆུ་ཚད་	-9.06441
ས་བོན་	-9.06489
བླང་བྱ་	-9.06548
▁གསར་འགོད་པས་	-9.06587
ཞི་ཅིན་ཕིང་གིས་	-9.06609
ཡིད་ཆེས་	-9.06691
འབུམ་	-9.06705
ཕྱིར།	-9.06754
གྲ་སྒྲིག་	-9.06774
དག་པར་རྫོགས་པའི་	-9.0679
ནུབ་	-9.06958
▁14	-9.07016
པོས་	-9.07128
ཏིང་ངེ་འཛིན་	-9.07172
རྣམ་པར་ཤེས་པ་	-9.07368
སྔར་	-9.07377
▁མི་རིགས་	-9.075
▁སྤྱི་ཁྱབ་ཧྲུའུ་	-9.07623
གཉིས་པ་	-9.07639
འདི་དག་	-9.07736
འཛུགས་སྐྲུན་གྱི་	-9.07785
ཁྲིམས་འཛིན་	-9.07855
ཟས་	-9.07882
ཞིག་ཡིན།	-9.07897
སྔོན་འགོག་	-9.08284
འདིས་	-9.08457
སློབ་ཆེན་	-9.08495
▁དཔྱད་མཆན་སྤེལ།	-9.08527
གཟིགས་	-9.08536
▁གསར་ཤོས།	-9.08582
བཙུགས་	-9.08584
▁འབྲེལ་ཡོད།	-9.08619
རྒྱག་	-9.08681
ཅ་	-9.08699
ཡུན་རིང་	-9.08716
འཕེལ་	-9.08854
དབང་གིས་	-9.08858
ཟུར་	-9.09008
རང་ཉིད་	-9.09022
མོས་	-9.09074
སེམས་དཔའ་ཆེན་པོ་	-9.09075
ལེགས་སྒྲིག་	-9.09126
▁རྒྱང་སྒྲོག	-9.09175
▁ཚ་ཤོས།	-9.09215
བོད་ཡིག་	-9.09234
གཞི་རིམ་	-9.09265
དང་བཅས་པ་	-9.09298
ཡོད་པ།	-9.09448
བྲིས་	-9.0952
ཁང་གི་	-9.09603
བརྗོད་པ་	-9.0967
དགོངས་པ་	-9.09717
▁ས་གནས།	-9.09844
དངོས་འབེབས་	-9.0985
དར་རྒྱས་	-9.09966
ལག་བསྟར་བྱེད་	-9.09988
འགྱུར།	-9.10002
▁ཤིན་ཧྭ་གསར་འགྱུ	-9.10096
ཡིས།	-9.10109
བྱ།	-9.10169
ལཱ་	-9.10186
ད།	-9.10215
མཛུབ་ཁྲིད་	-9.10221
ཆབ་སྲིད་ཀྱི་	-9.10235
འདི་ཉིད་	-9.10267
ཟིན་	-9.10278
▁བོད་ལྗོངས་ཀྱིས་	-9.10422
བོད་ལྗོངས།	-9.10455
ནུས་པ་འདོན་སྤེལ་	-9.10524
ལྔའི་	-9.1055
འགྲེམ་སྟོན་	-9.10556
གསར་སྐྲུན་	-9.10561
སྤེལ་བའི་	-9.1058
སློབ་གསོ།	-9.10642
དོན་དུ་	-9.10694
རྒྱ་མཚོ་	-9.10747
རྟག་ཏུ་	-9.1078
ས་ཀྱི་	-9.10908
རྩོམ་	-9.1093
བརྟན་	-9.10948
▁འཇིག་རྟེན་	-9.10985
རིན་ཐང་	-9.11055
བརྩམས་ཆོས་	-9.1106
དྲ་བརྙན།	-9.11096
▁གློག་བརྙན་ཟློས	-9.1129
སེལ་	-9.11438
▁དང	-9.11439
མ་ཡིན་ནོ།	-9.11594
མེད་པས་	-9.11806
ཁས་ལེན་	-9.11878
ཁོང་	-9.11891
མཐུན་	-9.11947
འང་	-9.12134
བྱས་པར་	-9.12156
ཁོ་	-9.12252
འབད་བརྩོན་	-9.12293
དོན་དངོས་	-9.12369
འབབ་	-9.12457
མི་གྲངས་	-9.12479
ཞེ་ན།	-9.12524
▁སྐད་འཇོག་པ།	-9.12667
དམག་དཔུང་	-9.12675
▁ཉེ་ཆར།	-9.12723
ལས་གྲྭ་	-9.12768
▁འདི་ལྟར་	-9.12961
ཤེས་བྱ་	-9.13012
མདའ་	-9.13032
▁རྒྱལ་	-9.13044
རྣམས་ནི་	-9.13054
འཕྲིན་ཡིག་སྒམ།	-9.13162
གསོལ་	-9.13227
འདེབས་	-9.13337
རྣམ་པར་དག་པ་	-9.13414
སྒོས་	-9.13442
གལ་ཆེའི་	-9.13443
བྱ་གཞག་	-9.13586
གོ་སྐབས་	-9.13647
▁རང་	-9.13725
འཛིན་པ་	-9.13754
ཞེས་བྱའོ།	-9.13787
སྲིད་གྲོས་	-9.13805
རྟེན་གཞི་	-9.13958
གཙོ་བོར་	-9.13961
ལས་བྱེད་པའི་	-9.13993
གང་ཞིག་	-9.14007
འདྲ་	-9.14044
གླེང་སྟེགས་	-9.14138
མཛད།	-9.14278
སྟོད་	-9.14294
ཡིན་པ་རེད།	-9.14324
སྦྱིན་	-9.14584
སྒྲིག་སྲོལ་	-9.14636
▁གནས་སྐོར།	-9.14786
ལོར་	-9.14831
རུང་	-9.14953
བྱེད།	-9.15008
སློབ་མའི་	-9.15107
ནས་ཤེས་རྟོགས་	-9.15161
གོ་རིམ་	-9.15257
ཐུགས་	-9.15362
ཐོ་འགོད་	-9.15402
ཡོད	-9.15619
ཐབས་ལམ་	-9.15656
སྟངས་	-9.15674
བསྡུས་	-9.15689
▁ཙམ་	-9.15689
འབྲི་	-9.157
གཏོད་	-9.15702
པདྨ་	-9.1572
སྟོན་པ་	-9.15734
མཚོ་སྔོན།	-9.1574
▁2013	-9.1575
མང་དུ་	-9.15751
སྔོན་ལ་	-9.15832
ཁྲོད་དུ་	-9.15845
གནམ་གཤིས་	-9.15865
▁ཞེས་པ་	-9.15878
བྱེད་དགོས་པ་དང་།	-9.1597
རིན་ཆེན་	-9.15974
གྲོང་ཚོར་	-9.1598
▁བརྙན་ཟློས།	-9.1615
གསུང་བཤད་གལ་ཆེན་	-9.16204
བཅུ་དགུ་པའི་	-9.16267
འཕར་	-9.16372
རྐང་	-9.16425
བྱ་རྒྱུ་རེད།	-9.16535
འབུལ་	-9.16575
ལས་བྱུང་བའི་	-9.16596
ནོར་སྲིད་	-9.16678
ཀུན་ཏུ་	-9.16776
མཚོ་སྔོན་གྱི་	-9.16783
སྒོར་ཁྲི་	-9.16814
སྙིང་སྟོབས་	-9.16931
༤	-9.16991
འགྲོ་བའི་	-9.17026
ཧྲི་	-9.17061
དཔོན་	-9.17148
▁འབྲེལ་ཡོད་	-9.1729
ཤོག་	-9.17299
དག་ལ་	-9.17302
དེ་བཞིན་དུ་	-9.17322
སེར་	-9.17456
▁ཏང་གི་ཚོགས་ཆེན་	-9.17474
▁དཔལ་འབྱོར།	-9.17569
ནེ་	-9.17584
བུ་མོ་	-9.17586
ཡོངས་བསྒྲགས་	-9.17611
ལྟ་སྐུལ་དོ་དམ་	-9.17711
གྱུར་	-9.17729
གནང་།	-9.17729
གཅིག་སྡུད་	-9.17733
དབྱི་	-9.17795
ཡོངས་	-9.17904
རྙེད་	-9.17916
སྤྱི་ཁྱབ་	-9.17929
བསྒྱུར་བཅོས་	-9.18043
པའོ་	-9.18049
ལྟར།	-9.18114
ཝེ་	-9.18148
ཨེ་	-9.1817
དཀར་པོ་	-9.18226
སྨད་	-9.18313
▁ལྷ་	-9.1836
སྔར་བཞིན་	-9.18412
▁25	-9.18521
མདུན་དུ་	-9.18531
མཇལ་འཕྲད་གནང་བ།	-9.18538
བྱེད་སྟངས་	-9.18672
ཆད་	-9.18789
ཀྱང།	-9.18861
ན་གཞོན་	-9.1899
འགྱུར་མཉམ་བསྒྲགས	-9.18998
ཚེ།	-9.19014
ལྟ་བུའི་	-9.19038
▁འདི་	-9.19281
གནས་པའི་	-9.19392
ཆོ་ག་	-9.19416
སྐབས།	-9.19421
རིམ་པའི་	-9.19517
མྱི་	-9.19565
བྱིན་	-9.19587
ཐུན་མོང་	-9.19603
ལྕགས་	-9.19643
བདེ་སྐྱིད་	-9.19667
ཁྲིད་	-9.19681
དམིགས་	-9.19746
ལིས་	-9.19771
སྤེལ།	-9.19774
ཞིབ་	-9.19814
ཝ་	-9.19843
ཏ	-9.19902
གྲོང་མི་	-9.1996
ཐོབ་པའི་	-9.19973
འདེབས་འཛུགས་	-9.19996
ཁི་	-9.20001
བཅད་	-9.20078
བདག་གིས་	-9.20246
ྀ	-9.20272
གྱིས	-9.20392
གཅོད་	-9.20418
རྟོགས་པ་	-9.20418
ཐུན་མོང་གི་	-9.20436
སྙིང་	-9.20451
རྫོང་གི་	-9.20457
རིང་།	-9.20468
གསུངས་	-9.20634
རྒྱང་སྒྲོག་	-9.20734
ངེས་པ་	-9.20886
ཇེ་	-9.21083
▁ལོའི་ཟླ	-9.21091
ཁོང་གིས་	-9.21098
འདྲེན་	-9.21132
པའམ་	-9.21237
བློ་མཐུན་	-9.21238
ལེགས་པོ་	-9.21307
ཆུའི་	-9.2142
བླ་མ་	-9.21425
གནས་སྐབས་	-9.21465
ཤི་	-9.21579
ངའི་	-9.21632
སྒོ་འབྱེད་	-9.21692
ཀྲུའུ་ཞི་གཞོན་པ་	-9.21785
དོ།	-9.21826
ཐུབ་པའི་	-9.21836
བོད་སྐད་	-9.21836
ཨན་	-9.21934
རྒྱུན་ལས་	-9.21956
དར་སྤེལ་	-9.21982
རིན་	-9.22064
གསུངས་པ་	-9.22094
འགན་ཁུར་	-9.22107
དམིགས་པ་	-9.22111
ངོ་བོ་ཉིད་	-9.22123
ཁྲོད་ཀྱི་	-9.22126
ཝང་	-9.22132
ཆེ་བ་	-9.22139
ཚོ་	-9.22154
ཆོས་ཉིད་	-9.22196
བོད་སྐྱོར་	-9.22204
གཏམ་	-9.22219
ཙུང་ལི་	-9.2225
ཡང།	-9.22315
བྱེད་རྒྱུ་	-9.22355
བཅོས་སྒྲིག་	-9.22383
གལ་ཏེ་	-9.22508
འདི་ལྟར་	-9.22585
▁ངས་	-9.22618
གོ།	-9.22709
བྱེད་སྐབས་	-9.22723
དཔྱད་ཞིབ་	-9.22763
ཟ་	-9.22847
གྲུབ་པ་	-9.22892
འཛམ་གླིང་གི་	-9.22911
རིན་གོང་	-9.22927
༧	-9.23156
དྲན་	-9.23199
ཆག་	-9.23327
▁དཔེར་ན་	-9.23355
སྔོན་ཐོན་	-9.23386
མཐའ་གཅིག་ཏུ་	-9.23429
ཨུ་ཡོན་ལྷན་ཁང་གི	-9.23445
ལྷ་མོ་	-9.23534
སྤུས་ཚད་	-9.23676
གནས་སུ་	-9.23744
བསམ་བློའི་	-9.23822
བྱས་ན་	-9.2406
ཞེས་བྱ་བའི་	-9.24071
གསུམ་པ་	-9.24127
པ་ལ་	-9.24139
ལས་རིགས་ཀྱི་	-9.2432
འགྱུར་རོ།	-9.24367
གཞན་གྱི་	-9.24432
བྱས་ཡོད་པ་རེད།	-9.24517
ཡང་བསྐྱར་	-9.2454
དེ་དག་གི་	-9.24631
ཞུས་	-9.24637
▁ཆུ་	-9.24707
ལ་སོགས་	-9.24708
རིག་པའི་	-9.24802
གི	-9.24803
ཞང་	-9.24806
ཐོག་མ་	-9.24941
དག་གི་	-9.24994
ཞིག་ཏུ་	-9.25025
རོགས་སྐྱོབ་	-9.25134
ཚང་མར་	-9.25148
ཐོབ་པ་	-9.25205
▁བའི་ཚེས	-9.25225
ཕུང་པོ་	-9.25235
གཉིས་སུ་	-9.25277
གྲོགས་	-9.25374
དགེ་འདུན་	-9.25375
འབྲས་	-9.25412
ཐེ་	-9.25453
གིས།	-9.25569
ཉིས་སྟོང་	-9.25619
རྐྱེན་ལམ་དུ་ཤོར།	-9.25705
▁རྒྱུད་གཅིག་ལམ་	-9.25742
བཟོས་	-9.25773
མཉམ་འབྲེལ་རྒྱལ་	-9.2593
ཁྲིམས་ལྟར་	-9.26009
༥	-9.26023
ཚན་རིག་	-9.26037
ས་ཚིགས་	-9.26096
བསྟན་པའི་	-9.26136
ཡར་	-9.26139
ཤུགས་ཆེན་	-9.26221
ཀྲུང་ཧྭ་མི་རིགས་	-9.26262
པོ།	-9.26286
ཐོས་	-9.26289
མཁོ་འདོན་	-9.26299
བརྗོད་དོན་གཙོ་བོ	-9.26303
མཁར་	-9.26354
གཏོར་	-9.26361
ལགས་	-9.26483
མེད་དོ།	-9.26596
རིག་དངོས་	-9.2667
རྒན་	-9.26746
▁21	-9.26783
▁སེམས་ཅན་	-9.26834
གཞི་ཁྱོན་	-9.26869
ལམ་སྲོལ་	-9.26884
▁2019	-9.27028
▁༠༨༩༡	-9.27107
བྱེད་ཀྱི་	-9.27113
སྤེལ་རེས་	-9.27332
གནས།	-9.27352
བྱེད་ཀྱི་ཡོད།	-9.27384
དུས་རབས་	-9.27449
ན་གྱིས་	-9.275
རྩོམ་རིག་	-9.27502
བྱའོ།	-9.27554
ཡེ་	-9.27588
རྒྱུན་ལས་ཨུ་	-9.27657
ནི	-9.27718
▁>>	-9.2772
རང་རྒྱལ་གྱི་	-9.27791
གཙོ་	-9.27803
▁རྒྱལ་ཡོངས་ཀྱི་	-9.27807
ཡུལ་གྱི་	-9.27841
ཐོ་	-9.27924
ཨ་མེ་རི་ཁའི་	-9.27924
ལྷའི་	-9.28033
གཏེར་	-9.28047
སེ་	-9.28126
ཁྲོམ་རའི་	-9.28205
ཅང་	-9.28278
▁གཞན་	-9.28316
གློག་བརྙན་	-9.28348
བླངས་	-9.2838
བསྒྲུབ་	-9.28469
པའང་	-9.28511
རིག་གནས་ཀྱི་	-9.28548
རྡོ་རྗེའི་	-9.28589
▁ཀླུ་མོ་མཚོ།	-9.28606
དོན་རྐྱེན་	-9.2868
རྩལ་	-9.28717
གནད་	-9.28799
སྐུལ་སློང་	-9.28874
ཆགས་པ་	-9.28887
▁པར་	-9.28891
གར་	-9.28903
བརྗེ་རེས་	-9.28982
སྲོག་	-9.29184
མིན།	-9.29237
མཐའ་འཁྱོངས་	-9.29259
▁26	-9.2926
དེ་ལས་	-9.29288
སྐྱོད་	-9.29315
རྒྱབ་	-9.29357
ཕྱེད་	-9.29391
སྒྲུབ་པ་	-9.29444
སི་ཁྲོན་ཞིང་ཆེན་	-9.29554
རིས་	-9.29568
ཡུན་	-9.29623
ཡོང་བའི་	-9.29673
རོང་	-9.29686
པའམ།	-9.29714
༽	-9.29757
སྤྱི་ཁྱབ་ཁང་	-9.2982
དགོན་	-9.29882
རྒྱུག་	-9.29912
ཐ་སྙད་	-9.30078
གྲགས་	-9.3012
ལ་ནི་	-9.30186
ནམ་	-9.30258
ཐབས་ཇུས་	-9.30302
ཚད་ལྡན་	-9.30308
སྙན་ཞུ་	-9.30309
རྒྱུ་ནོར་	-9.30323
▁རིག་གནས་	-9.30598
གས	-9.30605
གཅིག་གིས་	-9.30625
བཏོན་པའི་	-9.3064
ཕྱིན་	-9.3066
བསམ་འཆར་	-9.30749
ད་ལྟ་	-9.30799
དམངས་འཐུས་ཚོགས་	-9.30804
ཀྱིས	-9.30809
བཟའ་	-9.30842
ཉན་	-9.30984
བགྲོ་གླེང་	-9.31085
ཀྱིས།	-9.31113
ཆི་	-9.31183
བྱུང་ཡོད།	-9.31195
གིས	-9.31202
ཚན་	-9.31305
▁རྩོམ་རིག	-9.31323
བསྐྱེད་	-9.31504
གསོ་	-9.31507
▁བོད་རང་སྐྱོང་	-9.31514
དྲི་	-9.31605
ལས་གནས་	-9.31672
ཡིན་ནོ་ཞེས་	-9.31721
ཐར་	-9.31775
སོང་།	-9.31775
གཞིས་རྩེ་	-9.31824
སྐྱིད་	-9.31849
འགྲུབ་	-9.31865
སྤྱད་	-9.32128
བཞིན་པའི་	-9.32148
མུ་	-9.32181
སློབ་དཔོན་	-9.32235
ཧྭ་	-9.32266
བརྟེན་	-9.32328
བཅུ་གཉིས་པའི་	-9.32352
དགེ་	-9.32476
ཡོད་ཟེར།	-9.32478
སྨྲ་བ་	-9.32489
ཡུལ་དུ་	-9.32556
ནམ་མཁའ་	-9.32603
ཐག་	-9.32643
བཅུ་གཉིས་	-9.32663
ཐོག་མཐའ་བར་གསུམ་	-9.32673
ཚེ་རིང་	-9.32682
བྱེད་དགོས་ཟེར།	-9.32998
སྦྱོང་	-9.3304
སོགས་ཀྱིས་	-9.33042
བསམ་པ་	-9.3313
དབྱང་	-9.33141
ཚང་མས་	-9.33161
མི་དམངས་ཚོགས་ཁང་	-9.33215
མཁས་པ་	-9.33245
འགོ་	-9.3329
བཟོ་ལས་	-9.33318
དུས་ཐོག་ཏུ་	-9.33322
ཅིའི་ཕྱིར་ཞེ་ན།	-9.33333
▁ད་ལྟ་	-9.33348
ལྷ་སར་	-9.33383
འབྱུང་བའི་	-9.33498
ཧྥུའུ་	-9.33617
དྲག་	-9.33698
ཆུས་	-9.33722
སླར་གསོ་	-9.33725
པེ་	-9.33729
དང་ལྡན་པའི་	-9.33732
མཛད་སྒོ་	-9.33742
བརྟན་པོ་	-9.33821
ཐོག	-9.33866
ནཱ་	-9.33875
བྱ་དགའ་	-9.33947
ཡོང་བ་	-9.34021
ངལ་རྩོལ་	-9.34039
གཙོ་བོའི་	-9.34057
བརྩོན་ལེན་	-9.34073
ཉིད་ཀྱིས་	-9.34111
༼	-9.34155
བྱ་ཡུལ་	-9.34201
ངག་	-9.34221
ཁང་པ་	-9.34224
བཅོ་བརྒྱད་	-9.34389
བྱེད་སྒོའི་	-9.34438
མགྱོགས་མྱུར་	-9.34503
སླེབས་	-9.34519
གྲོས་གཞི་	-9.34571
▁འདིར་	-9.34593
ཚོགས་ཆུང་	-9.34594
དབང་ཆ་	-9.34662
ནུས་ཤུགས་ཡོད་རྒུ	-9.34676
བདེ་བླག་ངང་	-9.34739
རྟོག་ཞིབ་	-9.34751
སྡེ་ཁག་གིས་	-9.34878
སྤེལ་བ།	-9.35024
ཧོ་	-9.35025
རྒྱུ་རྐྱེན་	-9.35055
བརྒྱུད་རིམ་	-9.35096
ངོས་	-9.35117
བཏོན་	-9.3519
རུ་ཁག་	-9.35286
ཧི་	-9.35296
ཐེབས་	-9.35375
བཏང་སྟེ།	-9.35381
ཟད་	-9.35412
ཐིག་	-9.35423
རྟོག་པ་	-9.35458
བྱེད་དགོས་ཞེས་	-9.3547
སྟབས་བདེ་	-9.35578
པ་ཡིན།	-9.35612
འཕེལ་རྒྱས་གཏོང་	-9.35617
མཐོ་	-9.35763
གཟེངས་བསྟོད་	-9.35775
ཤེས་རྟོགས་	-9.35874
གཉེར་སྐྱོང་	-9.35899
གཉིས་ཀ་	-9.3596
རྩ་བའི་	-9.35967
འཇིགས་སྐུལ་	-9.35978
ལྟར་ན།	-9.36044
ལྷ་སའི་	-9.361
ཀི་	-9.36111
ནགས་	-9.36138
པཱ་	-9.36154
ཀུན་གྱི་	-9.36281
རོལ་	-9.36308
རིན་པོ་ཆེ་	-9.36382
དགོས་མཁོ་	-9.36443
བཞུགས་མོལ་ཚོགས་འ	-9.36509
ཚེས	-9.36516
ཁྱབ་ཁོངས་ཀྱི་	-9.36719
སྡེ་བའི་	-9.3672
སྨྲས་པ།	-9.36758
དངོས་གྲུབ་	-9.36785
བཅའ་སྡོད་	-9.36789
རྟེན་འབྲེལ་	-9.36827
▁དེ་ཉིད་	-9.36846
སྨན་ཁང་	-9.36862
འགན་བཅོལ་	-9.36917
▁ཏང་གི་	-9.36939
བསྡུས།	-9.36944
བཞིན་པ།	-9.37002
བཀོད་པ་	-9.37028
ཚོང་དོན་	-9.37043
༦	-9.37053
ཚུལ་ཁྲིམས་	-9.37078
འགན་འཁུར་	-9.37101
དཀའ་ངལ་	-9.37132
ཚོད་ལྟའི་	-9.3714
ཆང་	-9.37154
བོད་དུ་	-9.37166
ཡིག་ཆ་	-9.37306
ཁེ་ཕན་	-9.37339
རྒྱུ་དང་།	-9.37393
ནན་གྱིས་བསྟན་དོན	-9.37566
པར་བྱའོ།	-9.3759
འདས་	-9.37626
འོག་ཏུ་	-9.37648
མོད།	-9.37746
དེབ་	-9.37755
འཇུག་པ་	-9.37756
ཉེན་ཁ་	-9.37758
ཞིང།	-9.37827
ཞིག་གིས་	-9.37869
ཝང་ཅན་ཅུན་	-9.37995
བདག་གི་	-9.38034
བཏང་ནས།	-9.38099
སི་རི་ཡཱའི་	-9.38104
ཉི་ཤུ་	-9.38178
ཡུས་	-9.38213
ཧྲན་	-9.38313
དགའ་བ་	-9.38319
གྲོས་མཐུན་	-9.38354
སྦྱར་	-9.38377
ཆེན་པོས་	-9.38384
གསུམ	-9.3859
▁ནང་	-9.38668
རྒྱུན་འཛིན་	-9.38699
བྱ་རྒྱུ།	-9.38781
ཁེ་ལས་ཀྱི་	-9.38812
བོར་	-9.38883
སྒྲུབ་པའི་	-9.38944
ས་ཁོངས་	-9.38948
པེ་ཅིན་	-9.38955
ལྗོངས་	-9.39072
ཡིན་ན་	-9.39239
ཀྲུང་གོར་	-9.3926
བཏང་བ།	-9.39273
▁ལྗོངས་ཏང་ཨུད་	-9.39302
▁ཡུས་ཀྲིན་ཧྲིན་	-9.39327
དབུས་སུ་	-9.39406
ཁ	-9.39423
ཏང་ཡོན་	-9.39438
༨	-9.39478
དབང་ཕྱུག་	-9.39518
འཇིག་རྟེན་གྱི་	-9.39539
སྐྱེད་	-9.39809
དབྱེ་	-9.39894
སེམས་ཀྱི་	-9.39972
ཚོགས་འདུའི་ཐོག་	-9.4002
མ་ཡིན་པའི་	-9.40079
གསང་	-9.40084
དམངས་	-9.40113
ལྟེ་བའི་	-9.40144
གཟི་བརྗིད་	-9.40173
གང་གིས་	-9.40185
འཛོམས་	-9.40195
དཀའ་	-9.40212
རྒྱལ་ཁབ་ཀྱིས་	-9.40345
གཞན་དག་	-9.40373
དང་པོར་	-9.40497
▁24	-9.40534
སོགས་ལ་	-9.40588
བྱེད་ཚད་	-9.40604
ལག་ལེན་མཐར་ཕྱིན་	-9.40613
ཀྲོའུ་	-9.40646
གཏོང་བར་	-9.4081
ཆེད།	-9.40814
རྣམ་པའི་	-9.40877
▁ཆོས་ལུགས།	-9.40996
མཚན་མ་	-9.41093
▁གསར་འགྱུར་	-9.41126
ཁྲིམས་ལུགས་	-9.41163
སོ་སོ་	-9.41166
▁22	-9.41281
ཚོད་ལྟ་	-9.41286
འོས་འགན་	-9.41287
▁རྩོམ་པ་པོ།	-9.41294
ལས་བྱེད་པས་	-9.41298
རྒྱ་ཆེར་	-9.4131
འཛིན་གྲྭ་	-9.41343
དུ་མ་	-9.41347
ཏེ	-9.41351
ཟེར་	-9.41471
དྲ་བ་	-9.41504
སྒྲིག་ཁྲིམས་	-9.41552
སམ་	-9.41657
དངུལ་རྩའི་	-9.41874
པར་མ་ཟད།	-9.41895
སྔ་	-9.41938
ལམ་གྱི་	-9.41997
ལ་རྒྱབ་སྐྱོར་	-9.42087
དྲ་བའི་	-9.42131
ནས་བཟུང་	-9.42177
ཐུང་	-9.42206
▁དེའི་ནང་	-9.42222
▁སྤྱི་ཟླ	-9.42225
▁ལོ་ལྔ་ཚན་བཅུ་	-9.42225
▁དུས་	-9.42237
ཚོགས་མིའི་	-9.42379
ཕུགས་འདུན་	-9.42384
ཡི།	-9.42386
མདོག་	-9.42471
གྲོང་ཁྱེར་དུ་	-9.42479
འདོན་སྤེལ་	-9.42605
རབ་དང་རིམ་པ་	-9.42614
མཛེས་	-9.42653
ཁག་གི་	-9.4277
མང་པོ་ཞིག་	-9.42771
རིམ་གྱིས་	-9.42891
ཞིག་གི་	-9.42922
འདི་ལྟ་སྟེ།	-9.43004
འགལ་བ་	-9.4309
ཁྱད་ལྡན་	-9.43101
▁དཔལ་འབྱོར་	-9.43128
གསར་དུ་	-9.43142
སྤོས་	-9.43149
ཡ	-9.43213
ཏཱ་	-9.43336
མ་ཡིན་	-9.43391
པར་བྱེད་པ་	-9.4347
གཉིས།	-9.43541
ལིན་	-9.43565
▁[	-9.43647
ཐུན་མོང་ཐོག་	-9.43686
བྱིས་པའི་	-9.4369
ཕྱོགས་ནས་	-9.43718
དབུལ་ཐར་	-9.43725
མཛོད་	-9.43736
]	-9.43802
ཁུལ་དུ་	-9.4382
གསར་འགོད་པར་	-9.43856
སྐུལ་སྤེལ་	-9.44015
ཁ་དོག་	-9.44033
ལེའུ་	-9.44035
ཤ	-9.44095
གསུངས་པ།	-9.44115
སྐྱེས་པ་	-9.44117
སྲུང་སྐྱོང་གི་	-9.44165
འགུལ་སྐྱོད་	-9.44229
ང་ཚོའི་	-9.44237
ཡུལ་སྐོར་བ་	-9.4426
ལྕགས་ལམ་	-9.44267
པུའུ་ཀྲང་	-9.44269
འཇབ་རྒོལ་	-9.44368
ཆབ་སྲིད་ཅུའུ་ཡི་	-9.44513
གསར་པའི་	-9.44626
དམ་ཚིག་	-9.44652
མཆོད་པ་	-9.44656
རྫོགས་	-9.44721
ཞབས་	-9.4475
འཛོམས་གྲོས་ཚོགས་	-9.44761
མཐའ་མཚམས་	-9.44813
མ་ངོས།	-9.44851
▁རབ་འབྱོར་	-9.44884
དམངས་ཁྲོད་	-9.44886
བྲག་	-9.44936
ན་དམངས་ཆེན་སྐབས་	-9.4497
ལག་བསྟར་དོན་འཁྱོ	-9.4499
ན་སྲིད་གཞུང་དྲ་བ	-9.45041
ཅུང་ཟད་	-9.4521
འཚམས་འདྲི་	-9.45218
༡	-9.45242
བྱུང་བ་ལྟར་ན།	-9.45245
ལགས།	-9.45268
ཡོད་ཅེས་	-9.45276
རྡུལ་	-9.45301
གཅིག་ལ་	-9.45302
ཐུབ།	-9.45328
ཐེངས་འདིའི་	-9.45411
ཚོའི་	-9.45419
ཀུན་དུ་	-9.45447
བརྙན་འཕྲིན་ཁང་	-9.45476
པ་ཞིག་	-9.45511
མགོ་ཁྲིད་	-9.45523
མ་ཡིན།	-9.45528
རག་	-9.45613
ཆ་ཚང་	-9.45661
ནང་འདྲེན་	-9.45688
▁23	-9.45703
ས་ཁུལ་དུ་	-9.45721
▁འཛམ་གླིང་	-9.45732
སྐུལ་	-9.45904
འཆར་	-9.4592
▁28	-9.45995
གནོད་འཚེ་	-9.46031
དེ་བཞིན་གཤེགས་པ	-9.46066
འཛུགས་སྐྲུན་ལ་	-9.46139
ཡིན་ལ་	-9.46234
ཏུའུ་	-9.46236
རྟོག་	-9.46258
སྤྱི་ཚོགས་རིང་ལུ	-9.46342
ཝུའུ་	-9.46377
ཉེས་	-9.46417
▁40	-9.46467
ལུའུ་	-9.4649
བྱ་བའི་དོན་ཏོ།	-9.46506
དགོས་ཟེར།	-9.46514
▁པར་རིས་	-9.46541
དམ་པ་	-9.46571
དེ	-9.46581
འགག་	-9.46609
རི་མོ་	-9.46647
ཡིན་པ།	-9.46666
སྤྱི་ལོ	-9.46671
▁ད་ཆ་	-9.46677
ཟམ་མི་ཆད་པར་	-9.4678
▁དེར་	-9.46786
▁དེ་མིན་	-9.46792
མཛེས་སྡུག་ལྡན་པ	-9.46792
པུས་	-9.46846
▁བློ་མཐུན་	-9.46853
ཏུང་	-9.4686
ཡང་དག་པའི་	-9.469
གྱུར་པ་	-9.46925
དབྱེ་བ་	-9.47018
འགའ་	-9.4711
པ་དེ་	-9.47151
ཀོང་	-9.4721
རྗེ་	-9.4729
▁སེམས་	-9.47303
ཁོངས་གཏོགས་	-9.47324
▁སྲིད་ཁྲིམས།	-9.4743
གཏན་འཇགས་	-9.47445
ཨང་	-9.47552
ཟབ་	-9.47622
རྒྱ་མཚོའི་	-9.47646
ཁ་ཤས་	-9.47759
བཀག་	-9.47764
སྒྲིག་ལམ་	-9.47779
དབུ་	-9.47838
ཚོད་	-9.47859
▁50	-9.48069
བདེན་	-9.48113
གདོང་	-9.48125
ཁུ་	-9.48145
ཏང་ཀྲུང་དབྱང་གི་	-9.48246
རིག་རྩལ་	-9.48263
ཁུར་	-9.4835
འགྲེལ་	-9.48369
▁ཡིག་སྒྱུར།	-9.48389
འཛིན་པའི་	-9.48392
གཏིང་ཟབ་ཏུ་སྤེལ་	-9.48406
▁རང་གི་	-9.48481
སྤྱི་པའི་	-9.48541
སེམས་འདུན།	-9.48559
▁བརྒྱུད་འགོད།	-9.4856
དུག་	-9.48644
ཁྲག་	-9.48724
མེད་ན་	-9.48768
བསྟན་ཏོ།	-9.4878
གཉིས་ལ་	-9.48864
ཚོགས་འདུ་ཐེངས་	-9.48874
སྤང་	-9.48884
རོགས་རམ་	-9.48885
བྱེ་བྲག་	-9.48919
གྲོང་རྡལ་གྱི་	-9.49045
རྩ་བ་	-9.49093
སྤྲིན་	-9.49149
མཁན་གྱི་	-9.49196
པ་སོགས་	-9.49233
གྲོས་ཚོགས་བསྡུས།	-9.49283
▁རྒྱུན་ཤེས།	-9.4932
ཆ་སྙོམས་	-9.49417
བརྟག་ཞིབ་	-9.49471
འོད་ཟེར་	-9.49545
ང་ཚོ་	-9.49609
གསལ་བར་	-9.4962
▁དེ་ལྟར་ན་	-9.49696
ཞེ་	-9.497
བགྲོད་ལམ་	-9.49751
▁སྤྱི་ལོ	-9.49785
ཤོར་	-9.49891
སྔ་མ་	-9.49914
གཉིས་པ།	-9.49916
ཧ	-9.49932
ཚོར་བ་	-9.49939
དབུས་	-9.49955
ཀུན་སྤྱོད་	-9.49959
གང་ཟག་	-9.49968
གྲགས་པ་	-9.49977
ཡིན་པ་དང་	-9.50006
གཉིས་པའི་	-9.50009
▁60	-9.50189
འགོད་	-9.5021
འཁོར་རྒྱུག་	-9.50234
བཞིན།	-9.50271
༣	-9.50289
གློག་རྡུལ་ཡིག་ཟམ	-9.50336
སྣོད་	-9.50357
བདེན་པ་	-9.50397
རས་	-9.50403
ནང་ཞུགས་	-9.50529
ཉུང་	-9.50606
ཁྲང་	-9.50654
ནའང་	-9.50667
བློ་བཟང་	-9.50671
ཇུས་གཞི་	-9.50685
མིག་སྔར་	-9.50686
རྒྱུད་ཀྱི་	-9.50792
ཆོག་	-9.50803
བྱེད་དགོས་	-9.50821
ཆུ་ཚོད་	-9.50846
ཐོབ།	-9.50857
དུས་ཀྱི་	-9.50894
གྱོད་གཞི་	-9.50962
▁ཁོས་	-9.50972
ཉིན་རེའི་ཚགས་པར་	-9.51031
དབར་	-9.51042
འགོ་ཚུགས་	-9.51082
འཚོལ་ཞིབ་	-9.51111
དང་ཞིང་ཆེན་	-9.51116
འཕེལ་རྒྱས་འགྲོ་	-9.5117
འབྲེལ་བའི་	-9.51242
གྲོས་བསྡུར་	-9.5128
འཐུས་ཚང་དུ་གཏོང་	-9.51374
འབྱུང་བར་	-9.51376
རེ་རེ་	-9.51379
ཞི་བདེ་	-9.51539
ཐོག་མའི་	-9.51552
དབྱངས་	-9.51556
གཏམ་བཤད་	-9.51559
ཐོབ་ཐང་	-9.5158
རྒོད་	-9.51588
ཉེས་པ་	-9.51592
རྒྱལ་ཁབ་རིམ་པའི་	-9.51627
སྣང་ཚུལ་	-9.51667
འཕེལ་རིམ་	-9.51775
བསྟན།	-9.51819
ཞི་ཅིན་ཕིང་གི་	-9.51855
སྡེ་བ་	-9.51857
འཚོ་བར་	-9.51874
▁ཨ་མེ་རི་ཁའི་	-9.5192
སྦྱིན་པ་	-9.51994
འོས་	-9.52008
གུང་ཁྲན་ཏང་	-9.5207
དེ་བཞིན་	-9.52195
ཕོ་	-9.52242
དོ་	-9.52264
ནན་པོ་	-9.523
པའི་ཕྱིར།	-9.52422
སྒོར	-9.52434
བླ་	-9.52435
མོ།	-9.52473
གཞོན་ནུ་	-9.525
འགྲོ་འོང་	-9.5252
གདན་	-9.52657
ལྡན།	-9.52686
མཁྱེན་	-9.52781
འབྱོར་གསལ།	-9.52782
▁དེ་ལས་	-9.52807
བརྗོད།	-9.52861
ནམ་ཡང་	-9.52861
ྱ	-9.52867
ན་ཡང་	-9.52886
སྲས་	-9.52937
ལ་ཕྱག་འཚལ་ལོ།	-9.52948
གང་ཞེ་ན།	-9.5295
རྒྱུགས་	-9.52987
མཛད་པ་	-9.53003
སྔ་རྗེས་སུ་	-9.53013
མི་སྣས་	-9.53075
ཕུལ་	-9.53137
ཞའོ་	-9.53166
རྒྱ་ཁྱོན་	-9.53212
འཐེན་	-9.53221
ལྷོ་	-9.53222
རྒྱལ་ནང་	-9.53227
མཐོར་འདེགས་	-9.53229
དགོངས་	-9.53309
སྔོན་དུ་	-9.53325
དང་འབྲེལ་བའི་	-9.53342
ཅུས་	-9.53344
སྔོན་གྱི་	-9.53389
ཨུ་ཡོན་	-9.53401
བཞེངས་	-9.53401
སྔོན་རྩིས་	-9.53401
དཔལ་འབྱོར་གྱི་	-9.53519
ཡེ་ཤེས་ཀྱི་	-9.5354
བབས་	-9.53614
ནོ།	-9.53677
རྣམས།	-9.53683
ཕྱེ་	-9.53744
▁རྩོམ་སྒྲིག་	-9.53745
སྒང་	-9.53782
རིང་གི་	-9.53792
ཞིང་ཆེན་རིམ་པའི་	-9.53857
གས།	-9.539
རྒྱུ་མཚན་	-9.53928
བཙུགས་ནས་	-9.53937
▁རྒྱལ་སྲིད་སྤྱི་	-9.53976
བཟོས་པའི་	-9.54024
ཁྲིམས་སྐྱོང་	-9.5404
སྤྱི་བདེ་	-9.54049
གཟུགས་བརྙན་	-9.5408
དོན་གྱི་	-9.54115
དང་བཅས་པའི་	-9.54118
ལོ།	-9.54257
འཛད་སྤྱོད་	-9.54354
རྒྱལ་ནང་ཐོས་གནད།	-9.5437
མོ	-9.5437
འདོད་པའི་	-9.54397
ཆོག	-9.54404
ཡོ་རོབ་གླིང་	-9.54426
ངོ།	-9.54428
ཆ	-9.5446
ཞིང་སྡེའི་	-9.54492
རང་བཞིན་གྱིས་	-9.54514
སྡོམ་པ་	-9.54612
ས་གནས་དེ་གའི་	-9.54618
རྩྭ་ཐང་	-9.54648
འཁོར་སྐྱོད་	-9.54651
གཞན་དུ་	-9.54673
ལོ་ངོ་	-9.54705
གནད་སྨིན་	-9.54771
བི་	-9.54823
3	-9.54862
གྲངས་ཉུང་མི་རིག	-9.54904
ཕལ་ཆེར་	-9.54922
ཆེ།	-9.54977
མང་པོའི་	-9.54978
ལས་ཀར་	-9.54982
སྤྱིའི་ཐོས་གནད།	-9.55018
འ་	-9.55045
གནམ་གྲུ་	-9.55074
ཧེ་	-9.55097
ཚབ་	-9.55099
རྩྭ་	-9.55122
བསྐོར་	-9.55139
ཁུངས་	-9.55189
ཕེབས་	-9.55226
▁བོད་ཁུལ།	-9.55255
ཉིད།	-9.55435
ལས་གཏོད་	-9.55523
སྟེགས་བུ་	-9.55586
བྲལ་	-9.55778
བཞིན་ནོ།	-9.55809
རྐྱང་	-9.55829
བརྡ་	-9.55851
གྲོས་	-9.55886
ཧྲུའུ་ཅི་གཞོན་པ་	-9.55926
དུས་ཆེན་གྱི་	-9.55931
བྱས་པ་བརྒྱུད་	-9.55964
ཐ་དད་པ་	-9.55985
དག་ནི་	-9.55986
▁ཞིང་ཆེན་ཡོངས་	-9.56042
ལྡོག་	-9.56057
མདུན་	-9.56082
མནའ་འབྲེལ་གྱི་	-9.56113
▁བདག་	-9.56133
བསྟན་བཅོས་	-9.56169
ཁག་གཅིག་	-9.56275
རྣམས་ཀྱང་	-9.56275
གང་ལ་	-9.56296
གཏན་ཚིགས་	-9.56325
སྨྲ་	-9.56338
▁ད་ནི་	-9.56349
ནགས་ཚལ་	-9.5636
གཞན་ལ་	-9.56362
སྤྱད་དེ་	-9.56364
ཅིང།	-9.56394
དྲག་པོ་	-9.56428
གྲོན་དངུལ་	-9.56475
སྤྱོད་པའི་	-9.56532
འབྲུ་རིགས་	-9.5665
ཚལ་	-9.56668
གྲུབ་པའི་	-9.56723
རྒྱས་པར་	-9.56784
རྒྱུ་དང་	-9.56796
གསུམ།	-9.56903
འགན་	-9.56915
ཚོགས་འདུ་འཚོགས་	-9.56962
▁དེ་བས་	-9.56975
འབད་འཐབ་	-9.56984
ཕྱུག་འགྱུར་	-9.56989
▁རྒྱ་	-9.57009
རྩ་དོན་	-9.57056
སྐབས་ཀྱི་	-9.57105
གྲུ་	-9.57125
གཏམ་རྒྱུད་	-9.57128
གསར་འགྱུར་དྲ་བ།	-9.57151
▁ཁ་	-9.57158
སྐབས་བཅོ་བརྒྱད་པ	-9.57174
སྔོ་ཚལ་	-9.57198
པ་ལས་	-9.572
▁རྒྱལ་ཁབ་གཉིས་	-9.57312
▁རྒྱལ་ནང་	-9.57313
▁27	-9.57382
བྱས་པས།	-9.57434
ཁ་པར་	-9.575
བའི	-9.57522
ཆེ་ཤོས་	-9.57553
▁སློབ་གསོ།	-9.57566
ལྡན་པ་	-9.57567
ལྟ་བུར་	-9.57589
མཛེས་ལྗོངས་ཁུལ་	-9.57593
ཝུན་	-9.57602
ཕུའུ་	-9.57605
ཚོགས་འདུའི་	-9.57609
གསུངས།	-9.57613
དབྱིན་	-9.57629
ད་རུང་	-9.5764
ཁྱབ་བསྒྲགས་	-9.57645
གྲགས་ཅན་	-9.57666
དོན།	-9.57712
ཧན་	-9.57853
▁བོད་ལྗོངས།	-9.57937
ཆོས་ཐམས་ཅད་	-9.5799
ཟླ་བའི་	-9.58093
གོ་གནས་	-9.581
ལ་སྲུང་སྐྱོབ་	-9.58206
གཏུགས་བྱེད་ཚུལ།	-9.5823
དབང་གསལ་བསྒྲགས།	-9.58239
བྱས་པ་མ་ཟད།	-9.58262
སུ	-9.58311
ཡིན་པའི་ཕྱིར་	-9.58347
ལྷོ་ཁ་གྲོང་ཁྱེར་	-9.58369
ཇུས་འགོད་	-9.58437
ཁྲིམས་འགལ་	-9.58438
ཐད་ཀར་	-9.58445
ཙ	-9.58506
དེང་རབས་	-9.58518
བཏང་།	-9.58538
བྱ་རྒྱུ་དེ་	-9.58551
▁29	-9.5857
ཁྱིམ་ཚང་གི་	-9.58582
▁མཚོ་སྔོན་གྱིས་	-9.58601
སྙན་	-9.58619
གཟིགས་སྐྱོང་	-9.58649
གདེང་འཇོག་	-9.58703
སྟེར་	-9.58715
▁70	-9.58747
སྣེ་ལེན་	-9.58803
དང་ལེན་	-9.58868
▁100	-9.58885
ཆུ་བེད་	-9.58897
ནན་ཏན་	-9.58913
ཞིས་ཅིན་ཕིང་གིས་	-9.58935
གནང་བ་དང་།	-9.58992
ངོ་རྒོལ་	-9.59043
ཞེས་བྱ་བར་	-9.59113
མེ་ལོང་།	-9.5917
ཀན་སུའུ་ཞིང་ཆེན་	-9.59173
རྒྱལ་ས་	-9.59206
གྲོས་ཆོད་	-9.59245
དེ་དག་གིས་	-9.59264
རྫོང་གིས་	-9.59272
ཤུགས་རྐྱེན་	-9.59299
མི་འདྲ་བ་	-9.59383
ལུས་ཀྱི་	-9.59398
▁ཡུལ་གྲུའི་	-9.59446
དངོས་ཟོག་	-9.59471
འགག་སྒྲོལ་གྱི་	-9.59474
ཅི་ཞིག་	-9.59486
འདེམས་	-9.59528
▁མཁའ་མཚོ་སྐྱིད།	-9.59623
བཏང་བ་དང་།	-9.59728
▁ལུས་	-9.59755
པེ་ཅིང་	-9.59759
མཉམ་འདྲེས་	-9.59765
གསུངས་སོ།	-9.59786
ལས་གཞིའི་	-9.5979
མངོན་གསལ་དོད་པོ་	-9.59803
▁མཚོ་སྔོན་གྱི་	-9.59833
ལས་དོན་སྤེལ་	-9.6003
འི་དགོངས་དོན་	-9.60065
འདྲི་	-9.60077
▁སྐྱེ་ཁམས་	-9.60087
གང་དག་	-9.60088
ཨུ་ལྷན་གྱི་	-9.60109
བཙན་	-9.60111
གྲོང་མིའི་	-9.60142
གསུམ་པ།	-9.60165
ལམ་བུ་	-9.60192
དྲ་རྒྱའི་	-9.60244
ཡོ་བྱད་	-9.60268
འགྲན་	-9.60318
འབྲིང་	-9.60391
བཀོལ་	-9.60413
སྒོར་ཁྲི	-9.60421
དབང་པོ་སྐྱོན་ཅན་	-9.60465
བསམ་གཏན་	-9.60471
བསྟུད་མར་	-9.60568
ཇ་	-9.60644
མཁྱེན་པ་ཉིད་	-9.60702
ཧྲུའུ་ཅི།	-9.60736
ཁྱོད་ཀྱིས་	-9.60789
༢	-9.60857
ནུས་ཤུགས་	-9.60886
དམིགས་ཡུལ་	-9.60958
གཡང་	-9.61016
ཞེས་བྱ་བ་ནི།	-9.61124
ཨ	-9.61126
དང་པོ།	-9.61147
ནོར་བུ་	-9.6117
མཐའ་དག་	-9.61406
སྐམ་	-9.61417
བྱེད་བཞིན་ཡོད།	-9.61519
གཞན་གྱིས་	-9.61526
དཔེ་དེབ་	-9.61545
མི་རིགས་ཀྱི་	-9.61552
སྐད་ཆ་	-9.61579
འཚོང་	-9.61607
ཕུན་སུམ་ཚོགས་	-9.6161
ཀུན་གྱིས་	-9.61645
ཚོགས་འདུར་ཞུགས་	-9.6168
ཉ་	-9.6172
ཚར་	-9.61726
སྐྱེད་སྲིང་	-9.61765
ཁྲོམ་ར་	-9.61775
འགྲུལ་སྐྱེལ་	-9.61784
དེའི་ནང་	-9.61784
མན་	-9.61804
པར་འགྱུར།	-9.61808
སྲིད་གྲོས་སྐབས་	-9.61844
སྣུམ་	-9.61846
▁ཁམས་	-9.61867
ཡོད་ཚད་	-9.61877
ཕྱོགས་གཉིས་ཀྱིས་	-9.61982
ལམ་དུ་	-9.62008
བལྟས་	-9.62015
པར་འགྱུར་བ་	-9.6205
▁ཡུལ་སྐོར།	-9.62057
འཐུས་ཚབ་ཚོགས་པ	-9.62142
གསུངས་རྒྱུར།	-9.6217
ཁྲ་	-9.62194
རོལ་དབྱངས།	-9.62196
མཆོག་ཏུ་	-9.62268
གནོད་པ་	-9.62309
གུང་ཁྲན་ཏང་གི་	-9.62384
གསལ་བ་	-9.62506
ཚུགས་	-9.62518
སྟོང་པ་	-9.62529
ཆེ་གྲས་	-9.62559
ཉེ་	-9.62628
ཕོག་	-9.62667
རིམ་ཁག་	-9.62679
བཏགས་	-9.62713
ཀོ་	-9.62743
རྩལ་ནུས་	-9.62747
ཆེན་མོའི་	-9.62812
▁ཀྲུང་གུང་	-9.62855
ཐན་	-9.62938
རང་བཞིན་དང་	-9.62974
དྲོད་	-9.63076
ཕུན་སུམ་ཚོགས་པ་	-9.63146
གདུང་	-9.63201
མཁས་	-9.63248
▁ཁྱོད་	-9.63254
མྱུར་	-9.63292
དངུལ་གཏོང་	-9.63298
དཀའ་ངལ་ཡོད་པའི་	-9.6333
བློ་གྲོས་	-9.63362
བྱེད་ནུས་	-9.63376
མེ་འཁོར་	-9.63418
ཕན་པ་	-9.63485
བུམ་པ་	-9.63497
ཟེར་བ་	-9.63511
བསྐྱར་	-9.6355
སྦྲེལ་	-9.63554
འགན་འཁུར་བ།	-9.63578
བསྡོམས་པས་	-9.63596
སློབ་ཆེན་གྱི་	-9.63623
བག་	-9.63628
རྔ་	-9.63667
གངས་	-9.63686
ཚོགས་པས་	-9.6377
མ་གཏོགས་	-9.63813
རྒྱ་བསྐྱེད་	-9.63843
ཁོང་གི་	-9.63876
▁ཤེས་རབ་ཀྱི་	-9.63919
ཨ་རིའི་	-9.63924
སྨན་རྫས་	-9.6394
སྙན་ངག་	-9.64051
གནོད་	-9.64069
བྱེད་པ་ནི་	-9.64098
སྡེ་ཚན་	-9.64109
གནས་ཚུལ་ལ་	-9.64145
དབྱིབས་	-9.64151
གནས་ཚུལ་ཡིན་པ།	-9.64199
གཅིག་བསྡུས་	-9.64235
འཐུང་	-9.6431
འགའ་ཞིག་	-9.64359
▁བོད་སྐྱོར།	-9.64367
ས་ཞིང་	-9.64396
སྲིད་གཞུང་དང་	-9.64398
ཕྱིར་གཏོང་	-9.6446
▁ལྷག་པར་དུ་	-9.64507
སྐྱ་	-9.64515
ཐི་	-9.64576
རླུང་འཕྲིན་དྲ་བ།	-9.64617
ཉལ་	-9.64631
རིག་གཞུང་	-9.64664
དམར་པོ་	-9.64687
རྒྱལ་ཁབ་གཉིས་པོ	-9.64709
སྟེང་གི་	-9.64795
ཕབ་	-9.64804
ཚོགས་ཀྱིས་	-9.64835
ལུགས།	-9.64934
བསྟེན་	-9.64944
ཡིད་ལ་	-9.64957
གྱུར།	-9.6497
གཞིར་བཟུང་	-9.65031
ཉོན་མོངས་པ་	-9.65044
སྡེ་ཚན་གྱིས་	-9.65046
བསྒོམ་པ་	-9.65058
མནའ་འབྲེལ་	-9.65071
པོ	-9.65139
ཤེས་དཔལ་	-9.65184
▁འོ་ན་	-9.65186
སྡུག་	-9.65256
གཞི་རིམ་གྱི་	-9.65282
འཛུགས་སྐྲུན་དང་	-9.65305
ཕྱུགས་	-9.65334
▁གལ་ཆེའི་	-9.65414
ལྗོངས་ཀྱི་	-9.65416
ཉེན་	-9.65445
▁ཞིང་ལས་	-9.65601
སྤྱི་ཟླ	-9.65634
ཚབས་ཆེན་	-9.65672
ལྗང་མདོག་	-9.65674
ཡོད་ན་	-9.65787
བདག་པོ་	-9.65803
དུས་བབ་	-9.65825
ལྟུང་བ་	-9.65843
ཁཱ་	-9.65887
བརྒྱབ་	-9.65895
ཁོག་	-9.65909
ཉིན་དེར་	-9.65921
འོག	-9.65992
གྲོལ་	-9.66034
ཡིན་པའི་ཕྱིར་རོ།	-9.66252
བཏང་བའི་	-9.66308
སྤོ་	-9.66327
བྱ	-9.66347
འཐབ་ཕྱོགས་	-9.6636
འདོད་ཆགས་	-9.66419
འཆད་	-9.66419
▁·	-9.66441
གསུམ་པའི་	-9.66444
ཞིག་ལ་	-9.66474
གནང་བ་	-9.66669
བབ་	-9.66691
ཁོ་ནར་	-9.66695
འཚོལ་	-9.66727
ལས་ཀྱང་	-9.66768
རེས་	-9.6682
གནའ་བོའི་	-9.6685
ལ་མི་	-9.66889
ཕྲེང་བ་	-9.66902
པ་རྣམས་	-9.66955
ཨུ་རུ་སིའི་	-9.66966
བཏང་ཡོད།	-9.6697
ཏང་ཨུད་ཀྱི་	-9.67026
གང་ཡིན་པ་དེ་ནི་	-9.67042
སྐོར་ཞིབ་	-9.67069
ཞན་	-9.67091
གཞིར་བཟུང་།	-9.67163
ཕུང་	-9.67214
བཅས་སུ་	-9.67258
ལྗོངས་ཏང་ཨུད་	-9.67266
འཚོ་	-9.67283
སྤྱི་ལེ་	-9.67311
གནོད་འཚེ་ཕོག་	-9.67349
ཤུགས་སྣོན་བརྒྱབ་	-9.67363
ལུག་	-9.67372
ཕྱིའི་	-9.67477
▁རང་རྒྱལ་གྱི་	-9.67504
བྱུང་ནས་	-9.67526
▁ཕྱོགས་ཡོངས་ནས་	-9.67628
༩	-9.67698
▁ང་	-9.67717
ཀྱིས་བཀའ་སྩལ་པ།	-9.67747
སྨི་	-9.67769
བཅུ་དྲུག་	-9.67808
འེ་	-9.6785
▁གྲོང་ཁྱེར་དང་	-9.67862
ཟི་ལིང་	-9.67899
གནང་བ།	-9.67995
མི་དམངས་ལ་	-9.68002
ཀྲུའུ་	-9.68011
སྒྲོག་	-9.68017
སྡོམ་	-9.68042
མཚམས་སྦྱོར་	-9.68154
མཐར་ཕྱིན་	-9.68238
དངུལ་བུན་	-9.68279
▁དེ་ཡི་	-9.68291
ཁྱིམ་དུ་	-9.68292
སེམས་ཅན་ཐམས་ཅད་	-9.68336
འི་ཀྲུང་ཨུ་ཚང་	-9.68348
དམ་འཛིན་	-9.68505
འབབ་འཕར་	-9.68509
མེད་པ།	-9.68534
བྱའི་	-9.68582
དགོན་པ་	-9.6859
▁རླུང་འཕྲིན།	-9.68621
ལས་སྟེགས་	-9.68669
▁ཀྲུང་གོས་	-9.6868
འཐུས་མིའི་	-9.6869
དེ་ལྟ་བུ་	-9.68744
གོང་འཕེལ་གྱི་	-9.68745
མི་དམངས་ཀྱིས་	-9.68792
འདོན་སྤྲོད་	-9.68836
འབྲེལ་གཏུག་	-9.68852
ལ་སོགས་པས་	-9.68869
སྟག་	-9.68929
རོ།	-9.69023
དཔེ་སྐྲུན་	-9.6904
ཉོ་	-9.69067
འཕྲད་	-9.69082
ཝ	-9.6915
མགྱོགས་	-9.69196
▁སྣོད་བཅུད་	-9.69237
མིན་པའི་	-9.69257
དེ་དག་ནི་	-9.69257
ཚན་པ་	-9.69293
”	-9.69335
ཅེ་	-9.6937
བོན་	-9.69371
1	-9.69388
གཏན་	-9.6942
རིགས།	-9.6943
དམག་དཔུང་གིས་	-9.69474
སྐྱེ་ཁམས་ཁོར་ཡུག	-9.69499
ཐེངས་དང་པོ་	-9.69531
འགོག་བཅོས་	-9.69593
▁ཀྲུང་དབྱང་དམག་	-9.6964
ཡིན	-9.69661
ཌ་	-9.69684
▁ཆོས་ལུགས་	-9.69722
ཤེས་པའི་	-9.69845
པ་ཡིན་ནོ།	-9.69929
འཁྲབ་	-9.69934
ལས་བྱུང་བ་	-9.70012
ཁྱབ་ཁང་གི་ཙུང་	-9.70047
བསྟོད་	-9.7014
རྙིང་	-9.70148
སྔོ་	-9.70166
▁2012	-9.70205
གཡོ་	-9.70209
ཅན་དུ་	-9.70348
ཊ་	-9.70358
སེམས་པ་	-9.70392
དབུལ་	-9.7043
སྤྲད་	-9.70485
ཆེན་མོའི་ནང་	-9.70512
འཆམ་མཐུན་	-9.70519
བྱུང་བ་དང་།	-9.70529
རུས་	-9.70534
ཚད་མ་	-9.70545
འབྲུ་	-9.70582
▁མཚོ་སྔོན།	-9.70586
བྱས་ལ།	-9.70653
ཕུ་	-9.70852
གསར་བའི་	-9.7087
སྤྲོ་	-9.70877
▁དེ་བས་ན་	-9.70902
གཏན་ནས་	-9.70929
སྒོམ་	-9.70989
དཔུང་	-9.71013
པའི་སྒོ་ནས་	-9.7102
▁-	-9.7103
ཁང་དུ་	-9.71054
ཐལ་	-9.71101
སུའུ་	-9.71111
ཉིང་ཁྲི་	-9.71131
▁དོན་	-9.71185
ནང་།	-9.71248
རེ་བ་བཏོན།	-9.71289
རྗེས་ཀྱི་	-9.71295
བརྟེན་ནས་	-9.71309
▁དགེ་སློང་	-9.71336
ང་ལ་	-9.71385
རྒྱུ་ཆ་	-9.71389
འཕུར་	-9.71429
བདེ་འཇགས་ཀྱི་	-9.71437
བར་བྱའོ།	-9.71447
དང་ཀྲུང་གོའི་	-9.7147
ཤུལ་	-9.71484
སྡེ་ཁག་	-9.71504
ཀྲུང་གོས་	-9.71573
ཤོད་	-9.71622
ཆེན་པོར་	-9.71642
འཐབ་	-9.71645
གནམ་	-9.71661
འཕར་སྣོན་	-9.71713
མཉམ་སྡེབ་	-9.71716
ཕྲེང་	-9.71745
མཐུ་	-9.71784
དག་ཐེར་	-9.71834
རྒྱུའི་སྐོར་གྱི་	-9.71845
མཇུག་	-9.71846
སྐྱེ་བའི་	-9.71856
རྣམ་པར་རྟོག་པ་	-9.71911
ཁྱབ་གདལ་	-9.71913
ལ།།	-9.71963
མ་ཡིན་པར་	-9.7199
ནག་པོ་	-9.72069
ཀུན་ལ་	-9.72075
སྐད་ཅིག་	-9.72086
འགོར་	-9.72119
ཉིད་དོ།	-9.7214
༡༠	-9.72175
ཡོངས་སུ་རྫོགས་	-9.72187
འཁྲུག་རྩོད་	-9.72195
དེ་དག་ལ་	-9.72215
▁བརྙན་མཐོང་།	-9.72231
ཆེན་རྒྱུན་ལས་	-9.72244
བརྩི་	-9.72268
བྱ་བར་རྟོག་ཞིབ་	-9.72327
དག།	-9.7236
ཟིན་པའི་	-9.72367
རྒྱུ་དེ་	-9.72385
▁ཚོགས་འདུའི་ཐོག་	-9.72517
དེའི་ཚེ་	-9.72554
ལུས་རྩལ་འགྲན་ཚོག	-9.72605
ས་ནས་	-9.72627
འཁུར་	-9.7265
སློབ་འབྲིང་	-9.72664
བཏབ་	-9.72674
▁གཟུགས་	-9.72692
ཤིན་	-9.7273
དུས་ཚིགས་	-9.72756
རྒྱ་སྐྱེད་	-9.72832
དྲུག་གི་	-9.72857
འབའ་ཞིག་	-9.72916
ཀྱི་དགོངས་དོན་	-9.72919
བཀག་སྡོམ་	-9.7293
རྒྱུས་ལོན་	-9.73003
མི་དམངས་མང་ཚོགས་	-9.7306
ཧའེ་	-9.73108
སཱ་	-9.73111
མཆོག་གི་	-9.73144
འདུ་འགོད་	-9.73208
▁ཝང་	-9.73218
ཁོངས་	-9.73235
གོང་མ་	-9.73257
འབོད་སྐུལ་བཏང་།	-9.7328
ལངས་	-9.73445
ངོ་མཚར་	-9.73544
ཚུར་	-9.73567
ཟས་རིགས་	-9.73583
▁ན་ནིང་	-9.73602
▁ཉེ་ཆར་	-9.73653
▁ལྗོངས་ཡོངས་ཀྱི་	-9.7372
བརྒྱུད་ནས་	-9.73743
དཀྱིལ་འཁོར་གྱི་	-9.73816
ཟུང་འབྲེལ་	-9.73826
དོན་སྙིང་གལ་ཆེན་	-9.73871
ཡིད་རྟོན་	-9.73891
པར་གྱུར་པ་	-9.73945
ཀྱི།	-9.73958
མཛེས་ལྗོངས་	-9.73978
ཆོད་	-9.73982
ལེགས་འགྲུབ་བྱུང་	-9.74019
ཉེན་རྟོག་	-9.74112
དགྲ་	-9.7415
རིག་གནས་ཤུལ་བཞག་	-9.74155
འཕྲུལ་	-9.74159
སློབ་གྲྭར་	-9.74226
ཡིན་ན།	-9.74237
ཐ་དད་	-9.743
མ་རྩ་	-9.74332
ཡོད་ལ་	-9.74353
ལའི་	-9.7436
མངོན་སུམ་	-9.74404
ཞེས་བྱ་བའོ།	-9.74446
དགེ་བ་	-9.74456
ཀྲུང་དབྱང་གིས་	-9.7446
འབར་	-9.74487
མཇལ་	-9.74561
ནང་བསྟན་	-9.74633
ཏོ་	-9.74647
ལ་སློབ་སྦྱོང་	-9.74712
ལེགས་འགྲུབ་	-9.74761
བཏང་བ་	-9.74828
དཔལ་ཡོན་	-9.74828
ཤེས་ལྡན་མི་སྣ་	-9.74869
དྲན་པ་	-9.74931
བ་ནི་	-9.74942
བུའི་	-9.74975
ཁྲོད་ནས་	-9.75048
རྒྱུ་མཐའ་འཁྱོངས་	-9.75243
དབྱེ་ཞིབ་	-9.75244
མཆོད་རྟེན་	-9.75322
གཞན་ཡང་	-9.75327
འབྲེལ་འདྲིས་	-9.75366
གྲོང་ཚོར་བཅའ་སྡོ	-9.75438
དེ་ནས་	-9.75476
ལས་མི་	-9.75479
དང་ཟུང་འབྲེལ་	-9.75566
སྣོན་	-9.75578
དངུལ་ཁང་	-9.75621
བསམ་པའི་	-9.75627
རིའི་	-9.75652
ཡཱ་	-9.75676
ཐུག་	-9.75719
དངོས་རྫས་	-9.7579
▁གང་ཞིག་	-9.75826
སྐྱེས་བུ་	-9.75838
མཁོ་སྤྲོད་	-9.75847
སྨན་པ་	-9.75898
▁གཞིས་རྩེ་	-9.75903
ཕུད་	-9.75908
མི་འབོར་	-9.76021
རེག་	-9.76035
བརྒྱུད་དེ་	-9.76049
མཉམ་ལས་ཀྱི་	-9.76205
ཇེ་མགྱོགས་སུ་	-9.76209
དེ་ཁོ་ན་ཉིད་	-9.76226
ལྟེ་གནས་ཀྱི་	-9.76316
དགུ་པའི་དགོངས་དོ	-9.76322
▁ཚོགས་ཐོག་ནས་	-9.76322
པ་བཅས་	-9.76336
འདུ་	-9.7638
ཁེ་དབང་	-9.76423
མཉམ་སྤྱོད་	-9.76431
མིས་	-9.76436
མི་ཆོས་	-9.7649
ཙེ་	-9.76533
གོང་གི་	-9.76542
ཡོང་སྒོ་	-9.76582
གསུམ་གྱིས་	-9.76604
འཕགས་པ་	-9.76626
ཀུན་ནས་	-9.76632
རང་གིས་	-9.76693
▁ད་ལོའི་	-9.76707
བརྩམས་	-9.76727
སྐར་	-9.7675
ཚན་རིག་དང་མཐུན་པ	-9.76819
གནས་སྤོ་	-9.76832
མ་ཐག་	-9.76933
གསུམ་དང་	-9.76987
དྲ་	-9.77014
ཁང་གིས་	-9.77018
སྲུང་སྐྱོང་དང་	-9.77022
བྱུང་བ།	-9.77037
ཉིན་རེའི་ཚགས་པར།	-9.77057
དེ་བཞིན་ཉིད་	-9.77061
འདྲེས་	-9.7715
བསྒྲགས་	-9.77158
དོན་དག་	-9.7716
འ་སེམས་དཔའ་ཆེན་	-9.77161
སྲིད་པ་	-9.77175
བཏང་བ་རེད།	-9.77214
འགྲོ་གྲོན་	-9.77241
གྲོགས་པོ་	-9.77338
▁--	-9.77407
▁༼	-9.77431
ཐ	-9.7744
འཇིག་	-9.77441
སོན་	-9.77455
▁ཤེས་རབ་	-9.77471
སྲོག་ཆགས་	-9.77499
འདེགས་སྐྱོར་	-9.7751
བོ།	-9.77524
གོང་དུ་	-9.77568
▁ཡུལ་	-9.77613
ས༷་	-9.77619
བགྲོ་གླེང་ཚོགས་འ	-9.77702
དབང་དུ་	-9.77806
བྱ་འགུལ་སྤེལ་	-9.77817
ཡིན་ཞེས་	-9.77949
ཙམ་གྱིས་	-9.77954
རེར་	-9.77982
དབང་བོ་སྐྱོན་ཅན་	-9.78066
དང་རྒྱལ་སྲིད་	-9.78086
བརྩོན་	-9.781
སྤྱན་	-9.78107
གུ་	-9.78124
ཧུའུ་	-9.78129
རྣམ་གྲངས་ཀྱི་	-9.78158
▁རྫོང་	-9.78164
བྱེད་དགོས་པ།	-9.78243
སམ།	-9.78386
ལམ་ལུགས་ཀྱི་	-9.78403
པའི།	-9.78459
དགོས་པ།	-9.78479
བཤད་པ།	-9.78589
ང་ཚོར་	-9.78622
འཇིགས་པ་	-9.78693
ས་ཡོམ་	-9.78724
ཐོབ་པར་	-9.78756
སྒུལ་ཤུགས་	-9.78842
རྣམས་སུ་	-9.78983
ལ་རོགས་སྐྱོར་	-9.79033
བསྡུས་པའི་	-9.7908
འགྲན་རྩོད་	-9.79103
སྤྲུལ་	-9.79176
སྣེ་ཁྲིད་དེ་	-9.79184
བཅུ་གཅིག་	-9.79249
ཨུ་	-9.79253
ལྷག་མ་	-9.79274
ལྷ་ས་	-9.79311
ལས་བྱེད་	-9.79412
སོ་ཞེས་	-9.79418
འགན་འཁྲིའི་	-9.79451
ཥ	-9.79478
བྱེད་ཤུགས་	-9.79479
གཉིས	-9.79524
ད་ལྟའི་	-9.79526
རྒྱལ་པོའི་	-9.79539
གནད་དོན་ལ་	-9.79579
མི་ཤུགས་ཐོན་ཁུང	-9.79586
མ་དངུལ་སྒོར་ཁྲི	-9.79622
▁འཐུས་མི་	-9.79669
▁ཁོང་	-9.79773
པུ་	-9.7978
གད་སྙིགས་	-9.7981
བྱེད་ཕྱོགས་	-9.79818
ཤར་གཏོང་ཐུབ་	-9.79826
ཤིང།	-9.79827
འབྲུག་	-9.79867
▁ཉེ་ལམ།	-9.79908
ཁའི་	-9.79996
ཆིན་	-9.80018
ལག་ལེན་བསྟར་	-9.80023
སྡེ་ཁུལ་	-9.80085
ྭ	-9.80138
གསར་འགོད་པའི་	-9.80139
སྤྱི་ཁྱབ་ཁང་གིས་	-9.8014
▁ཚེ་མཁར་རྒྱལ།	-9.80179
དབུལ་གྲོལ་	-9.80298
རིང་ལ་	-9.80304
སྐྱེ་བོ་	-9.80322
བརྟག་	-9.80346
དཔེ་མཚོན་	-9.80405
བར་འགྱུར་རོ།	-9.80476
སི་ཁྲོན་	-9.80501
ཁྱབ་པ་	-9.80505
སྒྲུང་	-9.80507
ང།	-9.80514
རང་རང་གི་	-9.80539
དང་གྲོས་མོལ་མཛད།	-9.80614
སྲིད་དོན།	-9.80635
བརྗོད་དོན་	-9.80638
དང་འདྲ་བར་	-9.80656
ཁེ་ལས་ཀྱིས་	-9.80665
སོགས་སུ་	-9.80733
དམག་དཔུང་གི་	-9.80737
པ་མ་ཟད་	-9.80757
པར་བྱེད་དོ།	-9.80775
བྱང་གི་སྤྱི་ཁྱབ་	-9.808
འཕར་ཚད་	-9.80944
བསྒྲུབས་	-9.81003
ཐམས་ཅད་དུ་	-9.81012
གོམ་སྟབས་	-9.8105
ཁག་གིས་	-9.81179
འགྲོ་བར་	-9.8122
བྱས་པ་ལྟར་ན།	-9.81234
▁རྒྱ་ཆེའི་	-9.81242
སྨྲས་	-9.81335
ཧཱ་	-9.8134
ཚོང་ཁང་	-9.81385
བྱེད་པ་བཅས་	-9.8142
རིགས་མཐུན་སྒྲིལ་	-9.81443
ཐད་ལ་	-9.81444
ཆུང་བ་	-9.81468
རྩོད་	-9.81476
ཅེས་བྱ་བ་ནི་	-9.81485
20	-9.81541
བརྟན་འཇགས་	-9.81557
ནན་མོ་	-9.81587
▁རྣམ་པ་ཐམས་ཅད་	-9.81696
དུང་	-9.81733
གསང་བ་	-9.81769
སོར་	-9.81828
ཕྲུ་གུ་	-9.81864
▁བྱང་ཆུབ་སེམས་དཔ	-9.81882
དགའ་བའི་	-9.81883
དཔུང་ཁག་	-9.81995
▁ནས	-9.8205
དག་ཀྱང་	-9.82109
རྣམས་སོ།	-9.82113
གནད་དོན་གྱི་	-9.8212
ཐུབ་པ་དང་།	-9.82155
བཟུང་ནས་	-9.82163
རྒྱ་གར་	-9.82174
མའོ་	-9.82193
ཐོན་སྐྱེད་དང་	-9.82206
གཏན་འཁེལ་བྱས་	-9.82282
རིན་པོ་ཆེའི་	-9.8229
ཚེ་སྲོག་	-9.82307
ཀྲི་	-9.82311
མཛའ་གྲོགས་	-9.82314
ཚོང་གཉེར་	-9.8233
00	-9.82349
རྣམ་གྲངས	-9.82354
ལོན་	-9.82356
བསྡུ་ལེན་	-9.82403
ཚུལ།	-9.82461
▁༄༅།།	-9.8248
སྟེང་ནས་	-9.82499
ལའོ།	-9.82536
རྒྱབ་སྐྱོར་བྱེད་	-9.82545
▁ཐོན་ལས་	-9.82569
ཁྲལ་	-9.82582
དུང་ཕྱུར་	-9.82592
▁གནས་	-9.82623
བཞི་པ་	-9.82666
མཐུན་ཚོགས་ཀྱི་	-9.82686
ཞོ་	-9.82738
ཁང	-9.82743
▁ཡེ་ཤེས་	-9.82763
ཞག་	-9.82771
ཨང་།	-9.82832
གང་དུ་	-9.82894
དཀའ་བ་	-9.82922
▁འགན་འཁུར་	-9.82951
མྱུར་སྐྱོབ་	-9.82998
དད་	-9.83083
རྒྱལ་མཚན་	-9.83091
ཐོགས་	-9.83122
དམངས་གཙོ་	-9.83132
སྐྱབས་	-9.83174
རྒྱུ་ནི་	-9.83185
ནང་ནས་	-9.83215
འཛིན།	-9.83271
འཕྲོག་	-9.83311
གླུ་	-9.83345
ཀླུ་	-9.83401
ཆབ་མདོ་	-9.83418
མཐུན་ཚོགས་	-9.83432
མངོན་འགྱུར་བྱེད་	-9.83464
བྱས་པ་བརྒྱུད།	-9.83538
བརྒྱབ་ནས་	-9.83681
དབུལ་པོའི་	-9.83721
རྣམ་འགྱུར་	-9.83819
སློབ་གླིང་གི་	-9.83852
ཨོ་	-9.83864
དོར་	-9.83887
གྲོས་ཚོགས་ཀྱི་	-9.83915
དགོན་པའི་	-9.83947
སྐྱེ་དངོས་	-9.8399
དཀྱིལ་	-9.83995
ལམ།	-9.84046
གློག་ཤུགས་	-9.84099
ཚོན་	-9.84118
དམངས་འཚོའི་	-9.84143
ཧོང་	-9.84172
ཐོག་ཏུ་	-9.84177
▁ཚན་རྩལ།	-9.84215
སྤྱི་ཕན་	-9.8422
རྩ་འཛུགས་ཀྱིས་	-9.84244
ཚོགས་འདུ་བསྡུས།	-9.84358
ཙམ་གྱི་	-9.8439
འཕྲུལ་ཆས་	-9.84406
གཞུང་ལུགས་	-9.84479
མ་གཤིས་སྔོན་བརྡ།	-9.84494
གཞིས་	-9.84513
ཁྲིམས་འཛུགས་	-9.84513
མེད་དེ།	-9.84514
ཡག་	-9.84537
ཟ	-9.84541
ཕྱིར་རོ།	-9.84619
ཡོངས་ལ་	-9.84641
བཟོ་བའི་	-9.84673
བས	-9.8473
གཉིས་དང་	-9.84736
ད་ཆ་	-9.84786
སླར་	-9.8481
སྐྱེས་པའི་	-9.84858
མི་སྣར་	-9.84897
སྙིང་རྗེ་	-9.84909
▁དེ	-9.84917
འགན་ནུས་	-9.84932
▁གླིང་སྒྲུང་།	-9.84959
ཁུག་	-9.84987
བརྒལ་	-9.85029
གྲུབ་ཆ་	-9.85069
གསོ་རིག་	-9.85114
ཏང་ཨུད་དང་	-9.85146
སྲིད།	-9.85182
སྟོན་པའི་	-9.85231
▁སྨན་བཅོས་	-9.85256
པུའུ་ཡིས་	-9.85277
ཐེག་པ་	-9.85296
ཅན་དང་	-9.85299
ཐུབ་པ།	-9.85336
▁སངས་རྒྱས་ཀྱི་	-9.85345
▁བསོད་ནམས་	-9.85375
སློབ་གསོ་དང་	-9.85403
ན༷་	-9.85413
བཏོན་ནས་	-9.85414
འགལ་	-9.85468
རྫོང	-9.85486
སྲིད་ཇུས་ཀྱི་	-9.85501
ཚང་འཛོམས་	-9.85523
བོད་རང་སྐྱོང་	-9.85524
ན་ཡོངས་ཀྱི་	-9.85571
▁བོད་ཁུལ་	-9.85576
འཐུས་ཚོགས་ཆེན་སྐ	-9.85598
ཉིད་ཀྱི་	-9.85633
ག།	-9.85666
བཅུ་གསུམ་	-9.85677
ལམ་ཐིག་	-9.85711
མངོན་སུམ་དུ་	-9.85727
ཙ་	-9.85804
གཏན་ཁེལ་	-9.85809
གསོན་ཤུགས་	-9.85819
ཞིང་འབྲོག་ལས་	-9.8583
ཀློག་	-9.85839
བྱ་ཆེད།	-9.85868
མེད་ཅིང་	-9.85896
བག་ཆགས་	-9.85903
སྐྱེ་མཆེད་	-9.85912
པ་ཉིད་	-9.85913
འཛུགས་སྐྱོང་ལ་	-9.85952
རྙེད་པ་	-9.85997
ཙི་	-9.86048
རྒྱལ་བ་	-9.86067
ཕྱི་རོལ་	-9.86084
དུས་སྐབས་	-9.8611
▁གྲོང་ཁྱེར་	-9.8619
འགྲན་སྡུར་	-9.86245
དེ་གར་	-9.86277
གཉེན་	-9.86325
སྨོན་ལམ་	-9.86334
མེད་པའི་ཕྱིར་	-9.86335
གང་གི་	-9.8634
བཤད་པའི་	-9.86386
▁31	-9.86397
▁ཡན་	-9.8641
བདེ་བའི་	-9.86419
ལྷག་ཙམ་	-9.86449
འཇོམས་	-9.86476
བསྡུས་པ་	-9.86511
སྲོལ་རྒྱུན་གྱི་	-9.86512
ཧྲུའུ་ཅི་གཞོན་པ།	-9.86523
གྲོས་ཞིབ་	-9.86549
རིགས་སོ་སོའི་	-9.86625
གནང་ཡོད།	-9.86655
མང་པོར་	-9.8666
མཁོ་	-9.86668
དང་བསྟུན་ནས་	-9.86835
རང་འགུལ་ངང་	-9.8685
བྱ་སྟེ།	-9.86914
ཕོ་བྲང་	-9.86935
བའི་ཕྱིར་རོ།	-9.86951
སྣེ་	-9.86964
བརྒྱུད་འགོ	-9.86974
པར་བྱེད།	-9.871
བསམ་ཕྱོགས་	-9.87125
མཆིས་	-9.87173
བསླབ་	-9.87213
བདག་ལ་	-9.87222
དབང་བསྐུར་	-9.87226
རྟག་	-9.87256
སྦགས་བཙོག་	-9.87273
)	-9.87319
འབུད་	-9.87327
ཐུབ་པར་	-9.87344
དངོས་པོའི་	-9.8737
ན།།	-9.87371
གཏོང་བ་	-9.87392
ལྷ་ཁང་	-9.87392
སྒོ་དབྱེ་	-9.87398
འཕྲིན་	-9.87405
གང་ཡང་	-9.87409
ཤང་གྲོང་	-9.87436
མེད་པ་དང།	-9.87445
བཞི་བ།	-9.87463
སྲོག་ཤིང་	-9.8747
བོད་སྐད་དྲ་ལམ་	-9.87471
ཞིང་འབྲོག་པའི་	-9.87479
བློ་བརྟན་འགྱུར་	-9.87494
རྒྱལ་གཅེས་	-9.87506
ཆེན་རྒྱུན་ལས་ཨུ་	-9.87581
སྲིད་ཁྲིམས་	-9.87686
ནི་མ་ཡིན་ནོ།	-9.8775
ཞིག་ཡིན་ལ།	-9.87789
འཁོར་བའི་	-9.87792
▁ཉིན་བར་	-9.87826
འཛུགས་སྐྲུན།	-9.87827
བཞིན་ཡོད་པ་རེད།	-9.87858
▁མིག་སྔར།	-9.87858
རང་ཉིད་ཀྱིས་	-9.87956
རྒྱང་	-9.88026
ཡུང་	-9.88073
ཕྱིས་	-9.88121
ཉིན་མོ་	-9.88145
ལེགས་སྒྲུབ་	-9.88146
ཞི་མཐུན་	-9.88153
ས་མཐོའི་	-9.88185
ཞིང་སྡེ་	-9.88222
གྲོས་ཚོགས་ཐེངས་བ	-9.88302
སྐར་མ་	-9.88313
ཡར་རྒྱས་	-9.88388
ཐམས་ཅད་ལ་	-9.88421
གྲོ་	-9.88464
བྱ་རྒྱུ་དང་།	-9.88468
སུ།	-9.88565
བྱེ་	-9.886
གཅིག་དང་	-9.88655
ཚོགས་ཆེན་ཐེངས་	-9.8874
▁གན	-9.8882
འཐབ་རྩོད་	-9.88821
ནགས་ལས་	-9.88836
ལས་སྣོན་	-9.88839
འཇམ་	-9.88876
▁200	-9.88889
2	-9.88893
གསར་པར་	-9.88898
དུས་ཡུན་	-9.88916
འདུས་པ་	-9.88917
འབྲེལ་མཐུད་	-9.88945
གཏོང་རྒྱུ་	-9.88955
བསྒྱུར།	-9.88972
ཡར་སྐུལ་	-9.88972
ཕག་	-9.89105
ཧྲིན་	-9.89159
བྱམས་	-9.8917
བྱང་ཆུབ་ཀྱི་	-9.89221
ལ་དམིགས་ནས་	-9.8928
མཚུངས་	-9.89381
ལེགས་སྐྱེས་	-9.89421
ཡང་ཡང་	-9.89425
ཕན་ནུས་	-9.89447
འོང་	-9.89458
ཛ	-9.89546
ཞིབ་ཕྲའི་	-9.89556
ལོང་	-9.89569
སྔོན་པོ་	-9.8962
8	-9.89688
སྟབས་	-9.89688
▁རིགས་ཀྱི་བུ་	-9.89738
▁རང་བྱུང་	-9.89802
མི་འདྲ་བའི་	-9.89803
སྐུལ་འདེད་བཏང་	-9.89815
9	-9.8983
ཡངས་	-9.89838
སློབ་གསོ་ལག་ལེན་	-9.899
ལས་ཀྱི་	-9.89914
ཅུས་ཀྱིས་	-9.90012
ཞིབ་ཚགས་	-9.9004
ཚ	-9.90042
དུས།	-9.90084
▁2020	-9.90103
གྱི་དགོངས་དོན་	-9.90109
ཉིང་	-9.90177
ྷ	-9.90207
སྤུས་ལེགས་	-9.90234
ཡིག་གཟུགས་	-9.90251
དང་ལྷག་པར་དུ་	-9.90275
གཅིག་པུ་	-9.90284
ལུས་ལ་	-9.90318
སྐབས་སུ།	-9.90352
སྣ་མང་	-9.90405
གུར་	-9.90423
དབར་གྱི་	-9.90441
འབྲོག་	-9.90448
ཁྱབ་བསྒྲགས་བྱས་	-9.90449
འཇིགས་	-9.9047
ཤང་གི་	-9.90485
བཅིངས་	-9.90496
ཆོས་ཅན་	-9.90502
ཚིགས་	-9.90513
ལྟ་ཚུལ་	-9.90517
བྱེད་དགོས་པ་	-9.90542
▁ལྷ་སའི་	-9.90566
གཞི་ནས་	-9.90615
བཞི	-9.90619
སྟོང་ཕྲག་	-9.90646
ལ་དབང་།	-9.90666
ལེ་ཚན་	-9.90678
ཏང་འཛུགས་སྐྱོང་	-9.90679
ཐོན་པའི་	-9.90683
ཞིན་	-9.90747
ཚྭ་	-9.90758
བྱིན་གྱིས་བརླབས་	-9.90794
རི་བོ་	-9.90839
དོན་རྐྱེན་བྱུང་	-9.90843
དགོས་ལ།	-9.9087
རྒྱ	-9.90937
བདུད་	-9.90955
ཤིས་	-9.90962
▁མང་ཚོགས་	-9.90978
བའམ་	-9.90981
སློབ་ཚན་	-9.91008
ཚོགས་འདུའི་སྟེང་	-9.91062
མངོན་གསལ་དོད་	-9.91087
བཛྲ་	-9.91109
རྒྱལ་སྲུང་	-9.91124
བློན་ཆེན་	-9.9119
གྲོས་ཚོགས་བསྡུས་	-9.91233
ནུས་ཁུངས་	-9.91284
སློབ་མར་	-9.91329
ཀུ་	-9.9136
སློབ་ཆུང་	-9.91374
ཚེ་དང་ལྡན་པ་	-9.91411
སྦྲེལ་མཐུད་	-9.91414
ཐམས་ཅད་ཀྱིས་	-9.91466
ཀུང་སི་	-9.91474
ལས་དོན་ཡག་པོ་	-9.91476
ཕྱི་རྒྱལ་གྱི་	-9.91478
འཁོར་བ་	-9.91479
ནང་དོན་གང་རུང་	-9.91524
4	-9.91537
ཆོག་མཆན་མེད་ན་	-9.91554
བལྟ་	-9.91576
ཞིང་ཆེན་དང་	-9.91612
ད་དམ་ལྐོག་	-9.91669
སྦྲེལ་བྱས་མི་ཆོག	-9.9167
གསོག་	-9.91685
བོ	-9.91714
ཁྱད་	-9.91724
མེ་ལོང་	-9.91728
གསོལ་པ།	-9.91802
ྲ	-9.91884
སྟ	-9.91894
དཔྱད་གཏམ།	-9.91904
ལྡན་གྱི་	-9.91992
བཅོ་ལྔ་	-9.91997
གསན་	-9.92004
ཡིད་ཀྱི་	-9.92019
གྲང་	-9.92031
རྒྱུ་ཡིན་ཞེས་	-9.92047
ཁྲིམས་སྲོལ་	-9.92086
▁འོན་ཏེ་	-9.92168
རྣམ་གཉིས་ཀྱིས་	-9.92185
གམ་	-9.92215
རང་དབང་	-9.92241
བཟོད་	-9.92258
འགོ་ཚུགས་པ།	-9.92312
པར་དབང་མཚོ་སྔོན་	-9.92326
རྒྱུ་ཡིན་པ་དང་།	-9.92347
དོན་ཚན་	-9.92349
ཆེ་ཆུང་	-9.92363
སྨྲས་པ་	-9.92386
དུ་ཚོགས།	-9.92417
གསར་འགོད་པས་	-9.925
བ་མ་ཟད།	-9.92538
དམངས་གཙོའི་	-9.92561
ཆོས་རྣམས་	-9.92562
སྤྱོད་ཚུལ་	-9.9264
ྃ	-9.92643
འགྱུར་ཏེ།	-9.92651
ཡོངས་ཀྱིས་	-9.92666
ང༷་	-9.92757
མཛའ་མཐུན་	-9.92791
སློབ་གླིང་	-9.92794
སྤྱི་གླིང་	-9.92831
མངགས་	-9.9286
དམག་འཐབ་	-9.92905
ཞི་བའི་	-9.92934
རེ་ཞུ་	-9.9302
ཡིག་ཚགས་	-9.93039
ཧུང་	-9.93104
སྲུང་སྐྱོབ་དང་	-9.93106
▁དེ་བཞིན་གཤེགས་པ	-9.93109
ཟློས་གར་	-9.9311
ལྟ་ཞིབ་ཚད་ལེན་	-9.93124
དེ་ལས་ཀྱང་	-9.93127
ལ་ཞུགས་	-9.93133
རོང་འབྲོག་	-9.93158
▁ཞི་ཅིན་ཕིང་གི་	-9.93163
▁ཤིན་ཏུ་	-9.93191
འགྲམ་	-9.93203
ལིའུ་	-9.9324
ཚན་ཁག་	-9.93242
མཉམ་ལས་ཁང་	-9.93254
སྐྱོབ་	-9.93258
བྷ་	-9.93291
▁མེ་ཏོག་	-9.93293
ཁྱོན་ཡོངས་	-9.93337
བསྡོམས་རྩིས་	-9.9335
མ་ལུས་	-9.93369
བསྐྱར་སྐྲུན་	-9.93389
ཀེ་	-9.93407
བྱེད་བཞིན་པ།	-9.93524
མང་པོས་	-9.93533
༢༠	-9.93539
▁པར་ངོས་འདིའི་	-9.93561
▁ཚེ་དང་ལྡན་པ་	-9.93582
རྟོགས་པའི་	-9.93586
▁དེའི་ཚེ་	-9.93587
གསེར་གྱི་	-9.93589
རྒྱུ་ཡིན་ཟེར།	-9.93598
སྤེལ་བ་དང་།	-9.936
ཞིབ་འཇུག་སློབ་མ	-9.93605
ལིང་	-9.93617
ཚུལ་གྱིས་	-9.93678
པྲ་	-9.93756
ཁྲེང་	-9.93834
སྤངས་	-9.93968
རླབས་ཆེན་	-9.94
བསལ་	-9.94056
སེམས་ལ་	-9.94064
ལག་པ་	-9.94114
དོན་ལ་	-9.94132
དྲ་སྦྲེལ་	-9.94133
ཚུན་	-9.94193
ཅེས་བྱ་བ་	-9.94233
འདོད་ཡོད་ཟེར།	-9.94245
རབས་	-9.94298
གཞི་རིམ་དུ་	-9.94302
ཉོ་སྒྲུབ་	-9.94305
ཁུལ།	-9.94307
▁༡	-9.94311
བཅུག་	-9.94358
▁ད་	-9.94434
སྭཱ་ཧཱ།	-9.94434
གླིང་གི་	-9.94546
པར་མ་ཟད་	-9.94572
ཀྲུའུ་རེན་	-9.94577
མ་རྐང་	-9.94607
བཅུའི་	-9.94623
གསོ་སྤེལ་	-9.94625
སྲིད་གྲོས་ཀྱིས་	-9.94715
དྲག་ཆས་ཉེན་རྟོག་	-9.94731
ཞིབ་དཔྱད་	-9.94783
རྒྱུས་	-9.94793
བརྒྱ་ཆའི་	-9.94853
འགུལ་	-9.94873
གྲྭ་བཙུན་	-9.94891
ཚོང་ལས་	-9.94921
པ་ལ།	-9.94953
▁2000	-9.95025
ར་བ་	-9.95084
ལས་གཉེར་	-9.95136
ངམ་	-9.95137
གྲྭ་	-9.95168
གསལ་པོ་	-9.95174
གསུངས་པ་རེད།	-9.95174
འཆི་	-9.95212
པུའི་	-9.95303
གཟུང་	-9.95311
ཕར་	-9.9532
ཆིང་	-9.95345
རྨི་ལམ་	-9.95358
ཁོའི་	-9.95421
བསྐུར་	-9.95423
ཁྱི་	-9.95439
▁ཆབ་མདོ་	-9.95458
གསང་བའི་	-9.95473
དང་འབྲེལ་	-9.95532
ཕྱི་ཕྱོགས་	-9.9557
7	-9.95587
ཡོད་པ་མ་ཟད།	-9.95604
བཞིར་	-9.9562
སྲོལ་ཡིག་	-9.95627
གཟབ་རྒྱས་ངང་	-9.95646
དམག་མི་	-9.95654
མི་རྣམས་	-9.95687
ཁོངས་སུ་	-9.95698
ཁྱོན་བསྡོམས་	-9.957
སློང་	-9.95707
ཞི་བ་	-9.95781
ཐོག་གི་	-9.95792
ལུ་	-9.95835
སྐད་ཡིག་	-9.95858
ངོ་མ་	-9.95861
▁’	-9.95881
སློབ་གཉེར་	-9.9591
སོང་བ་	-9.95972
སྐལ་བཟང་	-9.96077
ཁྱོད་ཀྱི་	-9.96091
བསྐྱེད་པ་	-9.96099
ཁོས་	-9.96101
ལག་ཁྱེར་	-9.96123
དཔའ་	-9.96137
འདུག་པ་	-9.96144
དགོད་	-9.96186
རྩ་ཁྲིམས་	-9.96239
▁ཉིན་གྱི་	-9.96266
ཚོང་རའི་	-9.96296
ཞིང་འབྲོག་ཁུལ་	-9.96297
▁ལོ་ཙཱ་བ།	-9.96328
དེ་རྣམས་	-9.96338
གཞུང་ལས་ཁང་	-9.9642
པ་དང་འབྲེལ་	-9.96423
ཡ།	-9.96488
▁ཟིན་པ།	-9.96496
མངོན་གསལ་	-9.96507
དུས་དེབ་	-9.96533
ང་རྒྱལ་	-9.96544
སྨྱན་སྦྱོར་	-9.96558
ངན་པ་	-9.96606
ཡོད་མེད་	-9.96611
རྒྱས་པ་	-9.9665
ཡོང་རྒྱུར་	-9.96675
བསྡད་	-9.96733
མངོན་མིན་	-9.96753
མཚམས་སུ་	-9.96888
རྭ་	-9.96923
བདམས་	-9.96965
ལ་བརྟེན་	-9.96967
གཏད་	-9.96979
གླ་	-9.96986
གཡོན་	-9.96998
དུས་རབས་གསར་བའི་	-9.97031
དགེ་རྒན་གྱི་	-9.97103
ཨ་ཧྥེ་རི་ཁའི་	-9.97115
མི་རེའི་ཆ་སྙོམས་	-9.97146
རོལ་དབྱངས་	-9.97185
▁རྒྱལ་ཡོངས་དམངས་	-9.97207
མང་བའི་	-9.9721
▁ཉེ་བའི་ལོ་ཤས་	-9.97229
བརྒྱུད།	-9.97233
ཕྱུག་	-9.97271
གཞས་	-9.97272
བཅོལ་	-9.97304
▁35	-9.9732
ཆོས་ལུགས་ཀྱི་	-9.97329
བར་ཆད་	-9.97371
སྣང་བའི་	-9.97386
ལགས་ཀྱིས་	-9.97401
གསར་འགོད་པ་	-9.97426
རེ་རེ་བཞིན་	-9.97434
དྲག་ཆས་	-9.97446
མོར་	-9.97453
ཆགས་པའི་	-9.97483
པར་བྱ།	-9.97493
རིགས་པ་	-9.97535
མྱ་ངན་ལས་འདས་པ་	-9.97538
འཚོགས་	-9.97562
ན་ནིང་	-9.97575
འབད་	-9.97576
ཚད	-9.97593
▁འདི་ལ་	-9.97594
པི་	-9.97615
▁ལམ་	-9.97617
ད་ལོའི་	-9.97652
སྒྱུར་བཀོད་	-9.97681
ཨར་ལས་	-9.97703
དབུགས་	-9.97743
བླ་ན་མེད་པ་ཡང་	-9.9777
▁གསོ་རིགཁྲིམས་	-9.97785
ཞིག་ཡིན་པ་དང་།	-9.9779
ལས་དོན་ཁག་	-9.97814
བསྐྲུན་པའི་	-9.97824
སྤོང་	-9.97831
ལུས་སྦྱོང་	-9.97854
གོ་ལ་ཧྲིལ་པོའི་	-9.9786
རྩོམ་རིགམི་སྣ།	-9.97861
ཚོང་ཟོག་	-9.97871
དང་དེའི་	-9.97928
བདག་གཉེར་	-9.97934
རྫ་	-9.97978
ཁྱབ་སྤེལ་	-9.98001
སོ	-9.98003
གླང་	-9.98053
གདོན་	-9.98126
དོན་སྙིང་	-9.98145
བཞེས་	-9.98159
སྨིན་	-9.98182
བོས་	-9.9823
▁བཙུན་པ་	-9.98254
▁རྒྱུས་ལོན་	-9.98268
▁ལོར།	-9.98271
མཛད་པའི་	-9.98291
བདེ་འཇགས་དང་	-9.98342
ཁྲོད།	-9.98352
ན་ནི་	-9.98365
གསར་འཛུགས་	-9.98366
འགྲོ་ལམ་	-9.98386
འཁྲིད་	-9.98474
རྐང་པ་	-9.98505
ཅེས་པ་	-9.98527
བཟོ་བཅོས་	-9.98601
སྡེ་ཁག་གི་	-9.98607
བཅས་བྱས་ཏེ་	-9.98623
བྱེད་པ་དང།	-9.98625
ཤུགས་རྐྱེན་ཐེབས་	-9.98663
འདྲ་མཉམ་	-9.9867
དཀའ་བའི་	-9.98722
▁འཕགས་པ་	-9.98728
▁1.	-9.98755
ཚུད་	-9.9876
འཐུས་ཚང་དུ་བཏང་	-9.98777
སུམ་ཅུ་	-9.98827
འགྱུར་བའི་	-9.98852
བཀུར་	-9.98856
བྱང་ཆུབ་ཏུ་	-9.98864
གསལ།	-9.98892
ལོ་གསར་	-9.9894
ཧྲེང་	-9.99101
དབུལ་པོ་	-9.99102
འཕགས་	-9.99115
སྦྱངས་	-9.99118
དྲུང་ཡིག་ཆེན་མོ་	-9.99128
དང་བྲལ་བ་	-9.99134
ཉེར་	-9.99273
ཆུང་ངུ་	-9.99302
ཤར་གཏོང་	-9.99314
སྡོང་	-9.99523
མི་རྣམས་ཀྱིས་	-9.99546
བརྙན་	-9.99561
བོད་སྨན་	-9.99566
བཅངས་	-9.99578
སྒྲིལ་ཡར་ཐོན་	-9.99582
རྐྱེན་གྱིས་	-9.99606
རྣམ་པ་སྣ་ཚོགས་	-9.99611
ཤུགས་སྣོན་	-9.99637
ཐེངས་དང་པོའི་ཀྲུ	-9.99639
འཕྲིན་གཏོང་	-9.99667
ལས་གྲྭའི་	-9.99699
རྟོག་ཞིབ་བྱས།	-9.99739
དང་གྲོང་ཁྱེར་	-9.99747
དྲང་	-9.99811
རྣ་	-9.9982
ཧྥ་	-9.99888
སུམ་	-9.99921
ཁུང་	-9.99979
སྐོར།	-9.99983
བརྙན་མཐོང་།	-9.99992
སྙམ་	-10.0001
དཀའ་ཁག་	-10.0007
བཀོད་འདོམས་	-10.0008
བསིལ་	-10.0013
ཡུམ་	-10.0015
སྤྱོད་ཡུལ་	-10.0019
མངའ་ཁོངས་	-10.002
གཡས་	-10.0028
ཁྲིན་	-10.0033
བོད་ཁུལ་གྱི་	-10.0033
དད་པ་	-10.0037
པ་དེས་	-10.0037
དང་མི་	-10.004
འཐུས་ཚང་	-10.004
ཤེས་པར་བྱའོ།	-10.0043
ཁང་།	-10.0043
བུ་ཕྲུག་	-10.0047
མེས་རྒྱལ་	-10.0051
སེམས་ཀྱིས་	-10.0054
ལོ་ལྔའི་འཆར་གཞི་	-10.0055
རྩོམ་ཡིག་	-10.0059
ཤེལ་	-10.0062
ཞུགས་པའི་	-10.0064
དམངས་སྲིད་	-10.0067
ཧུར་ཐག་གིས་	-10.0067
ཁྲེང་ཀོན་ཆུས་	-10.007
▁གང་གི་ཕྱིར་	-10.0072
དྲི་མ་	-10.0078
བཞག་ནས་	-10.0079
གསར་བརྗེ་	-10.0081
བདུན་པ་	-10.0082
ས་གཞི་	-10.0084
བདེ་ཆེན་	-10.0086
▁གྲོང་གསེབ་ཀྱི་	-10.0086
གཏོང་བ་བཅས་	-10.0088
མིའི་རིགས་ཀྱི་	-10.0093
ཡིན།།	-10.0097
ཞིབ་ཕྲ་	-10.0101
ཕ་ཡུལ་	-10.0106
ལང་	-10.0113
▁༣	-10.0114
▁ཀྲུང་དབྱང་གི་	-10.0117
རྒན་རྒོན་	-10.0118
ཐོབ་ཡོད།	-10.0121
དལ་	-10.0121
ཚང་མའི་	-10.0122
ལྟ་བའི་	-10.013
ཧཱུཾ་	-10.0135
རྒྱུད་གཅིག་ལམ་	-10.0135
▁]	-10.0141
དང་མཐུན་པའི་	-10.0141
བཙལ་	-10.015
དགེ་མཚན་	-10.0153
ཆེན།	-10.0154
ཚོ	-10.0155
དོགས་	-10.0157
▁སྔོན་	-10.0159
ཤོས་	-10.0161
ཐེ་ཚོམ་	-10.0163
ཟིན་པ་	-10.0166
ཧཱུྃ་	-10.0167
▁ལ	-10.0173
དྲུག་ཅུ་	-10.0179
དྲིས་	-10.0179
མེས་	-10.018
གཏང་	-10.0181
ཀྲུང་གོ་གུང་ཁྲན་	-10.0184
འཇལ་	-10.0185
བང་རིམ།	-10.0186
ཡང་མི་	-10.0188
རྩེ་མོ་	-10.0188
▁རྒྱལ་པོ་	-10.0189
བྱེ་བ་	-10.0197
རྒྱལ་ཁབ་ཕྱི་ནང་	-10.0197
ཟུང་	-10.0199
བྱམས་པ་	-10.0202
བོད་ཀྱི་རིག་གནས་	-10.0203
སྤྱི་ཡོངས་	-10.0204
བོའི་	-10.0205
▁སློབ་དཔོན་	-10.0211
▁ལོ་ནས་	-10.0212
ཐོན་ལས་ཀྱི་	-10.0213
ཤེས་པར་	-10.0217
ཞིབ་དཔྱོད་	-10.0217
ཆབ་	-10.0218
སྐྱོ་	-10.0228
ས་གནས་ཀྱི་	-10.0232
ཞི་ཅིན་ཕིང་	-10.0235
མང་བོ་	-10.0238
ཚིགས་སུ་བཅད་པ་	-10.0238
▁ས་གནས་	-10.024
▁ཁོ་	-10.0244
བྱས་པར་མ་ཟད།	-10.0248
དག་ཏུ་	-10.0252
ཀྲུང་གུང་	-10.0255
འགྲེམས་སྤེལ་	-10.0257
ཏང་ཡོན་ལས་བྱེད་པ	-10.026
རྒྱུན་དུ་	-10.0261
ལ༷་	-10.0261
གསར་བརྗེའི་	-10.0262
གསོད་	-10.0262
ཏན་	-10.0264
མཇུག་སྒྲིལ་	-10.0265
▁སི་ཁྲོན་	-10.0266
གཏོང་རྒྱུ།	-10.0266
རྣམ་ཐར་	-10.027
བཟོ་ཚོང་	-10.027
འགྲུལ་	-10.0272
ལས་ཁུངས་དང་	-10.0275
རའི་	-10.0276
ཤེས་བྱའི་	-10.0281
ས་ཁུལ་དང་	-10.0284
དཔྱིད་གསར་	-10.0286
ལོ་ལྟར་	-10.0288
གནང་ཞིང་།	-10.0292
ཏང་དང་རྒྱལ་ཁབ་	-10.0294
བསྒྲུབ་པ་	-10.0295
མཚན་སྙན་	-10.0297
རྣམ་པར་སྣང་མཛད་	-10.0302
བགྱིས་	-10.0303
གཏིང་ཟབ་ཏུ་གཏོང་	-10.0305
ཤེས།	-10.0306
མདོར་བསྡུས།	-10.0309
རེད	-10.031
དཀའ་གནད་	-10.0313
ཇེ་དྲག་ཏུ་གཏོང་	-10.0316
ལྷག་པར་	-10.0321
བར་སྣང་	-10.0324
▁ཉིང་ཁྲི་	-10.0326
▁ཁོར་ཡུག་	-10.0328
མཁས་དབང་	-10.0329
གྲུ་གཟིངས་	-10.0336
▁དཔེར་ན།	-10.0338
ཕུག་	-10.0348
རིམ་པ་སོ་སོའི་	-10.035
བཤེར་	-10.0352
ལྟ་བུའོ།	-10.0354
མཚོན་བྱེད་	-10.0359
བརྩོན་འགྲུས་	-10.0361
▁གླུ་གཞས།	-10.0362
ཧྥུ་	-10.0363
ཞུགས་པ་	-10.0363
གཞིའི་	-10.0363
སྒམ་	-10.0363
གྲོས་ཚོགས	-10.0363
དཔུང་སྡེ་	-10.0364
ལས་སྒྲུབ་	-10.0365
འར་	-10.0367
▁ངའི་	-10.0368
དུ་གྱུར་	-10.0377
ཞོར་དུ་	-10.0377
བུམ་	-10.038
ཞ	-10.0385
དོད་	-10.0385
ཀུང་སིའི་	-10.0387
བཀོད་པའི་	-10.0388
དུས་མཚམས་	-10.0389
▁ཁུལ་	-10.0391
རྒྱལ་ནང་གི་	-10.0393
འབྱེད་	-10.0396
ཐིག་ལེ་	-10.0402
ཤུ	-10.0403
ཇི་བཞིན་	-10.0403
ཆུ་ཚད་མཐོ་རུ་	-10.0411
གྲངས་གཞི་	-10.0411
རྒྱུ	-10.0414
གཤེགས་	-10.0418
བཟླས་	-10.0418
▁སྒྲ་	-10.0421
དྲ་རྒྱ་	-10.0423
བྱེད་རྒྱུའི་	-10.0426
ཉིན།	-10.0433
ཞེན་	-10.0436
བྱེད་བཞིན་པའི་	-10.0436
བཙུགས་ཏེ་	-10.0437
▁གང་གིས་	-10.0442
བརྗེད་	-10.0443
རྩད་གཅོད་	-10.0446
▁ཡིན་ནའང་	-10.0447
གཅེས་	-10.0448
ཚོགས་ཆེན་གྱི་	-10.0448
གསལ་བསྒྲགས།	-10.045
རྒུད་སྐྱོབ་	-10.0451
▁ཁྲིམས་ལུགས་	-10.0453
▁ཀྲང་ཏི་ཅང་གིས་	-10.0455
བུ	-10.046
སྤྱད་ནས་	-10.0463
ཁ་གཏད་རོགས་སྐྱོར	-10.0463
པར་སྐྲུན་	-10.0466
བརྗོད་པའི་	-10.0469
དང་ལྷན་དུ་	-10.0474
དཔེ་ཆ་	-10.0475
ཚད་མེད་	-10.0475
མཁའ་འགྲུལ་	-10.0478
བྱེད་པའི་ཐད་	-10.0479
གཟའ་འཁོར་	-10.0485
ང་རང་	-10.0486
བྱེད་རྒྱུ།	-10.0486
ཡོ་	-10.0486
འཇུག་པའི་	-10.0487
རིང་ལ།	-10.0488
▁པར་དེབ།	-10.049
བཤད་དོ།	-10.0491
གང་མགྱོགས་	-10.0495
པས་སོ།	-10.0501
སྲིད་ཇུས་དང་	-10.0506
དམངས་ཆེན་འཐུས་མི	-10.0509
▁སྤྱི་ཚོགས་ཀྱི་	-10.051
བགྲོད་	-10.0515
ཅཱ་	-10.0515
དེའི་ཕྱིར་	-10.0516
ལ་མ་	-10.0517
པ་ནི།	-10.0518
གསུམ་པོ་	-10.0521
ནུས་པའི་	-10.0522
▁གཉིས་པ་	-10.0524
མ་དངུལ་སྒོར་ཁྲི་	-10.0525
▁སྤྱི་	-10.0527
དངོས་ཡོད་	-10.0531
བོད་ཀྱི་སྐད་ཡིག་	-10.0531
འདྲ་བ་	-10.0532
བཟོ་འགོད་	-10.0536
ཕྱོགས་ལ་	-10.0538
མ་ཟད་	-10.0538
པན་	-10.054
དེ་འདྲ་	-10.0546
▁སྡུག་བསྔལ་	-10.0547
མན་ངག་	-10.0547
དམའ་	-10.0548
དེ་གཉིས་	-10.0548
གཞུང་སྒྲུབ་ཁང་	-10.055
གློག་འཕྲིན་	-10.0557
དམངས་ཕན་	-10.0564
▁ཡུལ་སྐོར་	-10.0566
དབུལ་སྐྱོར་གྱི་	-10.0566
ཧྲུའུ་	-10.0568
▁ཅི་	-10.0568
ཅེས་པའི་	-10.0571
འཆད་ཁྲིད་	-10.0573
མཐོར་འདེགས་སུ་	-10.0573
སྒྲིབ་པ་	-10.0574
ཚོགས་ཆུང་གི་	-10.0574
▁བུད་མེད་	-10.0575
མཐོ་བའི་	-10.0575
ཉིན་གྱི་སྔ་དྲོར།	-10.0581
གཞོགས་འདེགས་	-10.0583
ཡི་གེའི་	-10.0588
གནས་སྤོས་	-10.0599
སུང་	-10.0599
སྡུད་	-10.0604
ཆེར་	-10.0606
གི་ཀྲུའུ་རིན་	-10.0606
རྩོམ་སྒྲིག་པ།	-10.0612
འོད་གསལ་	-10.0616
རྩོམ་སྒྲིག་	-10.0618
པ་སོགས་ཀྱི་	-10.062
རགས་	-10.0623
མཆོག།	-10.0623
ཐོ་བདག་	-10.0623
ཁྲའོ་ཞན་	-10.0626
ཟབ་སྤེལ་	-10.0626
སྒྲོན་	-10.0632
དྲུག་པ་	-10.0635
མེན་	-10.0636
སྐུར་	-10.0645
ཤིག།	-10.0645
བཟོད་པ་	-10.0648
སེང་གེ་	-10.0653
▁300	-10.0653
ཧྲ་	-10.066
འཇོན་ཐང་	-10.0669
རུ་ཁག་གིས་	-10.0669
དང་བསྡུར་ན་	-10.067
བདག་སྐྱོང་	-10.0682
▁ང་ཚོ་	-10.0685
སེམས་ཅན་རྣམས་	-10.0685
▁ཞིང་སྡེའི་	-10.0687
སོ་སོས་	-10.0687
ཙམ་དུ་	-10.0689
འོ་མ་	-10.0695
ཤིང་གནང་བའི་ཏང་	-10.0695
པེ་ཅིན་ནས་	-10.0698
ཏུན་	-10.0705
གསབ་	-10.0708
ཀྲའོ་	-10.0708
▁རིང་	-10.071
མངོན་པར་རྫོགས་པ	-10.0716
བརྒྱད་པ་	-10.0716
འཐོབ་	-10.072
ཚུད་པའི་	-10.0721
ཐུབ་པ་དང་	-10.0723
ལས་གཞན་	-10.0723
ཀྲུང་གོ་མི་དམངས་	-10.0724
མྱོང་བ་	-10.0724
ཡོད་དོ།	-10.0727
བཀག་འགོག་	-10.0728
གློག་རྡུལ་	-10.0733
རྒྱུན་ལས་ཨུ་ཡོན་	-10.0733
ཁྲོན་	-10.0734
▁མིག་	-10.0741
ཅན་གྱིས་	-10.0743
གསུམ་ལ་	-10.0745
ལྷན་ཚོགས་ཀྱི་	-10.0745
གྲོང་ཚོ	-10.0751
མི་ཤེས་	-10.0761
འགག་སྒོ་	-10.0761
ཚན་ཆུང་གི་གྲོས་	-10.0766
དོ་སྣང་	-10.0768
མུས་	-10.0768
ལྟ་སྐོར་	-10.0777
མཚམས་འཇོག་	-10.0778
▁གཉིས་ནས་	-10.0781
གཏོང་རྒྱུའི་	-10.0782
5	-10.0784
སྦྱོར་བའི་	-10.0785
འདུན་པ་	-10.0786
པུའི་པུའུ་ཀྲང་	-10.0791
བཅའ་ཁྲིམས་ཀྱི་	-10.0792
མང་བའི་ཆེད་སྒྲིག	-10.0797
བྱ་བ་དང།	-10.0798
ནད་པ་	-10.0798
འུ་ཞི་ཚོགས་པས་	-10.0803
མཛད་སྒོར་ཞུགས་	-10.0807
བརྒྱུད་བསྒྲགས་	-10.0808
ཡིན་ཟེར།	-10.081
སྒྲོལ་མ་	-10.081
ཉུང་མཐར་ཡང་མི་	-10.0815
འབོད་	-10.0816
སྙོམས་པར་འཇུག་པ་	-10.0831
མེད་ངང་	-10.0833
མི་དམངས་འཐུས་	-10.0835
བར་སྐུལ་འདེད་	-10.0839
སླ་	-10.0848
▁ཟིན་	-10.0849
དཀའ་སྤྱད་	-10.085
བཅས་བྱས་ནས་	-10.0855
བདེ་སྲུང་	-10.0857
ཚགས་པར་	-10.0858
མགོ་འཛིན་མཛད་དེ་	-10.0863
སད་	-10.0864
ནོ་	-10.0864
ཐུན་	-10.0865
▁ཆོས་ཀྱི་	-10.0867
མཐོང་བའི་	-10.0868
ནས་ཡོང་བའི་	-10.0876
ལྟེ་བ་	-10.0881
ཆུ་བོ་	-10.0881
ལྷན་ཅིག་	-10.0881
གསུམ་པའི	-10.0882
དུས་རིམ་	-10.0884
▁སྲིད་དོན་	-10.0885
གང་ཡིན་	-10.0887
▁ཐམས་ཅད་	-10.0891
སྔོག་འདོན་	-10.0891
ཡིས་བཤད་རྒྱུར།	-10.0899
དེ་སྔའི་	-10.0901
གཙོ་སྐྱོང་གནང་	-10.0902
▁ང་ཚོའི་	-10.0903
མཁྲེགས་གཏོར་	-10.0903
ཁེབས་	-10.0903
ཞེས་བྱ་བ་ལ།	-10.0907
ལས	-10.0919
▁༦༣༣༡༠༨༩	-10.092
གསུང་བཤད་	-10.0931
དང་པོས་ཚང་འཛོམས་	-10.0933
▁‘	-10.0935
སྟོང་པ་ཉིད་ཀྱི་	-10.0941
རྒྱ་གར་གྱི་	-10.0941
བྱེད་སྒོ་སྤེལ་བ།	-10.0944
དེ་གའི་	-10.0948
ཀའོ་	-10.0949
ཡུལ་དངོས་	-10.0952
བརྗོད་བྱ་	-10.0952
10	-10.0953
ལོ་རེར་	-10.0953
བཅུ་བཞི་	-10.0962
ན་ཕིང་གིས་སྲོག་	-10.0964
ཕྲ་	-10.0965
▁རླུང་	-10.0971
▁གཞི་རིམ་	-10.0973
ས་ལ་	-10.0976
གསར་རྩོམ་	-10.0977
ཁ་གསལ་	-10.0985
མེད་པ་དང་།	-10.0986
:	-10.0988
ཐོས་པ་	-10.0991
ཉི་འོད་	-10.0993
སྤེལ་བ་རེད།	-10.0995
གསོན་	-10.0998
པར་བྱ་བའི་ཕྱིར་	-10.1001
འཁྲུལ་	-10.1002
བླ་ན་མེད་པའི་	-10.1002
ཕིང་	-10.1013
བསམས་	-10.1015
གང་རུང་	-10.1017
གང་ཡིན་པ་	-10.102
ཕྱི་མ་	-10.1023
བསྡུ་བའི་	-10.1023
རེ་ཞིག་	-10.1023
རྩོམ་པ་པོ་	-10.1024
ཻ	-10.1024
བོད་ལུགས་གསོ་རིག	-10.1026
དོན་ནི་	-10.1032
ཞི་བདེ་རྒྱ་མཚོ་	-10.1033
ལག་ཏུ་	-10.1034
མངའ་རིས་ས་ཁུལ་	-10.1035
འོས་སྦྱོར་	-10.1037
ཁྱེད་	-10.1041
འཕྲུལ་འཁོར་	-10.1043
དུས་རབས་ཀྱི་	-10.1043
▁ཟི་ལིང་	-10.1043
ཆེན་གྱི་	-10.1045
ཊ	-10.1047
བརྒྱ་དང་	-10.1047
ཎ	-10.1047
སྐོར་ཞིག་	-10.1047
ཆད་པ་	-10.1051
མེད་པའི་ཕྱིར་རོ།	-10.1052
ངོ་སྤྲོད།	-10.1053
རྟེན་རྫས་བཤམས་	-10.1053
སྤེལ་ནས་	-10.1057
བསྟན་འཛིན་	-10.1059
སྤྱི་སྤྱོད་	-10.1064
ཇི་ལྟ་བ་བཞིན་དུ་	-10.1065
ལས་དོན་སྐོར་གྱི་	-10.1065
གཏིང་	-10.1068
ཏང་ཀྲུང་དབྱང་དང་	-10.1069
རི	-10.1073
བསྡོམས་འབོར་	-10.1077
སྤྱི་ལོ་	-10.1079
གཅིག་ཀྱང་	-10.1082
གཉིད་	-10.1085
ཐེབས།	-10.1086
▁ངེས་པར་དུ་	-10.1086
བླུགས་	-10.1089
▁ཡོ་རོབ་གླིང་	-10.1089
བརྟན་པོའི་ངང་	-10.1093
▁བློ་མཐུན་ཞི་ཅི	-10.1103
བསྒོམ་	-10.1104
གདན་ཞུ་	-10.1105
ཞ་	-10.1109
བསམ་གྱིས་མི་ཁྱབ་	-10.111
དཔའ་བོ་	-10.111
ལ་ཞུགས་པའི་	-10.1112
▁སྤྱིར་	-10.1113
གྱུར་པའི་	-10.1113
དུས་མཚུངས་ལས་	-10.1115
འགྲེམ་སྤེལ་	-10.1119
མངའ་	-10.1125
ཐག་རིང་	-10.1126
ཀུའུ་	-10.1126
མཚོན་ཆ་	-10.1129
ཀྱི་ཀྲུའུ་ཞི།	-10.113
བྱ་བའི་ཐ་ཚིག་གོ།	-10.1135
ཛ་	-10.1142
ཐིན་	-10.1151
འོངས་	-10.1153
སྐྲ་	-10.1154
ཐོན་སྐྱེད་ཀྱི་	-10.1156
འུ་ཅི་ཝང་གོ་ཧྲི	-10.1157
བེ་	-10.1158
བ་ཞིག་	-10.116
བསད་	-10.1161
▁མེ་	-10.1161
ཡབ་	-10.1162
ཉར་	-10.1164
རྨ་འབྲི་རྫ་གསུམ་	-10.1166
སྨི	-10.1175
མཚོན་པའི་	-10.1177
པའི་ཚུལ་བསྟན།	-10.1183
གཞིར་	-10.1187
རྒྱ་ཡིག་	-10.1189
སྒྱུ་རྩལ་གྱི་	-10.1195
▁སྤྱི་ཟླ་	-10.1198
ཨང་དང་པོ་	-10.1201
སྤྱི་མཐུན་	-10.1202
▁ཉིན་གློག་འཕྲིན་	-10.1202
ཉེ་ཆར་	-10.1204
ཀྲུང་ཧྭ་མི་དམངས་	-10.1204
ཀཱ་	-10.1205
བོད་ལྗོངས་ཀྱིས་	-10.1212
རང་བཞིན།	-10.1212
ཐེངས	-10.1214
འོས་འགན་སློབ་གསོ	-10.1219
གནོན་	-10.1219
▁གཅིག	-10.122
ཁག་ཅིག་	-10.1222
ལ་ཞིབ་བཤེར་	-10.1234
ལྟེ་བར་	-10.1235
▁སེམས་ཀྱི་ཉི་ཟླ་	-10.1236
བཅོམ་ལྡན་འདས་ལ་	-10.1237
མཐའ་ཡས་	-10.1239
གུས་	-10.1241
ལ་ངོ་རྒོལ་	-10.1242
▁རྟག་ཏུ་	-10.1247
གཞི་གྲངས་	-10.1252
བདེ་འཇགས་ལས་འཛི	-10.1254
མཇུག་འབྲས་	-10.1258
བདུན་གྱི་	-10.126
ཡིག་ཚགས་དང་གཱ་	-10.1273
ཐུབ་ཡོད།	-10.1274
ཞུ་བ་	-10.1275
ན་དང་ཧྲིན་ཀྲང་	-10.1277
གཟི་	-10.1284
ཏོ།	-10.1294
གནས་ཀྱི་	-10.1295
▁དཔལ་	-10.1296
གནང་ཡོད་པ་རེད།	-10.1302
ནམ་མཁའི་	-10.1306
ཞིང་ཕྱུགས་ལས་	-10.1307
བཙུགས་པའི་	-10.1309
བསྒྲིགས་	-10.1314
ཟམ་	-10.1314
གུང་	-10.1315
ལེགས་ཆ་	-10.1316
སྒེར་	-10.1328
ཁྱབ་ཁོངས་སུ་	-10.1328
▁1000	-10.1336
སོང་ནས་	-10.1336
གསལ་བཤད་	-10.1336
ཏིས་	-10.134
རྣམ་ཤེས་	-10.1342
འཁོར་ལོའི་	-10.1345
རྩ	-10.1346
རྐྱེན་སྲོལ་	-10.1347
རེ	-10.1349
▁ཁྲིམས་ལྟར་	-10.1355
མདངས་	-10.1355
▁ཡིད་	-10.1355
པར་འགྱུར་ཏེ།	-10.1358
གསུངས་ཏེ།	-10.1361
ཡོངས་སུ་དག་པ་	-10.1361
ཁག་ཐེག་	-10.1363
ཕ་རོལ་	-10.1364
བྱེད་རྒྱུར་	-10.1366
སྤྱིར་	-10.1369
དགོས་ཤིང་།	-10.1369
བརྒྱུད་ནང་བསྟན་	-10.1369
ཚིག་གི་	-10.137
གླ་ཕོགས་	-10.137
ལགས་སོ།	-10.1374
བས་བཅུ་གཉིས་པའི་	-10.1374
རྨོངས་	-10.1377
རྗེས་དྲན་	-10.1378
▁རང་ལྗོངས་ཀྱི་	-10.1385
ཁྱིམ་གྱི་	-10.1385
རྨང་གཞིའི་ཐོག་	-10.1388
སྔགས་ཀྱི་	-10.1388
འདུལ་	-10.1388
སོགས་མགོ་ཁྲིད་	-10.1389
ཡུལ་སྐོར་གྱི་	-10.139
བརྩེ་སེམས་	-10.1391
ཆགས་པར་	-10.1392
བརྒྱ་ཆ་	-10.1402
སྡེ་ཁུལ་གྱི་	-10.1403
སློབ་གསོར་	-10.1404
6	-10.1405
འགྲུབ་པར་	-10.1406
▁འདི་ལོ་	-10.1409
ཏང་ཨུ་དང་	-10.1409
གང་སར་	-10.1411
གྲངས་འབོར་	-10.1412
ཀྲ་	-10.1417
ལ་སོགས་པའོ།	-10.1418
ཡིན་ཞེ་ན།	-10.142
དག་པ་	-10.1423
ལྟོས་	-10.1425
ཧྲེ་	-10.1429
མངོན་གསལ་དོད་པོ	-10.143
རྟགས་ཅན་གྱི་	-10.1431
ཐ་མ་	-10.1432
ཅིའི་ཕྱིར་	-10.1433
ཕྲུག་	-10.1436
དེ་ཙམ་	-10.1442
▁དེང་སྐབས་	-10.1445
ལ་གཞིགས་ནས་	-10.1446
▁བདག་གིས་	-10.1449
གྲོས་བསྡུར་བྱས།	-10.1454
གཞུང་སྒྲུབ་ཐིན་	-10.1456
འབྲེལ་བ་ཡོད་པའི་	-10.1456
མང་ཚོགས་ཚོས་	-10.1461
རྒྱུ་ཡིན་པ།	-10.1464
དམིགས་བསལ་གྱི་	-10.1467
མ་ཡིན་ནོ་ཞེས་	-10.1468
རིག་གནས་དང་	-10.1469
བསྣན་	-10.147
སློབ་མ	-10.1471
ཆོག་པའི་	-10.1472
འི་ངང་	-10.1472
ཐེན་	-10.1473
མི་སེར་	-10.1474
མངོན་དུ་	-10.1476
རྩེད་	-10.1478
རྨ་	-10.1481
དགུན་དུས་	-10.1482
ཕྱི་རོལ་གྱི་	-10.1482
ལྟེ་གནས་སུ་	-10.1483
ཀྲུང་གུང་ཀྲུང་ད	-10.1484
ཞོར་	-10.1484
དེང་རབས་ཅན་གྱི་	-10.1485
ལ་གནས་པ་	-10.1486
▁རྒྱུ་	-10.1486
▁ད་ཐེངས་ཀྱི་	-10.1487
ཀྱང་།	-10.1493
▁སུ་	-10.1495
གསུངས་པའི་	-10.1497
བའི་ཕྱིར་	-10.1498
ལྐོག་	-10.1501
གཏོང་རྒྱུར་	-10.1502
ཁོངས་མི་	-10.1503
གྲུབ་འབྲས་ཐོབ་	-10.1511
འགྱུར་ལྡོག་གླེང་	-10.1512
ཅི་ཞིས་ཅིན་ཕིང་	-10.1514
ལྷུང་	-10.1519
གཙོ་བོ་ནི་	-10.152
དེ་ལྟ་བུའི་	-10.1523
ཁྲ	-10.1527
པས་ན་	-10.1534
གང་མང་	-10.1548
▁དུས་རབས་	-10.155
▁༢	-10.1554
དྲ་ཚིགས་	-10.1556
བསམ་བློ་དང་	-10.1556
ངེས།	-10.1557
རྣམ་པས་	-10.1558
འཚམས་འདྲི་བྱས།	-10.1561
སྔར་ལས་ལྷག་པའི་	-10.1569
བྲོ་	-10.157
སྦྱང་	-10.1574
བྱས་ན།	-10.1576
ཕ	-10.1577
ཤེས་ལྡན་མི་སྣའི་	-10.1577
བཞི་པའི་	-10.1581
ཁྲུན་	-10.1582
དུ་འཇུག་	-10.1588
སྨོན་	-10.1591
པ་དག་	-10.1595
ཀྱི་འཚོ་བ་གསར་བ་	-10.1596
དཔོན་དམག་	-10.16
ཀྲིན་	-10.1609
དངུལ་ལོར་	-10.1609
འདུན་	-10.1612
གཏོགས་	-10.1617
▁རི་	-10.1618
འགྲེམས་	-10.1618
དགོས་ཞེས་	-10.1619
མི་རིགས་མཐུན་	-10.1619
ལྟར་ན་	-10.1619
སེམས་དཔའ་	-10.162
དང་ལྷན་ཅིག་	-10.1621
སི	-10.1624
ཡིན་གྱི།	-10.1629
བརྗེ་	-10.1629
ལྔ་པ་	-10.1631
བཟློག་	-10.1635
སྟེ་འབྱོར་འབྲིང་	-10.1644
ཚོགས་ཆེན་བཅུ་	-10.1648
བོད་ལ་	-10.165
གྲགས།	-10.1651
གླེང་མོལ་	-10.1652
གསར་གཏོད་ཀྱི་	-10.1653
གྲུབ་པར་	-10.1653
བཅུ་དགུ་པ་	-10.1654
སེམས་ཀྱི་ཉི་ཟླ་	-10.1655
མདུན་སྐྱོད་	-10.1656
བཅུད་	-10.1657
འགོ་འཛིན་	-10.1658
ཡོད་ཀྱང་	-10.1661
▁༤	-10.1663
བསྟན་ཏེ།	-10.167
ངས།	-10.167
བྱེད་པ་དེ་	-10.1676
བཀོད་སྒྲིག་བྱས།	-10.1677
རེད་ཟེར།	-10.1679
ཉི་མའི་	-10.168
སྟན་	-10.1681
▁རྟ་	-10.1683
ཐེངས་མང་	-10.1683
ཀྱི་རྒྱུན་ལས་	-10.1684
རེའི་	-10.1685
ཧྥེ་	-10.1689
▁ཁ་པར།	-10.1691
▁བྱང་ཆུབ་	-10.1691
གསུམ་དུ་	-10.1691
བྱེད་རྒྱུ་དེ་	-10.1696
དབྱར་རྩྭ་དགུན་འ	-10.1702
བཟང་སྒྲོལ་མས་	-10.1702
རླབས་ཆེན་བསྐྱར་ད	-10.1703
བརྩེ་བ་	-10.1704
ཞིག	-10.1706
ཐིང་	-10.1713
བསྐལ་པ་	-10.1718
སྒྲོལ་	-10.1721
དང་ཨུ་ཡོན་གྱིས་	-10.1722
བདེ་བར་	-10.1723
ལས་ནི་	-10.1725
འབྲོག་པ་	-10.1728
ཧྥ་རན་སིའི་	-10.173
དང་འབྲེལ་བ་	-10.1731
མི་སྒེར་གྱི་	-10.1732
སྐོང་	-10.1734
▁ད་ལོར་	-10.1735
ལོས་	-10.1735
དགེ་མཚན་ལྡན་པའི་	-10.1738
བྱང་ཆུབ་ཀྱི་སེམས	-10.1738
▁བརྙན་འཕྲིན་	-10.1738
འདུས་པའི་	-10.174
ཟི་ལིང་དུ་བསྡུས།	-10.1741
▁ཕྱོགས་	-10.1742
▁ཀྲང་	-10.1743
ཁོང་ཚོའི་	-10.1745
ཐེ	-10.1749
བློ་མཐུན་ཞི་ཅི	-10.175
ཁྱུང་	-10.1754
རྒྱལ་མཚན་གྱིས་	-10.1756
▁བློ་	-10.1756
དམིགས་བསལ་སློབ་	-10.1757
ཐོ	-10.1758
སེམས་ཁམས་	-10.1759
པད་	-10.1759
དཔྱ་ཁྲལ་	-10.1761
འདྲ།	-10.1763
ཁེ	-10.1764
ཁ་བ་	-10.1767
གྱོན་	-10.177
སྒྲའི་	-10.1771
ལུའོ་	-10.1772
རྫོགས་པར་	-10.1773
གི་ཨུ་ཡོན་ཀྲང་	-10.1774
ཀྱི་འབྲེལ་བ་	-10.1776
ཡིག་རྒྱུགས་	-10.1777
▁མཐར་	-10.1781
འཇིག་པ་	-10.1782
འི་ཚོགས་པ་དང་	-10.1784
སྟོབས་ཀྱིས་	-10.1784
ཚན་ཁག་གི་	-10.1785
▁དམངས་ཆེན་འཐུས་	-10.1785
ལ་སྲུང་སྐྱོང་	-10.1788
སྤྱི་མཐུན་རྒྱལ་ཁ	-10.179
ཡོམ་འགོག་གེགས་སེ	-10.1791
རལ་གྲི་	-10.1791
ཡུལ་ཤུལ་	-10.1792
གཉིས་ནི་	-10.1792
སོགས་ཁྱབ་ཁོངས་	-10.1793
མཁའ་	-10.1794
མེད་ཀྱི་	-10.1795
འགོག་སྲུང་	-10.1802
ཞིབ་ཏུ་ཞུགས།	-10.1804
སྐབས་བཅུ་གཉིས་པ	-10.1805
འབྲེལ་པ་	-10.1805
བོད་བརྒྱུད་ནང་	-10.1806
བའམ།	-10.1809
ཤུགས་འདོན་དགོས་པ	-10.181
པར་བྱ་བ་	-10.1818
འོག་གི་	-10.1828
ལྔ་བཅུ་	-10.1831
དང་ཚན་ཆུང་བགོས་	-10.1831
བསྙེན་བཀུར་	-10.1832
མཐུད་	-10.1832
དང་ཡང་ན་	-10.1835
དང་པོས་ཚོགས་པ་	-10.1838
བདག་དབང་	-10.1839
▁རིན་ཆེན་	-10.1841
ཐེངས་དང་པོའི་ག	-10.1843
ལས་རིགས་ཁག་གི་	-10.1844
རྒྱུན་ཨུ་སོ་སོ་	-10.1847
བརྒྱད་ཀྱི་	-10.1847
སྐྱེ་བར་	-10.1847
▁ཤིང་	-10.1849
ཀྱིས་ཚོགས་ཆེན་ག	-10.1853
ཐུག་འཕྲད་	-10.1854
▁བདེ་ཆེན་ཁུལ་	-10.1855
བསྐྲུནམཚོ་སྔོན་	-10.1856
གྲོང་ཚོ་དང་	-10.1856
ཏེ་མཐོ་རིམ་མ	-10.1856
འདབ་	-10.1857
▁ལྗོངས་	-10.1857
སར་དུ་བདམས་ཐོན་བ	-10.1857
ཐམས་ཅད་ཀྱང་	-10.1858
གསོར་མུ་མཐུད་དུ་	-10.186
དངོས་གནས་	-10.1861
▁སྣང་ཆེན་བཞི་དང་	-10.1861
ཞིང་འབྲོག་པ་	-10.1866
ཞིག་ཡིན་པས།	-10.1868
གཟུངས་	-10.1871
འཐབ་ཇུས་ཀྱི་	-10.1872
25	-10.1874
▁གསེར་	-10.1877
དཔྱོད་	-10.1878
མེད་པ་དང་	-10.188
དོང་	-10.1892
▁མང་ཚོགས་ཀྱི་	-10.1895
ཐེངས་དང་པོ་རྒྱ	-10.1897
པ་བཅས་ཀྱི་	-10.1898
གྱོད་དོན་	-10.1902
ལ་ཁའི་ངང་གྲོལ།	-10.1904
ཕུན་ཚོགས་	-10.1904
▁ཚང་མས་	-10.1904
སྤྲོས་	-10.1909
འི་འབྲེལ་བ་	-10.191
རུལ་སུངས་	-10.1911
ཉོན་མོངས་	-10.1912
དབང་པོའི་	-10.1912
རྩོད་པ་	-10.1916
འཕོ་འགྱུར་	-10.1917
▁2011	-10.1917
བསང་	-10.1918
རུ	-10.1921
ཞི་བདེ་དང་	-10.1922
ཉན་ཐོས་	-10.1923
རིགས་ཁག་གི་	-10.1924
ཁྱབ་སྒྲོག་བྱས།	-10.1925
▁སྤྱི་ལོ་	-10.1926
བཀོད་སྒྲིག་བྱས་	-10.1929
འབད་པ་	-10.1931
བའང་	-10.1932
སྒུག་	-10.1932
▁ཕྱི་	-10.1936
མཛོད་ཁང་	-10.1937
འབྲས་བུའི་	-10.1941
མི་འགྱུར་	-10.1942
ཁབ་	-10.1942
རྫོང་རིམ་པའི་	-10.1943
▁དངོས་པོ་	-10.1946
རྡུང་	-10.1946
དེ་ཡི་	-10.1949
རིམ་པས་	-10.1949
▁ཟླ་བ་	-10.1954
ཁྱེར་	-10.1954
པེ་ཅིང་དུ་	-10.1954
སྐལ་	-10.1959
གཡུ་	-10.196
གཉེན་པོ་	-10.196
བྱུང་བ་རེད།	-10.1961
ཕྱུགས་ལས་	-10.1962
▁ཤ་	-10.1969
༔	-10.197
ཨུ་རུ་སུའི་	-10.1973
▁པདྨ་	-10.1975
ཁྱད་ལྡན་ཐོན་ལས་	-10.1975
མནན་	-10.1977
པའི་དོན་	-10.1977
ཏུ	-10.198
ཡུག་	-10.198
ཆོས་ཀྱི་དབྱིངས་	-10.198
▁ལིག་ཡུན་ཧྲན་གྱི	-10.1981
ལའོ་	-10.1988
ཀང་	-10.1988
དགེ་འོས་སློབ་	-10.1991
འཕེན་	-10.1991
རིག་གནས་ཐོན་ལས་	-10.1992
ཡོ་རོབ་	-10.1998
སྤྲུལ་པ་	-10.1998
སྐུའི་	-10.1999
ཐཱ་	-10.2004
ལེགས་སྐྱེས་འབུལ་	-10.2005
▁ཚན་རྩལ་	-10.2009
ཕུགས་བསམ་	-10.201
ཀུང་སིས་	-10.201
ཁྱིམ་བདག་	-10.2014
མལ་	-10.2014
གླེང་སྟེགས་ཀྱི་	-10.2015
དང་མཉམ་ལས་	-10.2017
མི་འདུག	-10.2018
ས་འགུལ་	-10.2023
▁5000	-10.2025
བཅར་འདྲི་	-10.203
པ༷་	-10.203
པར་གྱུར་	-10.2031
ཡིན་ཏེ་	-10.2036
སློབ་སྦྱོང་གི་	-10.2038
ཁྲོ་	-10.2039
▁ཨུ་རུ་སིའི་	-10.204
བཞི།	-10.2041
དང་ལྡན་	-10.2042
སྲིན་	-10.2044
འདུས་ཏེ་རེག་པ་	-10.2045
གང་ཡིན་པ་དེ་	-10.205
གསལ་བའི་	-10.2055
འདོད།	-10.2059
བུད་མེད་ཀྱི་	-10.2059
ཞབས་འདེགས་	-10.206
བཏོན་ཡོད།	-10.2061
བསྔགས་བརྗོད་	-10.2062
ཅུའུ་	-10.2066
དུད་	-10.2068
སི་རི་ཡའི་	-10.2071
ལས་སྒོ་	-10.2071
མགོན་	-10.2075
▁ཨོཾ་བཛྲ་	-10.2075
དགའ་ལྡན་	-10.2076
▁ཝུའུ་དབྱིང་ཅེས་	-10.208
གཅིག་པ་	-10.2086
བོད་ལྗོངས་དྲ་བ།	-10.2089
ས་དང་སྤྱི་ཚོགས་	-10.2091
སེམས་ཁྲལ་	-10.2093
དགག་	-10.2093
དེ་བས་མང་བ་	-10.2096
འཆར་ཟིན་	-10.2098
གྱི་ཏང་ཨུའི་ཧྲུ	-10.21
བསྐྱལ་	-10.2102
དམ་བཅའ་	-10.2103
ཐའེ་	-10.211
བསུ་	-10.2113
འདམ་	-10.2115
ལ་གནས་པའི་	-10.2118
▁2.	-10.212
དགྲ་བཅོམ་པ་ཡང་	-10.212
སྐོར་ལ་	-10.2121
▁ཅེས་པའི་	-10.2124
འཕགས་པའི་	-10.2125
སྤེལ་རྒྱུ་རེད།	-10.2125
སྔོན་ཆད་ཀྱི་	-10.2127
བཤམས་	-10.2128
མཛེས་སྡུག་	-10.2128
ཚུལ་དུ་	-10.213
གྲགས་པའི་	-10.2135
དུས་ལྟར་	-10.2135
དགེ་བའི་རྩ་བ་	-10.2139
གྲས་སུ་	-10.2145
▁བདག་གི་	-10.2146
གཅིག་གྱུར་གྱི་	-10.2149
མཚོན་རྟགས་	-10.2151
ཞིང་པའི་	-10.2152
ཁོང་དུ་ཆུད་	-10.2156
ནུབ་རྒྱུད་	-10.2157
གླུ་གར་	-10.2157
ལི་ལིས་ཁི་ཆང་གིས	-10.2157
བལྟས་ན།	-10.2159
ཙུགས་ནས་ལོ་འཁོར་	-10.2161
གང་ཐུབ་	-10.2161
▁པའི་ཚེས་	-10.2166
རྟོགས་པར་	-10.2168
དང་ལྡན་པས་	-10.2169
འཁྱིལ་	-10.217
ཁྲོམ་རར་	-10.2178
དོན་དམ་པར་	-10.2181
བར་བྱ།	-10.2181
ཁྲུས་	-10.2186
བྱེད་པའི	-10.2188
ཏང་ཀྲི་པུའུ་	-10.2192
ཐོན་ཚད་	-10.2192
ལྷོད་	-10.2193
སྤོབས་པ་	-10.2195
ཅེ་ན།	-10.2195
▁འཁོར་བའི་	-10.2197
ཆེ་མོ་	-10.2199
རླབས་	-10.22
སྤུ་	-10.22
བཏོད་	-10.2201
བསླབ་པ་	-10.2207
ཐབས་ཤེས་	-10.2209
བཏང་བ་དང་	-10.2211
ཉེན་རྟོག་པ་	-10.2215
སོགས།	-10.2215
བསྟན་པའི་ཕྱིར།	-10.2219
པའོ་ཞེས་	-10.2219
ཆ་ཤས་	-10.222
མིག་གི་	-10.2221
མྱ་ངན་ལས་འདས་	-10.2225
ཀྲུའུ་ཞིའི་	-10.2226
རང་རྒྱལ་	-10.2227
སྐུལ་འདེད་གཏོང་བ	-10.2227
རྟག་པ་	-10.2229
▁ངོ་སྤྲོད་	-10.223
འགོག་པ་	-10.2233
པང་	-10.2233
▁༽	-10.224
བརྐོས་	-10.2242
གཉེར་བའི་	-10.2244
▁ཕན་ཚུན་	-10.2245
འབྲེལ་བར་	-10.2245
ཉམས་པ་	-10.2246
མྱུར་ཚད་	-10.2248
གྲུབ་ཚུལ་	-10.2248
ཆོས་ལུགས་ལས་དོན་	-10.2248
ལ་རྒྱུས་ལོན་	-10.2249
དམག་འཁྲུག་	-10.2249
བསྟར་	-10.2252
ཨེར་	-10.2253
ལས་ཁུངས།	-10.2256
ཚད་མཐོའི་	-10.2257
▁2010	-10.2259
འདུལ་བ་	-10.2261
མཁར་གྲོང་	-10.2262
5%	-10.2266
སྐབས་དང་པོའི་	-10.227
བདུད་རྩི་	-10.227
སྡིག་པ་	-10.2281
ཁག	-10.2282
ལྔ	-10.2288
རྣམ་པ་ཐམས་ཅད་	-10.2289
གླིང་ཕྲན་	-10.229
པདྨའི་	-10.2292
ཨུ་ལྷན་	-10.2292
▁དེ་རྗེས་	-10.2292
ཀྲིག་	-10.2295
▁ཚན་རིག་སློབ་གསོ	-10.2295
▁རང་ཉིད་	-10.2295
ཕྱུང་	-10.2295
གྱུར་པ།	-10.2295
▁ང་རང་	-10.2299
བཞིན་ཡོད་པ་དང་།	-10.23
སྔ་གཞུག་ཏུ་	-10.2306
ལྟ་རྟོག་	-10.2306
འཛུགས་སྐྲུན་ཐད་	-10.2307
བྱེད་དོ།	-10.2307
རྣམ་པར་ཤེས་པའི་	-10.2308
▁ཟིན་ནས་	-10.231
ཚོང་ར་	-10.2311
ཡུལ་མི་	-10.2311
ལམ་ནས་	-10.2314
དོན་གཉེར་	-10.2317
ཡོད།།	-10.2319
ཚོགས་འདུ་ཟི་ལིང་	-10.2319
རྣམ་དག་	-10.232
མངོན་འགྱུར་བྱུང་	-10.2321
ནན་ཏན་སྒོས་	-10.2323
བྱ་ཆེད་	-10.2325
གནང་ནས་	-10.2326
གསལ་བོར་	-10.2326
ཆུང་མ་	-10.2326
༡༢	-10.2327
མཐོ་སྒང་	-10.233
འདེགས་	-10.2331
ནས་རྒྱུས་ལོན་	-10.2331
ཧོར་	-10.2331
ཡུལ་དངོས་སུ་	-10.2333
▁སྐབས་དེར་	-10.2333
ཧུར་བརྩོན་	-10.2334
དགུན་	-10.2334
ནང་རྐྱེན་	-10.2334
▁བཏང་ནས་	-10.2338
ཐུགས་ཁུར་དང་	-10.2339
ལོ་འཁོར་	-10.234
བཞེད་	-10.234
དོན་དངོས་དང་	-10.2341
དོན་གྲུབ་	-10.2342
མིག་སྔའི་	-10.2342
▁ཀྲུའུ་ཞི་	-10.2347
མ་མཆིས་	-10.2348
སྤངས་པ་	-10.2353
མཁན་པོ་	-10.2357
ཆོས་ཅན།	-10.2359
བཏོན།	-10.2359
ནོར་སྲིད་ཀྱིས་	-10.2361
གནས་ལུགས་	-10.2361
ཏང་དང་སྲིད་གཞུང་	-10.2362
ཟི་ལིང་ནས་བསྡུས།	-10.2362
དཔལ་ལྡན་	-10.2364
བཀོད།	-10.2367
འཕྲོད་བསྟེན་དང་	-10.2367
▁ཟིན་ཡོད།	-10.2374
ཆོས་ལ་	-10.2376
བླངས་ནས་	-10.2376
▁གསུམ་ནས་	-10.2377
ཉ	-10.2378
རུ།	-10.2379
▁ཀྲུང་ཧྭ་མི་	-10.2382
འབྱུང་ཁུངས་	-10.2383
གོ	-10.2383
སྦྱར་བ་	-10.2384
བྱས་ནས	-10.2385
པར་སྐུལ་འདེད་	-10.2385
སྤར་	-10.2386
འཕེལ་བ་	-10.2387
བྱུང་སྟེ་	-10.2387
ཁག་ཏུ་	-10.2388
ཡིན་ཡང་	-10.2395
དཔྱད་འདེམས་	-10.2395
༡༡	-10.24
.8	-10.2401
སྒྲིག་གཞིའི་	-10.2401
ཕྱིར་ལོག་	-10.2404
པད་མ་	-10.2405
རྫོགས་པའི་	-10.2407
གྲྭ་ཆེན་མོའི་	-10.2409
▁གསུམ་པ་	-10.241
འཕྲལ་	-10.2414
བྱུང་བར་	-10.2414
ནད་གཞི་	-10.242
བུད་	-10.2421
སླ	-10.2421
ཀའི་	-10.2424
▁སི་རི་ཡཱའི་	-10.2427
ཚད།	-10.2429
ཆུང་ཆུང་	-10.2431
མཐོང་ནས་	-10.2432
རབ་འབྱམས་	-10.2433
དབུ་བརྙེས་ནས་ལོ་	-10.2435
བསྐྱེད་པའི་	-10.2436
ཅིག།	-10.2438
འི་རླུང་འཕྲིན།	-10.2441
རཱ་	-10.2443
སེར་པོ་	-10.2443
དེ་ཡོངས་ཀྱི་	-10.2443
གྲུབ་མཐའ་	-10.245
འཁྲུངས་	-10.2452
ཕེབས་ནས་	-10.2458
སྐུལ་ལྕག་	-10.2463
བཅིངས་འགྲོལ་	-10.2463
བར་གྱི་འབྲེལ་བ་	-10.2466
ཕན་ཡོན་	-10.2466
འཕྲོ་	-10.2467
གཟུགས་ཀྱི་	-10.2467
ལྡོག་པ་	-10.247
རྒྱུན་ལྡན་	-10.2472
བྱ་བ་བཟང་བོར་	-10.2476
ཇུས་	-10.2476
བགེགས་	-10.2478
སྦྲུལ་	-10.248
▁གཉིས།	-10.2482
-	-10.2484
ཆེ་བ།	-10.2485
དཔར་	-10.2485
འཁོད་	-10.2487
རིལ་	-10.2487
སྲིད་པའི་	-10.2487
ལྷོད་མེད་	-10.249
དམངས་སྲོལ་	-10.2493
▁བཀྲ་ཤིས་	-10.2494
ཀྲུང་དབྱང་དང་	-10.2496
སྨན་ཁང་གི་	-10.2497
འབྱུང་འགྱུར་	-10.2498
ཕྱོགས་གཉིས་ཀྱི་	-10.2499
བསྒྱུར་བ་	-10.2504
▁པེ་ཅིང་	-10.2507
ཚོགས་ཆུང་གིས་	-10.2507
དོན་ཨུ་ཡོན་ལྷན་ཁ	-10.2511
ཁྲེན་	-10.2513
མགོ་ཁྲིད་ཚན་ཆུང་	-10.2513
བསྡུར་ཚད་	-10.2516
ཤུགས་ཆེ་རུ་གཏོང་	-10.2518
སྤེལ་བ་	-10.2522
ཁྱད་པར་ཅན་	-10.2523
ཞིག་ཡིན་	-10.2525
བསམ་པའི་དཔལ་ཡོན་	-10.253
ཟིན།	-10.2531
བྱེད་དགོས་ལ།	-10.2532
ལངས་ཕྱོགས་	-10.2533
གློག་འདོན་	-10.2534
བསྟུན་	-10.2538
གཙུག་ལག་ཁང་	-10.2548
འཁྱེར་	-10.2548
འཚམས་འདྲི་གནང་	-10.2549
ཞེས་བརྗོད་	-10.2552
▁དེར་བརྟེན་	-10.2552
བྲམ་ཟེ་	-10.2555
བྱེད་པ་སོགས་ཀྱི་	-10.2556
བསྒྲུབ་པའི་	-10.2556
སྟོབས་ལྡན་	-10.2561
རིགས་གཅིག་མཁས་ཅན	-10.2562
བློས་	-10.2566
▁རིགས་	-10.2568
མི་རྣམས་ཀྱི་	-10.2568
སྐྱེ་ཁམས་དཔལ་ཡོན	-10.257
ནང་ཞུགས་མཁན་	-10.2572
འབྲོག་ལས་	-10.2579
དོ་དམ་དང་	-10.258
ཆེན་པོ་ཞིག་	-10.258
11	-10.2583
ངོས་སུ་	-10.2584
ཕུག་ལམ་	-10.2584
བསྡུར་	-10.2589
.4	-10.2589
ཏང་ཨུའི་	-10.2589
བསྐུལ་	-10.2591
སྦས་	-10.2592
▁》《	-10.2592
ཕྱི་ནང་གི་	-10.2595
ཀྱི་འགོ་ཁྲིད་	-10.2597
ཏང་རྩ་འཛུགས་	-10.2597
བརྒྱན་	-10.2598
བཟོས་ནས་	-10.2598
འཆར་འགོད་དང་	-10.2598
ཁ་གཏད་	-10.26
བཅོམ་	-10.2602
རིག་པར་བྱའོ།	-10.2606
སྤེལ་བར་	-10.2609
བགོས་	-10.2612
ལྷུང་བཟེད་	-10.2612
དྲ	-10.2613
ཅུའུ་ཡིས་	-10.2617
▁དེ་རིང་	-10.2622
འགན་འཁྲི་འཁུར་	-10.2623
▁ཁྱོད་ཀྱིས་	-10.2623
གཉེན་སྒྲིག་	-10.2624
ཁྲོམ་	-10.2626
འདས་པ་	-10.2626
འཕུར་སྐྱོད་	-10.2634
ལེབ་	-10.2634
བསྐོར་བ་	-10.2636
▁དང་པོ་ནི།	-10.2637
གྲལ་	-10.2639
ཀྲེན་	-10.2639
མངར་	-10.2641
གྲོན་ཆུང་	-10.2641
དུ་སོང་ནས་	-10.2644
▁500	-10.2646
གྲས་	-10.2647
ངོས་ནས་	-10.2649
ཚོགས།	-10.2649
མེད་པའོ།	-10.265
ལྕེ་	-10.2651
▁ལུས་ཀྱི་	-10.2652
འགོ་འཛུགས་	-10.2653
སྒོམ་པ་	-10.2653
དབྱར་	-10.2656
19	-10.2657
བ༷་	-10.2661
ར་མཇལ་འཕྲད་གནང་།	-10.2668
ཙུང་ལི་གཞོན་པ་	-10.2669
ལི	-10.2672
ཉེན་རྟོག་པས་	-10.2677
ལྔ་བརྒྱ་	-10.2677
▁ག	-10.2678
▁ཉི་མ་	-10.2678
མེ་སྐྱོན་	-10.2678
ཅིས་	-10.2683
ཏང་གིས་	-10.2684
གཙང་སེལ་	-10.2685
དྲ་བ།	-10.2686
30	-10.2687
▁ཉེ་དུས།	-10.2688
འགས་གཏོར་	-10.2693
▁ཁེ་ལས་	-10.2694
▁རེད	-10.2703
སྒྲིབ་	-10.2703
དུར་	-10.2703
པར་རིས་	-10.2704
སྐུལ་ཁྲིད་	-10.2706
གྱི་དཔལ་འབྱོར་	-10.2706
བྱེད་པ་སོགས་	-10.2707
འགྲོ།	-10.2709
གསོ་ཚགས་	-10.2711
མནའ་འབྲེལ་གྱིས་	-10.2713
བལ་	-10.2716
བསྡུས་པ།	-10.2718
ཆེད་མངགས་	-10.2721
ཁྱོད་ལ་	-10.2723
བསགས་	-10.2723
བར་འགྱུར།	-10.2728
སྤྲོ་བ་	-10.2729
བཅུ་བདུན་	-10.2732
རྒྱུན་མཐུད་ངང་	-10.2734
མོན་	-10.2742
འཛུགས་པའི་	-10.2742
▁རིམ་པ་སོ་སོའི་	-10.2743
འཛུལ་	-10.2755
དོན་དམ་	-10.2755
ཉིད་ནི་	-10.2756
ཉིས་	-10.2756
མི་ཁྲི་	-10.2757
ཕ་མ་	-10.2758
▁སྨན་	-10.2758
གི་ཀྲུའུ་རེན་	-10.276
ཞིང་ལས་ཐོན་རྫས་	-10.2762
བྱུང་ན་	-10.2764
རྩོམ་རིག་སྒྱུ་རྩ	-10.2764
ཀུན་ནས་ཉོན་མོངས་	-10.2765
སྐྱོར་	-10.2767
སྙན་ཞུའི་	-10.2769
▁དབུལ་ཕོངས་	-10.277
མེད་ལ།	-10.2771
གཱ་	-10.2774
ད་པ་	-10.2777
▁སྐུ་	-10.2779
སྐུ་མགྲོན་	-10.2785
མེད་ཅེས་	-10.2786
མཐོ་ཚད་	-10.2791
རྣམ་པ་གསར་པ་	-10.2791
བོད་རིགས་ས་ཁུལ་	-10.2792
བྱ་འགུལ་སྤེལ།	-10.2793
ལ་ཞིབ་འཇུག་	-10.2798
▁འབྲས་བུ་	-10.2799
པར་བྱའོ་ཞེས་	-10.2799
ཕུལ་བའི་	-10.2802
▁དེ་ཕྱིར་	-10.2805
▁སེམས་ཅན་ཐམས་ཅད་	-10.2808
བཅིངས་འགྲོལ་དམག་	-10.2812
སྤུས་རྟགས་	-10.2812
▁ལོ་རྒྱུས་	-10.2813
བཀྲ་	-10.2813
འཆང་	-10.2813
གྷ	-10.2816
རྩྭ་ཐང་གི་	-10.2816
▁ད་ལོ་	-10.282
གཞོན་	-10.2827
གཞོན་ནུའི་	-10.2827
བ་སོགས་	-10.283
▁ཁྱོན་ཡོངས་ནས་	-10.2833
ཤན་	-10.2835
འདོགས་	-10.2835
དཀོན་མཆོག་	-10.2838
དཔྱད་རྩོམ་	-10.2839
དུ་འགྲོ་	-10.2842
▁༥	-10.2842
འི་ཙུང་ཐུང་	-10.2842
བཅུ་གཅིག་པའི་	-10.2842
རྒྱལ་ཡོངས་དམངས་	-10.2843
གསལ་བོ་	-10.2844
བྱང་ཆབ་སྲིད་ཅུས་	-10.2847
གཉན་	-10.2848
འཕྲིན་ལས་	-10.285
ཞིག་ཏུ་གྱུར་	-10.285
པར	-10.2851
ཏུ།	-10.2857
རྡོ་རྗེས་	-10.2857
སློབ་མས་	-10.2858
མི་འགྱུར།	-10.286
དམངས་ཆེན་སྐབས་	-10.2863
ཆུ	-10.2867
ཐེངས་གཅིག་	-10.2874
བསྟན་པའོ།	-10.2875
སྔོན་དཔག་	-10.2878
དབྱི་སི་ལན་	-10.2879
▁ཉེ་བའི་ལོ་འགའི་	-10.2885
ཤུགས་ཡོད་རྒུས་	-10.2885
གནད་འཕིགས་	-10.2889
གནས་པར་	-10.2892
▁དོན་ཚན་	-10.2893
འབངས་	-10.2893
མཁས་པའི་	-10.2895
སྟོན་ཏོ།	-10.2896
ཤུགས་ཆེན་པོས་	-10.2896
དོན་ཆེན་	-10.2901
སོ།།	-10.2904
སྒོར་མོ་	-10.2908
ལས་བྱེད་མང་ཚོགས་	-10.2909
མདོ་སྡེ་	-10.2909
ཁྱིམ་མཚེས་	-10.2909
གླེང་སྟེགས་སྐབས་	-10.2911
བཟུང་བ་	-10.2911
གནོན་ཤུགས་	-10.2913
བྱས་ཤིང་	-10.2913
ཀྲེང་	-10.2917
སྦྱིན་སྲེག་	-10.2917
བླ་མའི་	-10.2918
▁དྲི་	-10.2919
བྱུང་ཞིང་།	-10.2921
པུ	-10.2923
གློག་དྲ་	-10.2926
དམིགས་ཡུལ་ནི་	-10.2928
▁ལེའུ་	-10.2928
སྙོམས་	-10.293
ཀུ	-10.293
▁དེ་དག་གི་	-10.2934
ཐག་གཅོད་བྱེད་	-10.2937
གཟབ་ནན་	-10.2939
▁+	-10.294
▁བླ་མ་	-10.2941
ཐུན་མོང་མ་ཡིན་པ	-10.2942
▁ཡུན་ནན་ཞིང་ཆེན་	-10.2946
བསྐྱོད་དེ་	-10.2947
བཀྲམ་	-10.2951
གདོད་མའི་	-10.2951
མི་ནུས་	-10.2953
མདོར་བསྡུས་	-10.2953
ཉེ་བའི་ལོ་ཤས་རིང	-10.2954
ཨུ	-10.2959
ལོངས་སུ་སྤྱོད་	-10.296
ནན་གྱིས་བསྟན།	-10.2961
སྟེགས་	-10.2962
ཁོངས་གཏོགས་ཀྱི་	-10.2964
སྐད་ཅིག་མ་	-10.2964
ཚན་པའི་	-10.2965
ལས་བྱེད་པར་	-10.2966
ལ་སློབ་སྦྱོང་དང་	-10.2967
ལས་འདས་པའི་	-10.297
▁80	-10.2971
བྱས་ཐོག་	-10.2972
ཡོན་ལྷན་ཁང་གིས་	-10.2972
བསྐྱུར་	-10.2974
སེ	-10.2974
དཔེ་སྟོན་ཁུལ་	-10.2977
ཉར་ཚགས་	-10.2977
ཞིག་ཀྱང་	-10.2977
ཐང་ཆེན་	-10.298
གཉིས་པོ་	-10.2985
དགའ་ཞེན་བཞིའི	-10.2987
མའོ།	-10.2988
དང་ཀྲུང་གོ་	-10.2993
དཔེར་ན་	-10.2994
▁དཀར་མཛེས་ཁུལ་	-10.3001
ཉམས་གསོ་	-10.3003
ལྷམ་	-10.3003
ཆེ་ཞིང་	-10.3003
མོས་པ་	-10.3006
ལས་འཛིན་	-10.3007
ར་དྲ་བ།	-10.3007
ག་ལ་	-10.3008
ཉིད་ཀྱང་	-10.3015
50	-10.3016
པུའུ།	-10.3017
ཙམ་ལ་	-10.3022
སྨྲ་བའི་	-10.3022
ཀྵ	-10.3026
སྲང་	-10.3029
བཤད་པ་རེད།	-10.3031
ཨོཾ་	-10.3033
སྐྱེས།	-10.3036
འགྲེལ་པ་	-10.304
དངོས་གཞིའི་	-10.304
བྱ་བ་ནི་	-10.3042
ཤིན་ཧྭ་གསར་འགྱུ	-10.3042
བཞག་པ་	-10.3043
གཅིག་མཐུན་	-10.3046
འཐུས་ཚབ་	-10.3046
མེད་དུ་	-10.3047
ཡོངས་ཁྱབ་	-10.3048
▁ཡིན	-10.3049
མོང་	-10.3049
བི	-10.3052
༣༠	-10.3055
དེ་དག་ཐམས་ཅད་	-10.3059
སྒོ་ཀུན་ནས་	-10.3059
▁མཚོ་	-10.306
བྱེད་པ་པོ་	-10.3062
འཛུམ་	-10.307
ཞུགས།	-10.307
ལྷ་རྣམས་	-10.307
ཞིང་ཕྱུགས་	-10.3071
ཨ་མ་	-10.3073
▁དང་པོ་	-10.3073
ཚོགས་འདུར་	-10.3073
ནང་མི་	-10.3074
གློ་བུར་དུ་	-10.3081
12	-10.3081
ལྷག་བསམ་རྣམ་དག་	-10.3083
པ་ལྟར་ན།	-10.3086
ཕེ་	-10.309
▁ནམ་མཁའ་	-10.3092
བྱར་	-10.3095
བྱ་དགའི་	-10.3101
ཉིང་རྡུལ་	-10.3104
གོ་བ་	-10.311
བྱིན་གྱིས་བརླབ་	-10.3112
ཁས་བླངས་	-10.3113
▁ཉིས་སྟོང་	-10.3113
ཞི་བདེའི་	-10.3117
མི་རུང་	-10.3119
རྩི་	-10.3119
རགས་ཙམ་	-10.312
དམངས་འཚོ་	-10.3124
▁ཡིད་ཀྱི་	-10.3129
འཐུས་མིས་	-10.3139
ཁོར་ཡུག་གི་	-10.3139
འགྲེལ་བཤད་	-10.3142
མཐོ་རུ་གཏོང་	-10.3143
▁ལོ་ནས་བཟུང་	-10.3145
སྐོར་སྐྱོད་	-10.3145
མྱོང་ཚོར་	-10.3147
རྒྱལ་དམངས་	-10.3151
བཞུགས།	-10.3152
▁ཡོན་ཏན་	-10.3155
དོགས་པ་	-10.3156
དུའང་	-10.3158
པའི་ཆོས་	-10.3158
བསྟན་ཡོད།	-10.3165
ལྡབ་	-10.3165
▁ཀྲང་ཀའོ་ལིས་	-10.3173
དོ་ཁུར་	-10.3176
ཞིང་པ་	-10.3176
སྒྲིག་འཛུགས་བྱས་	-10.3178
བཀའ་དྲིན་	-10.3179
ཤེས་ལྡན་པ་	-10.3181
འདྲི་གཅོད་	-10.3184
སྡེ་ཚན་གྱི་	-10.3184
ཐུགས་ཁུར་	-10.3185
གསང་སྔགས་	-10.3186
མཉམ་ལས་ལ་	-10.3189
བྱས་ཏེ	-10.3191
ཤར་ཕྱོགས་	-10.3194
▁དེ་དང་ཆབས་ཅིག་	-10.3195
ད་ལས་དོན་རུ་ཁག་	-10.3196
ཕོ	-10.3197
དྲང་བདེན་	-10.3209
བཙོག་	-10.321
ལུགས་མཐུན་	-10.3211
འཁྲུག་	-10.3213
འཐུང་ཆུའི་	-10.3214
སྟེ	-10.3215
སྔོ་ལྗང་	-10.3217
▁དཀྱིལ་འཁོར་	-10.3218
པ་ཡིན་ཏེ།	-10.3219
ངག་དབང་	-10.3226
ཁས་ལེན་གང་ལེགས་	-10.3226
རྒྱལ་པོས་	-10.3228
བྱང་ཚད་	-10.323
རང་ལྗོངས་ཀྱིས་	-10.3231
དང་གྲོང་གསེབ་	-10.3231
གཞན་ཞིག་	-10.3236
འགྲེམ་	-10.324
བྱང་ཆབ་སྲིད་ཅུ	-10.3242
རླངས་	-10.3242
གཏོང་ཆེད།	-10.3246
བྱེད་ཆེད།	-10.3251
རྣམ་པར་སྨིན་པ་	-10.3251
འཐག་	-10.3254
བླང་བྱ་བཏོན་	-10.3254
ཇི་ཙམ་	-10.3255
▁སྔར་	-10.3255
ཐུམ་འབུའི་ནད་	-10.3255
དྷ་	-10.3259
དམངས་སྤྱི་མཐུན་	-10.326
བདེ་འཇགས་ལ་	-10.326
ཆོས་གོས་	-10.3261
བཞག་པའི་	-10.3263
འབྲིང་རིམ་	-10.3266
ཁེངས་	-10.3273
ཞིབ་འཇུག་དང་	-10.3276
བསྐྲུན་པ།	-10.3283
རེག་པ་	-10.3283
རུ་ཁག་གི་	-10.3285
མྱེད་པ་	-10.3287
ཁ་གསབ་རོགས་དངུལ་	-10.3292
▁དབྱི་རག་	-10.3292
ཞིང་ཆེན་གྱིས་	-10.3298
ཡོལ་	-10.3299
གྱི་ཙུང་ཐུང་	-10.3301
པའམ་ཡང་ན་	-10.3303
མགོ་བོ་	-10.3303
▁མི་དམངས་དྲ་བ།	-10.3305
བརྩིས་	-10.3306
གསལ་པོར་	-10.3313
དམ།	-10.3313
སྲེག་	-10.3317
ཤང་དང་གྲོང་རྡལ་	-10.3319
▁3000	-10.332
ཡིག	-10.3321
འཆར་གཞིའི་	-10.3323
བསྡོམས་	-10.3323
པཎ་ཆེན་སྐུ་ཕྲེང་	-10.3325
ནང་ཞུགས་པའི་	-10.3326
དག་པའི་	-10.3329
ཕྲད་	-10.3331
ཞབས་ཕྱི་	-10.3337
དབེན་	-10.3337
རྒྱའི་	-10.3342
གསུང་བཤད་གནང་།	-10.3346
ལས་གྲུབ་པའི་	-10.3351
ལེགས་པའི་	-10.3354
ཚུལ་བསྟན་པ།	-10.3367
སྣ	-10.337
ཀུན་རྫོབ་	-10.3371
མཐོ་སློབ་	-10.3373
གོམས་	-10.3374
གཏོང་བའི་ཐད་	-10.3379
གནས་མཆོག་	-10.3379
གཞོན་ནུ་ལོ་ཆུང་	-10.338
བྱེད་སྤྱོད་	-10.3386
ཟོག་	-10.3387
ཨའོ་	-10.3389
གྱུར་ཡོད།	-10.3391
ཧྲིན་ཀྲང་གཞོན་པ་	-10.3394
འཕྲལ་སྡོམ་	-10.3395
ཡག་པོ་ཞིག་	-10.3398
▁ཚེ་	-10.3404
བཟོ་གྲྭ་	-10.3406
ཁེ་ལས་དང་	-10.341
ཤུལ་བཞག་རིག་གནས་	-10.3411
བོན་གྱི་	-10.3411
ཅི་ཡང་	-10.3413
ཡིན་པའི་ཕྱིར།	-10.3413
བོད་ལྗོངས་གསར་	-10.3414
སྐལ་བ་	-10.3415
སེང་	-10.3417
ཐེག་	-10.3418
རྟ	-10.3419
གང།	-10.3421
ཁ་ཅིག་	-10.3421
འདུས་ཏེ་རེག་པའི་	-10.3422
.9	-10.3426
ཆ་ནས་	-10.3426
བལྟས་ན་	-10.3426
ཐབ་	-10.3431
མེ་གསོད་	-10.3431
འཕེལ་བར་	-10.3433
ཉམས་འགྱུར་	-10.3435
ཤེད་	-10.3437
▁ལོའི་ཀྲུང་གོའི་	-10.3437
སྡེ་ཚན་ཁག་གིས་	-10.3437
རྒྱུས་མདོར་བསྡུས	-10.3438
གེ་སར་	-10.3443
སྲོལ་ཡིག	-10.3444
ཤེས་ལྡན་པའི་	-10.3445
ཏང་ཡོན་གྱི་	-10.3446
རྒྱ་ཆེ་བའི་	-10.3449
སྤྱི་ཚོགས་ཀྱིས་	-10.345
བ་བཅས་	-10.3451
ཡུལ་ལ་	-10.3452
བྷ	-10.3452
ཧའོ་	-10.3453
གཡོག་	-10.3456
གྲོས་ཚོགས་སྟེང་	-10.3456
▁གྲོང་གསེབ་	-10.346
གཞག་	-10.3464
མི་དམངས་སྨན་ཁང་	-10.3465
བཏང་ཞིང་།	-10.3466
རླངས་འཁོར་གྱི་	-10.3467
འཕེལ་རྒྱས།	-10.3468
མཆེད་	-10.347
ཞུ	-10.3475
གཏན་འགོག་	-10.3476
ལ་སྐུལ་འདེད་བཏང་	-10.3478
ལ་འདི་སྐད་ཅེས་	-10.3479
▁ཏིང་ངེ་འཛིན་	-10.3484
ཁོང་དུ་ཆུད་པར་	-10.3485
འབྲོག་པའི་	-10.3488
ཉིན་མོའི་	-10.349
གཙོ་གནད་ཐོག་	-10.3491
བཟོ་རྩལ་	-10.3495
བྱེད་པ་བཅས་ཀྱི་	-10.3496
ལས་དོན་ཐད་	-10.3497
▁གཅིག་ནས་	-10.3502
ཁྱབ་པར་	-10.3505
མི་ཐེངས་ཁྲི་	-10.3506
གྱི།	-10.3506
དགོས་པ་དང་	-10.3508
སྔ	-10.351
བྱུང་བར།	-10.3515
ལའེ་	-10.3517
དགེ་སློང་མ་	-10.3519
ལེན་པ་	-10.352
ལྷ་མོའི་	-10.3521
འབད་འབུངས་	-10.3523
རྣམ་པར་དག་པའི་	-10.3524
འགན་འཁུར་བ་	-10.3524
རྫོང་དུ་	-10.3525
མེད་ཀྱང་	-10.3525
དགོས	-10.3526
བརྟུལ་ཞུགས་	-10.3526
ཁྱད་པར་དུ་	-10.3526
དེང་རབས་ཀྱི་	-10.3527
རིགས་ལ་	-10.3528
འགྲེམས་ཚོགས་	-10.3528
མཆོད་པའི་	-10.3529
རིམ་སྤོར་	-10.353
སྡོད་དམངས་ཀྱི་	-10.3532
▁རྣལ་འབྱོར་	-10.3533
རིགས	-10.3536
བྱས་རྗེས།	-10.3536
སྒུལ་	-10.3536
མངོན་པ་	-10.3537
རྒྱལ་ཁབ་དང་	-10.3538
ཉིད་ལ་	-10.3541
ལོག་པར་	-10.3542
ནི་མི་	-10.3543
རྨང་གཞི་བརྟན་པོ་	-10.3546
དཔེ་མཛོད་ཁང་	-10.355
དོ་དམ།	-10.3555
སྐུལ་འདེད་བཏང་བ།	-10.3556
ཡོད་ཅེས་གསུངས་	-10.3556
དབྱི་སི་ལན་རྒྱ	-10.3557
སློབ་གྲྭ་ཆེན་མོ	-10.356
མ་འོངས་	-10.356
ལ་ཁབ་ཅེས་པའི་ཐལ་	-10.3561
ཟོས་	-10.3561
བན་	-10.3561
གཅོད་པ་	-10.3561
འདབ་མ་	-10.3562
གནད་འགག་	-10.3565
▁ཡི་གེ་	-10.3567
ཤེས་པས་	-10.357
འཁྲུལ་པ་	-10.3571
▁འདོད་ཆགས་	-10.3577
རླུང་གི་	-10.358
མགྲོན་	-10.3581
ཏང་སྲིད་	-10.3582
མང་ཚོགས་དང་	-10.3582
ཆུད་	-10.3584
གནས་སོ།	-10.3584
སུ་ཞིག་གིས་ཀྱང་	-10.3584
བྱས་ཐོག	-10.3585
སང་	-10.3589
མི་རྟག་པ་	-10.3589
ལག་ལེན་བྱེད་སྒོ་	-10.3592
འོས་སྦྱོར།	-10.3594
སུན་	-10.3596
རྒན་གསོའི་	-10.3596
པར་གྱུར་ཏོ།	-10.3596
ཅི་ཞི་ཅིན་ཕེན་	-10.3597
རེད་	-10.3598
ཕྱོགས་མང་	-10.3601
.7	-10.3602
པ་ཡང་	-10.3605
དང་མཐུན་	-10.3605
ཀྲུའུ་ཞི་གཞོན་པ།	-10.3606
དཀར་པོའི་	-10.3606
དགེ་སློབ་	-10.3608
ཁྱོན་ཡོངས་ཀྱི་	-10.3611
ཡིན་གྱི་	-10.3612
བློན་	-10.3612
གནས་སྤོར་	-10.3612
22	-10.3613
ལྗང་	-10.3613
▁བསམ་གཏན་	-10.3614
འདི་ལྟ་བུ་	-10.3617
དགེ་བའི་	-10.3619
ཆེས་མཐོའི་	-10.3619
སྤྲོ་སེམས་འཁོལ་བ	-10.362
འཇར་མན་	-10.3621
པ་སྟེ་	-10.3621
ལེན།	-10.3624
ཡོད་ཅེས་བཤད།	-10.3625
བྱ་རྒྱུ་ཡིན་ཞེས་	-10.3626
བྱས་ཀྱང་	-10.363
སྤོང་བ་	-10.3631
འཁྱགས་	-10.3631
ལ་སོགས་པར་	-10.3631
མིན་པ་	-10.3633
བྱུང་བས་	-10.3636
ཤེས་རྟོགས་བྱུང་	-10.3637
▁ཁྱེད་	-10.3638
▁འཇམ་དཔལ་	-10.3642
པར་བྱེད་པའི་	-10.3643
ཨ་ཧྥེ་རི་ཁ་གླིང་	-10.3644
འཆི་བ་	-10.3646
ཕྱོགས་སྡོམ་	-10.3647
ཉམས་ལེན་	-10.3647
དང་བཅས་	-10.3651
རྡོ་རྗེ་འཆང་	-10.3651
ཁྲིམས་ཁང་གིས་	-10.3652
མགོ་ཁྲིད་པའི་	-10.3652
སྨྱན་བྱད་	-10.3656
ཐུའུ་	-10.3657
ཕྱོགས་གཉིས་	-10.3665
རེ་རེའི་	-10.3667
ཀྱི་ཡོད།	-10.3669
བྱུང་བ་དང་	-10.3678
ཨ་མེ་རི་ཁས་	-10.3678
པའི་གནད་དོན་	-10.3679
གྱི་ཡོད།	-10.3679
སྒྲས་	-10.3681
བཞིས་	-10.3687
ནུ་	-10.3687
ཇི་	-10.3688
▁སློབ་གསོ་	-10.3689
བརྩེགས་	-10.3691
བྱེད་རིང་	-10.3694
ཁོ་ནས་	-10.3695
ཟ་ཁང་	-10.3696
ལོན་པའི་	-10.3697
ཕྱོགས་ཁག་གི་	-10.3697
བཅུ	-10.3699
ཡོད་པ་དེ་	-10.3702
▁འགྲོ་བ་	-10.3706
དཀོན་	-10.3706
▁ཨ་ཧྥུའུ་ཧན་	-10.3706
མང་ཙམ་	-10.3706
མི་རྟག་	-10.3709
ལེགས་གྲུབ་བྱུང་	-10.371
ནོར་བུའི་	-10.3712
གནའ་	-10.3712
མེད་པས།	-10.3715
ངར་	-10.3717
ཐང་ག་	-10.3718
དབྱི་སི་རལ་གྱི་	-10.3718
དཀར་མཛེས་ཁུལ་	-10.3719
མཚེའུ་	-10.3727
མ་གྲུབ་	-10.3732
ཙམ་ལས་	-10.3736
ཡིན་ནམ།	-10.3739
ཅོག་	-10.375
.6	-10.3753
ལུ	-10.3754
ཞིག་ཡིན་པ་	-10.3756
སྡོད་དམངས་	-10.3757
ཡག་པོ་སྒྲུབ་	-10.3761
སོག་	-10.3765
མངལ་	-10.3769
ཡར་ཐོན་	-10.3771
མཇུག་འགྲིལ་	-10.3772
འཐབ་ཇུས་ལག་བསྟར་	-10.3772
▁ལོ་ངོ་	-10.3772
རྒྱུན་འཛིན་དང་	-10.3773
ཕྱི་རྒྱལ་	-10.3774
ནས་ཚུལ་སྤེལ་གསལ།	-10.3778
ནས་བཟུང་།	-10.378
འདི་ལོ་	-10.3781
རིགས་པའི་གཞུང་ལུ	-10.3781
ཕྱུག་འགྱུར་གྱི་	-10.3781
ར་སྤྲོད་	-10.3783
དགུའི་	-10.3784
▁ཞེས་པ་ནི་	-10.3784
དགོས་པར་མ་ཟད།	-10.3785
རོ	-10.3785
བདག་ཅག་	-10.3785
ལྡང་	-10.3789
སྤྲས་	-10.3791
ས་གཤིས་	-10.3795
▁དགེ་སློང་དག་	-10.3798
མི་སྲིད་	-10.3799
སྲ་	-10.3803
▁ཚགས་པར།	-10.3803
ནུ	-10.3804
ཞེས་བྱ་སྟེ།	-10.3805
▁ཟིན་པ་དེ་	-10.3807
དེའང་	-10.3807
ཆའི་	-10.3807
▁700	-10.3808
གྲོས་ཚོགས་ལ་	-10.3809
མགྱོགས་མྱུར་ངང་	-10.3813
ངོ་བོར་	-10.3814
རིག་རྩལ་འཁྲབ་སྟོ	-10.3826
པའི་ནང་	-10.3827
འཚལ་	-10.3827
སྣ་ཚོགས་ཀྱི་	-10.3829
གནང་བར་	-10.383
རྟག་པར་	-10.3831
དོ	-10.3833
ཧོ	-10.3833
བྱ་རྒྱུ་ནི་	-10.3834
ཀྱི་རྒྱུན་ཨུ་	-10.3839
མཐོ་བ་	-10.384
ལས་སྐྲུན་	-10.3841
མིར་	-10.3842
སྤྲོད་པའི་	-10.3846
▁ལ་སླེབས་པའི་	-10.3848
འདི་ལས་	-10.3848
ཕྲན་	-10.3852
ཡོང་འབབ་སྒོར་ཁྲི	-10.3853
ཞུས།	-10.3853
བསམ་ཚུལ་	-10.3855
ཆེད་དམིགས་	-10.3856
འདུ་ཤེས་དང་	-10.3859
ཝུའུ་ཁི་ལན་གྱི་	-10.3859
མཁན་གྱིས་	-10.3859
མགོན་པོ་	-10.3864
▁ནད་	-10.3865
གཟུགས་སུ་	-10.3866
རྒྱལ་ཡོངས་སུ་	-10.3867
བུད་མེད་མཉམ་འབྲེ	-10.3867
▁གཙོ་གནད་	-10.3867
འདི་ཡང་	-10.3871
ནའོ།	-10.3875
ཐོད་	-10.3876
ཐོན་པ་	-10.3878
པར་ལེན་	-10.3878
▁ལི་	-10.3879
འཇམ་དཔལ་	-10.3885
གཤིས་	-10.3889
ཐོར་	-10.3891
ཏྲ	-10.3893
སྨྲས་སོ།	-10.3896
ལས་སྒོའི་	-10.3899
རིང་དུ་	-10.3903
བར་བྱེད་པ་	-10.3906
▁ཨ་མེ་རི་ཁས་	-10.3909
ཤེ་ན།	-10.3909
དམིགས་པའི་	-10.3911
དབུ་མ་	-10.3913
གླུ་གཞས་	-10.3915
རྐུ་	-10.3915
ཆན་	-10.3916
གོང་འཕེལ་གཏོང་	-10.3916
རེ་འདུན་	-10.3918
ཝང་གོ་ཧྲིན་གྱིས་	-10.3919
སྤྱད་པ་	-10.392
ཞིག་ཡིན་ཞིང་།	-10.3923
འགྲན་སློང་	-10.3924
དངོས་པོར་	-10.3926
རྩོམ་ཡིག	-10.3927
མྱ་ངན་	-10.3932
09	-10.3932
འབར་བ་	-10.3933
▁ཁྲིམས་སྐྱོང་	-10.3936
གྲོས་ཚོགས་ལ་ཞུགས	-10.3938
སྐྱོ	-10.3938
དུ་བཅུག་	-10.3939
གསལ་སྒྲོག་སྤེལ་	-10.3943
འདོད་པས་	-10.3949
ཚན་རིག་ཞིབ་འཇུག་	-10.3953
རེ་སྒུག་	-10.3954
▁ཅེས་བཤད།	-10.3955
བཙུགས་པ་དང་།	-10.3957
དབྱི་རག་	-10.3957
གཞི་རྩའི་ཆ་ནས་	-10.3958
དགེ་བའི་བཤེས་གཉེ	-10.3959
འཐུས་	-10.3962
ལས་བརྒལ་	-10.3963
ཀྲུའུ་རེན་གཞོན་པ	-10.3964
རྒྱུགས་ལེན་	-10.3965
འི་གྲོས་གཞི་བཏོན	-10.397
པར་གྱུར།	-10.3974
ཁྲོམ་གཞུང་	-10.3974
སྔོན་ཆད་	-10.3976
མཛེས་པ་	-10.3979
འཇུ་	-10.3982
ཏའོ་	-10.3984
ལྟ་བར་	-10.3986
མཚོན་པར་	-10.3988
གྱུར་ཅིག།	-10.3992
བཞུར་	-10.3993
འཕྲོད་བསྟེན།	-10.3994
པའི་ཚོགས་འདུ་	-10.3995
དབུལ་ཐར་མཁྲེགས་	-10.3995
བརྒྱ་ཕྲག་	-10.3996
རྒྱུ་བ་	-10.4004
མི་སྣ	-10.4005
མང་བ་	-10.4011
▁འཛམ་གླིང་གི་	-10.4012
རིགས་གཅིག་མཁས་	-10.4014
བརྟན་པ་	-10.4016
▁ཚིག་	-10.4018
17	-10.4022
དང་ལྡན་པར་	-10.4025
ཐེབས་རྩ་	-10.4026
འདི།	-10.4028
རྩིས་ལེན་	-10.4029
ཀན་	-10.4032
ཧ་ཅང་ཆེན་པོ་	-10.4033
བཞིན་པ་	-10.4033
རྫོང་ཡོངས་ཀྱི་	-10.4034
མཁན།	-10.4035
ལོ་སར་	-10.4041
དེང་རབས་ཅན་	-10.4042
གསུང་རབ་	-10.4045
བརྗོད་པར་བྱའོ།	-10.4046
ཞིག་ཡིན་པས་	-10.4047
སྙམ།	-10.405
བྱས་མི་ཆོག་པ་	-10.4051
གནོད་སེལ་	-10.4051
ཞེ་སྡང་	-10.4051
ཞལ་པར་ཨང་གྲངས	-10.4052
བྱེད་བཞིན་	-10.4054
འཚོགས་པའི་	-10.4055
གནས་བརྟན་	-10.4055
དྲི་བ་	-10.4057
ཏིང་	-10.4058
སྤུས་ཚད་མཐོ་བའི་	-10.4059
13	-10.406
དག་ལས་	-10.406
གྲོང་ཁྱེར	-10.4064
གསར་བར་	-10.4066
ཚན་ཞིབ་	-10.4066
ཁམས་ཀྱི་	-10.4067
ཕྱིན་ནས་	-10.4068
མཐུན་སྒྲིལ་གྱི་	-10.4069
འཕྲལ་དུ་	-10.4069
བཟླས་པ་	-10.4076
མཉམ་པར་	-10.4077
གྱོན་ཆས་	-10.4082
གསར་གཏོད་དང་	-10.4082
འགྱུར་བར་	-10.4082
འཇར་པན་	-10.4084
▁བུ་	-10.4084
རྒྱལ་ཚོགས་ཀྱི་	-10.4088
འདེམས་བསྐོ་	-10.4091
བླངས་པའི་	-10.4092
མིག་དཔེ་	-10.4095
གཞུག་	-10.4095
བྱེད་རྒྱུ་ཡིན་	-10.4097
འཚམས་	-10.4098
བསྒྱུར་བཀོད་	-10.4098
དེ༷་	-10.41
དངོས་མང་སྟོན་	-10.41
བཞི་དང་	-10.4102
80	-10.4103
▁ལོ	-10.4104
བྱེད་སྐབས།	-10.4105
དྲ་ཐོག་	-10.4107
འདིང་	-10.4109
ཏོག་	-10.411
པ་ལས།	-10.4112
▁ཞེས་བྱ་བ་ནི་	-10.4114
▁གསར་གཏོད་	-10.4114
དྲངས་	-10.4118
བདེ་སྐྱིད་ལྡན་པ	-10.4119
གསོལ་བ་	-10.4119
▁རྒྱ་གར་	-10.412
ཐོབ་པ།	-10.4121
ཅིའི་	-10.4121
སྤྱི་དམངས་	-10.4123
རེ་རེར་	-10.4124
▁བྱིས་པ་	-10.4126
ཁོ	-10.4126
ྟ	-10.4126
ཁར།	-10.4127
▁བཅའ་ཁྲིམས་	-10.4128
ཉེས་གསོག་	-10.4129
བསྲེགས་	-10.4133
པུའུ་ཡི་	-10.4133
བཟང་པོའི་	-10.4133
སྤྱི་འདོམས་	-10.4134
དྭངས་	-10.4134
རང་ངོས་	-10.4135
སྤྱིར་ན་	-10.4135
རྙིང་པ་	-10.4136
སྤུན་	-10.4139
ཙུང་ཐུང་གིས་	-10.4139
དེ་ལས་མང་།	-10.414
ནས་ལོ་	-10.414
ལས་བཟོ་	-10.4141
འུ	-10.4142
ཞལ་འདེབས་	-10.4143
ཕྱི་ནང་	-10.4145
ན་ལྷན་ཚོགས་ཀྱིས་	-10.415
བྱོན་	-10.4152
རྒྱུ་ཡིན།	-10.4154
དཔག་ཚད་	-10.4155
དེ་དག་ཀྱང་	-10.4155
ཤར་ཕྱོགས་ས་ཁུལ་	-10.4155
དོ་དམ་གྱི་	-10.4157
མཛད་པ།	-10.4158
རབ་དང་རིམ་པའི་	-10.4158
རྒྱལ་ཁ་	-10.4161
བཤེར་འཚོལ།	-10.4164
▁ཆོས་ཐམས་ཅད་	-10.4166
ཡོངས་རྫོགས་	-10.4167
ཅི་ལྟར་	-10.4168
བསམ་གཞིག་	-10.4168
རན་	-10.4171
སྐུད་	-10.4171
དག	-10.4173
ཕམ་	-10.4177
བརྩི་སྲུང་	-10.4177
ཅུས་ཀྱི་	-10.4178
▁གང་དག་	-10.4178
གཏོར་མ་	-10.4183
ཞྭ་	-10.4184
པས	-10.4185
▁དབང་	-10.4186
ཁོང་ཚོར་	-10.4187
རྡོག་	-10.4188
སྒྲུབ་པར་	-10.4191
དགོས་པའི་བླང་བྱ་	-10.4191
ཕུད།	-10.4192
རིག་གནས།	-10.4192
▁ལས་ཞུགས་	-10.4193
མུ	-10.4197
ཚན་པས་	-10.4199
ཞོལ་	-10.4201
པའི་མཛད་སྒོ་	-10.4204
▁ཡིན་	-10.4205
རྒྱུད་དུ་	-10.4207
འབྱུང་ངོ།	-10.421
འགྲོས་	-10.4211
མཛེས་པའི་	-10.4212
མཚོ་བོད་ལྕགས་ལམ་	-10.4212
སྤྲོས་པ་	-10.4222
མཱ	-10.4223
གཏུགས་	-10.4223
འགྲུལ་པ་	-10.4223
ལེགས་སྒྱུར་	-10.4225
▁དབུལ་སྒྲོལ་	-10.4227
ལན་གསུམ་	-10.4229
▁རྣམ་པ་	-10.4232
ལྡན་པ།	-10.4233
རྣམ་རྒྱལ་	-10.4233
གྲོང་ཚོ།	-10.4235
རྒྱུགས་སྤྲོད་	-10.4235
བཟུང་བའི་	-10.4238
ལྷག་པའི་	-10.4238
འདུ་བྱེད་	-10.4239
བྱས་ཡོད་པ་དང་།	-10.4239
ཐུ་	-10.424
▁རྨ་ཆེན་རྫོང་གི་	-10.424
བཙུན་	-10.4244
སྤྱོད་ལམ་	-10.4244
▁”“	-10.4248
རྟེན་འབྲེལ་ཞུ་བ	-10.4251
མཚོ་ལྷོ་བོད་རིག	-10.4253
སྟོན།	-10.4254
16	-10.4254
འཚམས་འདྲི་མཛད་	-10.4254
མཉམ་ལས་རྩ་འཛུགས་	-10.4258
གེགས་སེལ་	-10.426
དཔེ་བཟང་	-10.4264
ལ་འཚམས་འདྲི་	-10.4267
ལ་མཚོན་ན་	-10.4267
གྱང་	-10.4267
15	-10.4269
བྱ་སྤྱོད་སྤེལ་	-10.4272
ཨཱ་	-10.4273
པའེ་	-10.4274
པའི་ཡེ་ཤེས་	-10.4274
བྱེད	-10.4275
རྒྱས་པའི་	-10.4276
ས་པ་	-10.4276
མཐའ་སྲུང་	-10.4276
མེ་ཟོན་	-10.4277
ཝན་	-10.4278
▁ཅེས་པ་	-10.428
ནོར་སྲིད་ཀྱི་	-10.4281
ཆེས་ཆེར་	-10.4283
གྲབས་	-10.4283
ཡུལ་ལྗོངས་	-10.4283
འཇམ་དབྱངས་	-10.4284
ཏང་ཙུའུ་ཡི་	-10.4288
ཚིགས་བཅད་	-10.4291
བ་ལ་	-10.4292
སྐྱ	-10.4296
རྒྱལ་ཡོངས་འཐུས་	-10.4297
ྨ	-10.4298
རྒས་	-10.43
མགྱོགས་པོ་	-10.4301
ཕོར་	-10.4302
དམངས་ཡོངས་	-10.4304
གསོས་	-10.4305
ཡན་ཆད་	-10.4309
དུ་གྱུར་པ་	-10.4312
དགོངས་འཇགས་ཞུའོ།	-10.4315
▁གང་གི་ཚེ་	-10.432
ལ་བརྟེན་ནས།	-10.4321
རྟེན་འབྲེལ་ཞུས་	-10.4322
ཕྱོགས་གཉིས་པོའི་	-10.4324
ཏང་ཙུའུ་	-10.4328
རི་དྭགས་	-10.433
ཐད་གཏོགས་	-10.4336
མི་སྣ་དང་	-10.4336
ཡན་གྱི་	-10.4338
སྤྲོ་སྣང་	-10.4338
ཉོན་མོངས་པའི་	-10.4342
སྐུ	-10.4346
▁ཡོད	-10.4349
དྷ	-10.435
འདྲེ་	-10.4351
རྒྱལ།	-10.4352
གནས་ཚུལ་དང་	-10.4354
མཉམ་པ་	-10.4354
འགྲོ་བཞིན་པའི་	-10.4354
སྐྲག་	-10.4355
དང་རྩོམ་རིག་ཆེད་	-10.4359
ཀྱི་འབྲེལ་ཡོད་	-10.436
ཡོད་མོད།	-10.4361
རང་ལ་	-10.4364
གཉི་ག་	-10.4365
འགོག་པའི་	-10.4365
སྔ་མོ་ནས་	-10.4366
ཐོན་རྫས་ཀྱི་	-10.4366
ལས་ཀྱི་རབ་འབྱམས་	-10.4367
གྱ་	-10.4371
ཙི	-10.4372
ཕྱོགས་བསྒྲིགས	-10.4372
གྲོང་སྡེ་	-10.4376
བསྲེས་	-10.438
འདུ་ཚོགས་	-10.4381
དམིགས་ནས་	-10.4383
སྤྱི་ཚེས་	-10.4385
མགྲིན་ཚབ་པ་	-10.4387
ཕུ	-10.439
▁དབུལ་སྐྱོར་	-10.439
འགྲིག་	-10.439
སྲུང་སྐྱོང་ཁུལ་	-10.4391
ལོ་ཙཱ་བ་	-10.4394
བརྡ་ཁྱབ་	-10.4401
མི་དམངས་ཀུན་ཁྱབ་	-10.4402
ཁ་ཟས་	-10.4403
སྲུང་སྐྱོབ་ཀྱི་	-10.4405
▁དབང་པོ་	-10.441
གནད་དོན་ཐད་	-10.4411
སྲིད་གཞུང་།	-10.4416
བྱེད་ཐུབ་	-10.4416
སེམས་ཁུར་	-10.4418
འཚམས་འདྲིའི་	-10.4419
མིན་པར་	-10.4421
ལེགས་གྲུབ་	-10.4421
ངོ	-10.4421
ཡིག་ཆ་ཨང་དང་པོ།	-10.4422
འཁྱག་	-10.4423
▁དབུ་ཤོག	-10.4425
དོ་ཞེས་	-10.4426
རིག་འཛིན་	-10.4428
པ་གསུངས་ཏེ།	-10.4428
མ་འོངས་པའི་	-10.4429
བྱ་དགོས་	-10.4429
ལ་ཝང་གོ་ཧྲིན་དང་	-10.443
བླ་མེད་	-10.4432
འགྲམ་དུ་	-10.4432
དམངས་ཡོངས་ཀྱི་	-10.4433
བར་བྱེད།	-10.4439
ལུགས་ཀྱི་	-10.4439
འཁེལ་	-10.4439
སྦྱིན་བདག་	-10.444
ཁོང་ལ་	-10.444
བཅས་ཡིན་པའི་	-10.444
འི་ལྟེ་གནས་བ	-10.4447
བཟོའི་	-10.4448
སྤུན་ཟླ་	-10.4448
འདི་འདྲ་	-10.4448
བར་མ་ཟད།	-10.4451
ཡིན་ནོ།།	-10.4452
བདེན་དཔང་	-10.4453
བཀོད་སྒྲིག་དང་	-10.4454
མཐོ་ཤོས་	-10.4454
བཅུ་ལོན་པའི་དྲན་	-10.4457
གསོའི་རིག་གཞུང་	-10.4458
བཅོ་བརྒྱད་པའི་	-10.4458
གཤམ་	-10.4459
རྒྱུད་ལ་	-10.4464
འཚོ་བ་སྐྱེལ་	-10.4467
བསྒྲུབ་པར་བྱ་བ་	-10.4467
ལ་ངོས་འཛིན་	-10.4471
▁ཟིན་པ་དང་།	-10.4473
སྙན་སྒྲོན་	-10.4478
དབྱིན་ཇིའི་	-10.4479
མྱོང་བའི་	-10.4481
▁3.	-10.4482
▁ཕ་	-10.4482
གནོད་འཚེའི་	-10.4483
དོགས་ཟོན་	-10.4485
ཤིང་གི་	-10.4487
▁མིང་	-10.4489
ལོ་ཏོག་	-10.4491
དང་མཚོ་སྔོན་	-10.4492
གནམ་ཐང་	-10.4496
རྒྱལ་བའི་	-10.4496
རྒྱག་པ།	-10.4499
མཆན་བཀོད་མཛད	-10.45
ཚོགས་འདུར་ཕེབས་	-10.45
པ་ལྟར་	-10.4501
ཡུན་ནན་ཞིང་ཆེན་	-10.4502
སྙིང་གར་	-10.4505
གཟུགས་ཅན་	-10.4507
མཆོག་གིས་	-10.4507
ཀྱིན་	-10.4508
ཕྲག་	-10.4509
ཀརྨ་	-10.4511
བོད་ཡིག་གི་	-10.4512
ལ་ངོ་རྒོལ་བྱེད་པ	-10.4512
▁ནོར་	-10.4512
ཆབ་མདོ་གྲོང་ཁྱེར	-10.4518
ཉིན་རེ་བཞིན་	-10.4519
ཐེར་འདོན་	-10.452
ཅུས་ཀྱི་ཅུས་ཀྲང་	-10.4525
ཎ་	-10.4525
འཚོ་གནས་	-10.4529
བཏོན་པ་རེད།	-10.4534
འཛིན་གྲྭའི་	-10.4536
ཞུ་གཏུག་	-10.4536
ཨུ་ལྷན་གྱིས་	-10.4536
མི་ཚེའི་	-10.4537
པའི་གཞུང་ལུགས་	-10.454
བཞི་པོ་	-10.454
དམ་པའི་	-10.454
ཡིས	-10.4542
▁གང་ལ་	-10.4543
ཚོགས་འདུ་བསྡུས་	-10.4544
རིག་ནུས་	-10.4544
རི་ཉིལ་བའི་གནོད་	-10.4545
ཐེངས་དང་པོའི་	-10.4545
ཁུལ་ཡོངས་ཀྱི་	-10.4547
ནན་ཏན་གྱིས་	-10.455
བགོ་	-10.4551
▁ཁོང་གི་	-10.4553
14	-10.4556
དེར།	-10.456
▁སློབ་གྲྭ་	-10.4562
མཐའི་	-10.4565
གསར་པ།	-10.4565
མི་གྲངས	-10.4565
ཚོགས་སྒྲིག་རྣམ་པ	-10.4567
གཡག་	-10.4567
ཕྱོགས་དང་མཉམ་དུ་	-10.4567
སྒྲོམ་	-10.4568
ཟངས་	-10.4571
བོད་རིག་པའི་	-10.4572
དྲག་ཆས་ཉེས་ཅན་	-10.4575
བརྩེ་	-10.4576
ལེ	-10.4577
དཔུང་སྡེའི་	-10.4577
▁ཀླུ་	-10.4577
དགོས་པའི་ནན་བཤད་	-10.4577
འབྲི་གཡག་	-10.4579
མ༷་	-10.458
དྲིན་	-10.4582
བརྙན་འཕྲིན་སྤྱི་	-10.4584
དུད་ཚང་དབུལ་པོ་	-10.4585
ཕྱི་རོལ་དུ་	-10.4589
དགེ་སློང་གི་	-10.4589
(	-10.4589
▁བདེ་འཇགས་	-10.4591
ཡང་དག་པ་	-10.4591
སྤྱི་ཟླ་	-10.4592
བདག་ཏུ་	-10.4596
བྲིས་པ་	-10.4598
ཚགས་	-10.4599
སྲ་བརྟན་	-10.4602
མི་རུང་།	-10.4605
▁ཕྱག་	-10.4607
▁ཨ་རིའི་	-10.461
སོང་བའི་	-10.4612
སྐྱིད་གྲོང་	-10.4616
ལེན་པའི་	-10.4617
དཔོན་པོ་	-10.4619
སྒོའི་	-10.4621
སྦྱིན་པའི་	-10.4622
ཞོན་	-10.4623
ཿ།	-10.4627
▁གཅིག་ནི་	-10.4629
འདི་རྣམས་	-10.463
རྫུན་	-10.463
བསྒྲགས་པ་ལྟར་ན།	-10.463
.3	-10.4631
ལ་གནས་	-10.4633
▁•	-10.4633
སྒ	-10.4636
ལེགས་པ་	-10.4636
འཕྲོད་	-10.4637
ླ	-10.4637
ཕྱིར་ཚོང་	-10.464
བསྟོད་པ་	-10.4642
རྒྱུན་གཏན་	-10.4643
ཁེ་ལས	-10.4646
ཪ	-10.4647
རང་སྐྱོང་	-10.4648
▁ལོར་བོད་ལྗོངས་	-10.4651
དགེ་འདུན་གྱི་	-10.4655
མི་སེམས་	-10.4657
གསོག་འཇོག་	-10.4659
རྡོ་རིང་	-10.4659
ནང་ན་	-10.4666
འཕེལ་ཕྱོགས་	-10.4672
▁ཚུལ་ཁྲིམས་	-10.4673
སྐད་གཉིས་	-10.4674
རྩ་འཛུགས་དང་	-10.4674
རི་འཛེག་	-10.4675
དམན་	-10.4677
འཕྲོས་	-10.468
འགྲོ	-10.4684
ལོགས་སུ་	-10.4689
ཕྱོགས་ཁག་	-10.4695
རྒོལ་	-10.4698
ཕིན་	-10.47
སེམས་བསྐྱེད་	-10.47
རྡོ་རྗེ་སེམས་དཔའ	-10.4701
▁སྒྱུར་བཅོས་	-10.4702
བཙན་པོ་	-10.4703
▁ཨེ་	-10.4705
མཉམ་ལས་ཁང་གི་	-10.471
ཉིན་ལྟར་	-10.471
སྤྱི་བསྒྲགས་	-10.4712
ཐོག་མའི་བསམ་འདུ	-10.4713
གོམས་གཤིས་	-10.4714
དུམ་བུ་	-10.4715
ནང་ཁུལ་གྱི་	-10.4717
ཏང་གི་མང་ཚོགས་ལ	-10.4718
འོ་ཞེས་	-10.4718
འཕེལ་རྒྱས་ཐད་	-10.4719
བགྱིད་	-10.4721
སློབ་ཁྲིད་ཀྱི་	-10.4722
གལ་ཆེན་ཞིག་	-10.4723
▁གསར་འགོད་པར་	-10.4724
ཧ་ལམ་	-10.4725
བཞག	-10.4725
བརྒྱད་ཅུ་	-10.4726
▁ཞི་ཅིན་ཕེན་	-10.4727
ཤི	-10.4728
ཤེས་རབ་ཀྱི་ཕ་	-10.4729
ཟླ་བཅུ་གཉིས་པའི་	-10.4732
གཙང་མ་	-10.4734
སྡེ་ཚོགས་	-10.4734
ཡོད་པ་རེད།།	-10.4735
འདོར་	-10.4736
▁ཁྲའོ་ཞན་	-10.4736
ཤག་	-10.4736
▁བྱང་ཆུབ་ཀྱི་	-10.4737
མ་ཧཱ་	-10.4737
འཐབ་ཕྱོགས་གཅིག་	-10.4738
▁བོད་སྐད་	-10.4742
སྡུག་བསྔལ་གྱི་	-10.4742
དཔལ་འབྱོར་དང་	-10.4745
ནད་རིགས་	-10.4746
བྱེད་ཅིང་།	-10.4746
བརྒྱ་ཆ	-10.4748
དབྱེར་མེད་	-10.4748
དང་པོ་བསྡུས།	-10.4748
སྨུག་	-10.4749
ཚ་བ་	-10.4754
པའི་དོན་རྐྱེན་	-10.4755
དེས།	-10.4756
འཇགས་	-10.4758
བྱས་སོ།	-10.4759
ལྟེ་གནས་ཀྱིས་	-10.4762
ཤུགས་ཆེ་	-10.4762
ཞི་བར་	-10.4763
མུན་པ་	-10.4768
གཉིས་པའི	-10.4772
དགོན་སྡེ་	-10.4776
རྫུ་འཕྲུལ་	-10.478
ཚོགས་པ།	-10.4781
དེའི་ཐད་	-10.4781
མེར་	-10.4782
འབྱིན་	-10.4783
ལོ་གསུམ་	-10.4783
པུའུ་དང་	-10.4784
▁ལོ་བར་	-10.4784
དཔང་ཡིག་	-10.4784
ཡིད་ལ་བྱེད་པ་	-10.4785
ཀྱ	-10.4787
གྲུབ་འབྲས་ལ་	-10.479
ལྟོ་	-10.4792
9.	-10.4794
ཡིད་ཀྱིས་	-10.4797
བརྟན་བརླིང་	-10.4797
བྱེད་ཅིང་	-10.4798
སྨྱུག་	-10.4798
མཐོང་ངོ།	-10.4801
གཏོང་དགོས་པའི་	-10.4806
ཉིན་རེར་	-10.4807
▁ལ་སླེབས་	-10.4807
ལྷན་	-10.4808
དུ་སྡོད་པའི་	-10.4811
གྲུ་བཞི་	-10.4812
▁སྤྱི་ཚོགས།	-10.4813
ལ་དམིགས་པ་	-10.4819
ཐེབས་པའི་	-10.482
ཏིང་འཛིན་	-10.4822
མི་ཉུང་བ་ཞིག་	-10.4824
རིགས་པའི་	-10.4829
རང་གི་ངོ་བོ་	-10.4829
ཁྲི་ཚོ	-10.483
གཡུང་དྲུང་	-10.483
ཡར་ཞུ་	-10.483
ཁོ་ཚོའི་	-10.4832
འཛམ་གླིང་ཡོངས་	-10.4837
ཚོགས་གཙོ་	-10.4837
ཁྱབ་ལས་ཁུངས།	-10.484
བཏགས་པ་	-10.484
དབྱེ་འབྱེད་	-10.484
འཕྲལ་མར་	-10.4843
མཐར་ཐུག་	-10.4844
འབོད་སྐུལ་	-10.4846
ཡང་།	-10.4847
▁གྲོང་	-10.4848
གདགས་	-10.4848
མཉན་	-10.4849
རོལ་རྩེད་	-10.4849
དྲིལ་	-10.4851
མཐོ་རིམ་སློབ་གྲྭ	-10.4852
སེམས་སུ་	-10.4853
ཧུ་	-10.4853
མཐོང་ཆེན་	-10.4854
མེ་ཏོག་གི་	-10.486
▁དཔེ་	-10.4862
རྫོགས་པ་	-10.4866
སྒྲུབ་བྱེད་	-10.487
བརྒྱ	-10.4872
ཅུན་	-10.4873
བླངས།	-10.4874
རལ་	-10.4875
གློ་	-10.4875
འགོ་ཚུགས་པ་རེད།	-10.4878
བྱིས་པར་	-10.4878
ཝུའེ་	-10.488
ཚང་གི་	-10.4881
ད་གཟོད་	-10.4882
རྒྱ་ཆེན་པོ་	-10.4882
གནམ་གྲུ་ཐང་	-10.4883
དང་བྲལ་	-10.4884
ལ་ཕན་པ་	-10.4885
ཆུར་	-10.4887
ཅེས་གསུངས་པ་རེད།	-10.4888
ལ་འཇུག་པ་	-10.4892
རང་འགུལ་	-10.4893
ཆེད་སྤྱོད་	-10.4893
དཔེ་རྙིང་	-10.4895
བྱེད་སའི་	-10.4896
འཇིགས་མེད་	-10.4898
བརྟགས་	-10.49
▁བོད་ལྗོངས་གསར་	-10.49
ལྔར་	-10.4901
པར་བྱ་སྟེ།	-10.4901
བསྒྱུར་བའི་	-10.4903
༡༧	-10.4904
▁ཆབ་སྲིད་ཀྱི་	-10.4905
ལཱ	-10.4908
འཐུ	-10.4911
བྱུང་སྟེ།	-10.4911
དྲི་མེད་	-10.4911
རིང་པོ་	-10.4918
འཐོར་	-10.4918
ཧྲང་ཧའེ་	-10.4919
སྤྱི་ལེ	-10.4923
ཕྲིན་ལས་	-10.4924
ལས་དོན་སྒྲུབ་	-10.4925
དམག་ཕྱོགས་ཀྱིས་	-10.4925
སྐ	-10.4926
ལྡན་ཡོད།	-10.4927
གཉིས་པར་	-10.4927
▁བྱས་	-10.4928
ཡོ	-10.4932
ཟེར་བའི་	-10.4936
རྣམས་དང་	-10.4936
བསྐྲུན།	-10.4936
ཇོ་	-10.4937
བསྡུ་བ་	-10.4937
རང་ཉིད་ལ་	-10.4941
ར་ཁང་	-10.4945
མགྲོན་ཁང་	-10.4951
ཁམ་	-10.4954
དགེ་བཤེས་	-10.4955
སྤྱོད།	-10.4956
འགག་རྩའི་	-10.496
ལས་རིགས་ཀྱིས་	-10.4962
གི།	-10.4963
རོལ་ཏུ་ཕྱིན་པ་ལ་	-10.4964
▁རྡོ་	-10.4965
སྲེད་པ་	-10.4966
▁མདོ་	-10.497
ཚད་བརྒལ་	-10.4971
བློན་ཆེན་གྱིས་	-10.4972
སྡེབ་	-10.4973
ཡོད་པ་སྟེ།	-10.4974
ཕྱག་འཚལ་	-10.4977
▁༢༠༡༧	-10.4977
▁32	-10.4978
▁སྐྱེ་བ་	-10.4979
བཞུགས་པ་	-10.4984
གཤེན་	-10.4986
པ་རྣམས་ཀྱིས་	-10.4986
ཀྱི་རྣམ་པ་	-10.4988
སྤྱིར་བཏང་	-10.499
སྣང་བརྙན་	-10.499
ནུས་རྒྱུ་	-10.4991
ཤྭ་	-10.4994
དྲུང་དུ་	-10.4995
མཆན་བཀོད་མཛུབ་	-10.4995
ཕུར་	-10.4996
བཞུགས་པའི་	-10.5001
ལ་སོགས་པ་སྨོས་ཏེ	-10.5006
▁རླུང་འཕྲིན་	-10.501
ཁུ	-10.5013
▁མཚོ་སྔོན་མི་རིག	-10.5016
འཛུགས་སྐྱོང་གི་	-10.5017
▁——	-10.5018
དམངས་གཉེར་ཁེ་ལས་	-10.5021
རྟེན་འབྲེལ་ཞུ་	-10.5022
བཱ་	-10.503
སྐབས་བརྗེའི་	-10.503
ཟུག་	-10.503
ལྷ་ས་ནས་	-10.503
དང་གྲངས་ཆུང་	-10.503
▁གཞིས་རྩེ་གྲོང་	-10.5031
▁རྣམ་གྲངས་	-10.5035
ཐི	-10.5035
རྐྱེན་གྱིས་ཚོར་བ	-10.5036
བཤད་བྱུང་།	-10.5037
ཅེས་པ་ནི་	-10.5039
▁དེ་རྣམས་	-10.504
ཤེས་རིག་	-10.5046
མི་ཆོག	-10.5047
བཤགས་	-10.5048
ཟིན་པ་དང་།	-10.5049
▁འཕར་ཡོད།	-10.5049
ཁྲོ	-10.5052
བདེ་ཆེན་བོད་རིག	-10.5052
བཙུགས་ནས་ལོ་	-10.5054
སེམས་ཤུགས་	-10.5057
ཡག་ཤོས་	-10.5061
ལྔས་	-10.5062
ཉིན་མཚན་	-10.5063
མ་དང།	-10.5065
ཆོས་འབྱུང་	-10.5068
▁ཐོག་མར་	-10.5069
མཆུ་	-10.5075
བློ་འདྲི་	-10.5077
གསར་པ་ཞིག་	-10.5078
འདི་ནས་	-10.508
འག	-10.508
ཉོས་	-10.5081
བདུན་པའི་	-10.5083
སྤྱི་ཁྱབ་རུ་ཁག་	-10.5083
ཐའོ་	-10.5087
འགྲན་བསྡུར་གྱི་	-10.509
བསྟན་གྱི་	-10.5091
གྲ་	-10.5093
བརྙན་འཕྲིན་ཁ་པར་	-10.5099
རྒྱུ་སྤུས་	-10.5099
མཉམ་འབྲེལ་ཐོག་	-10.5102
༢༥	-10.5103
ཚན་ཆུང་	-10.5104
བྱེད་དགོས་ཤིང་།	-10.5104
འི་ཀྲུང་དབྱང་	-10.5105
མགོ་བརྩམས་	-10.5106
རྒྱང་རིང་	-10.5109
སངས་རྒྱས་ཐམས་ཅད་	-10.511
བོད་ལྗོངས་སུ་	-10.5111
དེ་སྐད་	-10.5112
གྱིས་ཀྲུང་དབྱང་	-10.5115
ངེས་ཅན་	-10.5115
གྲོང་རྡལ་དུ་	-10.5116
སོ་སོ་དང་	-10.5117
28	-10.5121
དུ་མི་	-10.5125
མཐོ་སྒང་གི་	-10.5126
ཉིད་ཀྱི་ཕྱིར་	-10.5127
པར་འགྱུར་	-10.5127
མང་ཤོས་	-10.5129
ནོ	-10.5131
མོད་	-10.5136
སྤེལ་ནས།	-10.5139
▁མདུན་ངོས།	-10.514
ཕྲ་མོ་	-10.514
ཚོང་རྟགས་	-10.5141
བསླངས་	-10.5144
སྒོ་དབྱེའི་	-10.5151
མིང་ཐོ་	-10.5152
གྲི་	-10.5153
འདུལ་བའི་	-10.5157
ལྔ།	-10.516
པ་ཡི།	-10.5162
དང་འདྲ་བའི་	-10.5163
ཌ	-10.5168
པས་ནི་	-10.517
གོང་སྤེལ་	-10.5174
ལ་དོ་སྣང་	-10.5176
དེ་བས་ཀྱང་	-10.5177
སྐྱུར་	-10.5177
ཟླ་བཅུ་གཅིག་པའི་	-10.518
▁གནད་དོན་	-10.518
སྒྱུ་མ་	-10.5183
དགག་པ་	-10.5184
ལས་དོན་སྙན་སྒྲོན	-10.5184
ཀྱི་གསར་འགྱུར་	-10.5186
རང་རྟོགས་	-10.5186
མེད་པ་རེད།	-10.5186
གྲོས་འགོ་	-10.5189
ཐེག་པ་ཆེན་པོ་	-10.519
དགོས་ངེས་ཀྱི་	-10.5191
ཁྱིམ་གཞིས་	-10.5197
བརྗོད་དོ།	-10.5198
དང་འབྲེལ་ཡོད་	-10.5199
ཁྲོ་བོ་	-10.5204
▁དམ་ཚིག་	-10.5204
རྒྱལ་དབང་	-10.5205
▁རྒྱ་སྐད་	-10.521
ལ་གྲོས་ཞིབ་	-10.5217
▁གསུམ།	-10.5217
▁འགྲིམ་འགྲུལ་	-10.5218
གཏོང་སྤྲོད་	-10.5222
རི་བོའི་	-10.5223
▁ཐ་ན་	-10.5223
▁རྣམ་པར་ཤེས་པ་	-10.5224
ཟམ་པ་	-10.5224
ཆེ་རུ་ཕྱིན་	-10.5225
ཞུ་བའི་	-10.5225
ཐོགས་པ་	-10.5229
འདོད་བློ་	-10.5231
གཡུལ་	-10.5232
བསྲུང་	-10.5233
གཏོང་རྒྱུ་དེ་	-10.5233
རོགས་དངུལ་	-10.5236
པའི་གནས་ཚུལ་	-10.5238
ཐུར་ཁེའི་	-10.5239
བྱ་བ་དེ་	-10.524
▁༦	-10.524
འཚོགས་པ་རེད།	-10.5242
མཐོ་འབྲིང་	-10.5246
ས་ཚིགས་ཀྱི་	-10.5248
མི་དམིགས་	-10.5251
ཏང་འཛུགས་	-10.5259
དགྱེས་	-10.5259
ལག་བསྟར་བྱས་ཏེ།	-10.5263
རྣམ་པར་མི་རྟོག་	-10.5264
ཁོང་དུ་ཆུད་པ་	-10.5265
ཡུས་ཧྲུའུ་	-10.5265
དང་ལྡན་པ།	-10.5266
མ་ཐག་པའི་	-10.5267
ལྔ་པའི་	-10.5269
པ་ལ་སོགས་པ་	-10.527
བཙུགས།	-10.5273
ཐེངས་གཉིས་པའི་	-10.5273
རྒྱུའི་ཚུལ་བསྟན།	-10.5273
ཀན་ལྷོ་བོད་རིག	-10.5274
▁4000	-10.5277
༡༣	-10.5278
འཁྲུགས་	-10.5279
གཞུང་ལམ་གྱི་	-10.5284
བྱེད་མཁན་གྱི་	-10.5284
ལྟེ་གནས།	-10.5285
ཤིན་ཅང་	-10.5286
འདི་དག་ནི་	-10.5287
ནན་གྱིས་	-10.5287
ས་ཆའི་	-10.5287
96	-10.5287
ག༷་	-10.5289
རྔ་བ་ཁུལ་	-10.5289
འབུར་	-10.529
རྣམ་གཉིས་	-10.5291
པ་དང་ཆབས་ཅིག་	-10.5291
གཅོག་	-10.5295
ཡིག་སྒྱུར་	-10.5297
▁འཁོར་བར་	-10.5298
བར	-10.5299
བོད་ཡུལ་	-10.5299
ནི༷་	-10.5304
འགྲོ་སོང་	-10.5304
སྨོས་	-10.5305
▁མཚན་	-10.5305
འབེབས་	-10.5306
དང་རིག་གནས་	-10.5308
བྱམས་བརྩེའི་	-10.5311
▁༧	-10.5311
འི་སྒོ་ནས་	-10.5312
གཡོགས་	-10.5312
ཡིན་ནོ་ཞེས་བྱ་བ་	-10.5315
ལག་ལེན་བྱ་འགུལ་	-10.5316
ཉེན་རྟོག་ཕྱོགས་	-10.5317
རྒན་གསོ་	-10.5318
ཁེར་	-10.5318
བསྒྲུབ་བྱ་	-10.5318
ས་གནས།	-10.5319
▁དངོས་	-10.532
ཡི	-10.532
ཞེས་པ་ལ་སོགས་པ་	-10.5324
▁ཁྱིམ་	-10.5324
▁དེང་རབས་	-10.5328
ཕལ་	-10.533
བེ	-10.5331
60	-10.5331
▁ལོ་ནས	-10.5332
དང་རྒྱལ་ཁབ་	-10.5336
རྒྱལ་བོ་	-10.5338
ཚེ་རིང་གིས་	-10.5339
དགོས་པར་	-10.5339
ཨོ	-10.534
དགའ་བར་	-10.5347
གོང་མའི་	-10.5349
▁སློབ་མ་	-10.535
གཡར་	-10.5353
དུ་བ་	-10.5354
ཟམ་ཆེན་	-10.5355
ཧུར་ཐག་སྒོས་	-10.5359
མེའི་	-10.5359
གྲ	-10.5362
དང་དཔལ་འབྱོར་	-10.5363
ཀྱི་ལས་དོན་	-10.5364
རྩ་བ་ནས་	-10.5364
དཔྱིད་	-10.5365
ལ་དམ་འཛིན་	-10.5365
ཆེད་མཁས་	-10.5367
བྱི་	-10.5368
བྱེད་པའོ།	-10.5368
ཚད་མེད་པ་	-10.537
རྒྱལ་རབས་	-10.5372
བརྒྱ་བྱིན་	-10.5373
ལག་བསྟར་གཏིང་ཟབ་	-10.5377
04	-10.5378
རྦད་དེ་	-10.538
དཔེ་ཀློག་	-10.5385
མགྱོགས་སུ་གཏོང་	-10.5386
མངའ་རིས་	-10.5387
སྲང་ལམ་	-10.5388
སྡིག་	-10.5388
མཁའ་འགྲོ་	-10.5391
འཛུགས་པ་དང་	-10.5391
སྐོར་གྱི་བསམ་འཆར	-10.5398
ཆུ།	-10.5398
ཆོད་སེམས་	-10.5398
མི་ཚེ་	-10.5398
▁བསྡོམས་རྩིས་	-10.5398
བྱེད་སྒོར་	-10.5399
བར་བྱེད་དོ།	-10.5401
90	-10.5401
རྣལ་འབྱོར་པ་	-10.5402
གོམ་པ་	-10.5403
རྒྱག་པའི་	-10.5403
དང་བྲལ་བའི་	-10.5403
ཅི་ཞི་ཅིན་ཕིང་	-10.5404
རྩིས་བཤེར་	-10.5407
▁ཏང་ཀྲུང་དབྱང་	-10.5408
ཞིང་ཆེན་ཏང་ཨུ་	-10.5409
བསྐྱར་འཛུགས་	-10.5413
རྟེན་འབྲེལ་ཞུས།	-10.5413
དེ་ཡིན།	-10.5413
ཐོན་ཡོད།	-10.5414
སྐྱེ	-10.5416
▁མཱ་	-10.5416
གོ་རིམ་ལྡན་པའི་	-10.5419
སྲིད་སྐྱོང་	-10.542
ཕུགས་	-10.5422
མྱུ་གུ་	-10.5424
82	-10.5427
ཁྲིམས་མཐུན་	-10.5428
ཞེས་པས་	-10.5428
མཛེས་སྡུག་གི་	-10.5428
▁ཚོར་བ་	-10.5428
བསྟན་པའི་ཕྱིར་	-10.5428
མཆི	-10.5432
ཐོད་པ་	-10.5433
རླབས་ཆེན་གྱི་	-10.5439
བྱེད་རྒྱུ་དང་།	-10.5441
རྒྱ་ཆེའི་ཏང་ཡོན་	-10.5442
▁ཆབ་སྲིད་	-10.5443
འབོར་ཆེན་	-10.5448
བྱས་རྗེས་འཇོག་	-10.5448
མུའུ་ཁྲི	-10.5448
རིག་པ་ཞིབ་འཇུག་	-10.5452
ད་ལོར་	-10.5452
ས་འོག་	-10.5452
▁ཞིང་གསུམ	-10.5452
གཙོ་གཉེར་	-10.5452
▁ཀྲུང་དབྱང་གསར་	-10.5455
དཔེར་	-10.5455
དཔྱད་གཞི་	-10.5457
མི་རིགས་སྐད་ཡིག་	-10.5459
རྣལ་འབྱོར་མ་	-10.546
དང་མི་རིགས་	-10.5461
ཚད་ཡོད་ཀུང་སི།	-10.5462
ངག་གི་	-10.5463
བྱ་བ་དང་	-10.5463
▁མིག་སྔའི་བར་	-10.5463
གཟུང་བ་	-10.5464
པར་མཛོད།	-10.5468
ཟབ་སྦྱོང་	-10.5469
ཚན་རིག་དང་མཐུན་	-10.547
ཁྲིམས་ཁང་	-10.5471
༡༥	-10.5472
སྙོམས་སྒྲིག་	-10.5472
སྐེ་	-10.5472
▁ལོར་སླེབས་སྐབས་	-10.5474
མེད་དོ་ཞེས་	-10.5474
འཛ	-10.5475
མ་ཐག་ཏུ་	-10.5477
སློབ་སྦྱོང་བྱེད་	-10.5478
མོས་མཐུན་	-10.5478
འཐུས་མི་ཚོགས་པ	-10.5479
▁སྲོག་	-10.5479
རྩོམ་རིག་གི་	-10.548
རང་སྐྱོང་རྫོང་	-10.5484
སྤྱོད་རྩ་འཛུགས་	-10.5485
སྒྲིལ་	-10.5485
ཛ་དྲག་	-10.5486
18	-10.5487
▁ལྷ་ས་	-10.5488
ཀྱི་དཔལ་འབྱོར་	-10.5491
རིག་བྱེད་	-10.5494
དོ་སྙོམས་	-10.5498
ལས་དབང་	-10.5498
གདུགས་	-10.55
བྱས་ལ་	-10.5503
བང་	-10.5503
འཇབ་རྒོལ་དོན་	-10.5506
▁ཁྱད་པར་དུ་	-10.5506
འགྲེམ་སྤེལ་བྱས།	-10.551
དང་ཆུ་	-10.5511
འཐབ་ཇུས་མཉམ་ལས་	-10.5511
གཏོང་རྒྱུ་རེད།	-10.5514
གནས་ཚུལ་ལྟར་ན།	-10.5515
ལ་གནོད་པ་	-10.552
རིམ་རྩིས་བྱས་ན་	-10.5525
ཁྱིམ་ཚང	-10.5527
སྐབས་བཅུ་གསུམ་པ	-10.5529
དང་གྲོང་རྡལ་གྱི་	-10.5531
ལ་འགྱུར་ལྡོག་	-10.5536
མིང་གི་	-10.5537
དང་བཅས་པས་	-10.5538
▁དེ་དག་ནི་	-10.5539
ནས་ཀྱང་	-10.5542
ཕྱོགས་ཡོངས་ཀྱི་	-10.5544
▁ལྷག་ཙམ་གྱི་	-10.5547
བདག་ཉིད་ཀྱི་	-10.555
གྱ	-10.555
སྨོན་པ་	-10.5554
▁གཉིས་པ་ནི།	-10.5556
བཟང་བོར་བསྒྲུབ་	-10.5556
、	-10.5556
ཡུན་ནན་	-10.5557
བཙ	-10.5559
མི་རབས་	-10.5561
ཐམས་ཅད་མཁྱེན་	-10.5563
ཤོ	-10.5565
བཅས་ཡིན།	-10.5568
འབྲེལ་ཡོད་ནང་དོན	-10.5569
ཡོ་བསྲང་	-10.5576
པེ་ཅིན་དུ་	-10.5576
འཚོགས་པ།	-10.5578
བྲེལ་	-10.5579
མ་སྐྱེས་	-10.558
རྒྱུད་འཛིན་	-10.558
ལྗོངས་ཡོངས་སུ་	-10.5581
ྐ	-10.5582
▁སྒོ་	-10.5582
▁ཁྲིམས་འཛིན་	-10.5584
▁ཞེས་གསུངས་སོ།	-10.5585
ཏིང་ངེ་འཛིན་གྱི་	-10.5586
གཅེས་སེམས་	-10.5586
རྣམ་རྟོག་	-10.5588
▁0.	-10.5588
དགོས་པ་མ་ཟད།	-10.5589
བྱུགས་	-10.5591
མཐོང་བས་	-10.5591
དྲགས་	-10.5594
མཁན་ལ་	-10.5595
གཙོ་གནད་དུ་	-10.5596
བྱེད་ས་	-10.5597
▁ས་གནས་དེ་གའི་	-10.5599
མཚན་མོ་	-10.5599
རེད་ཅེས་	-10.5601
དྲོད་ཚད་	-10.5602
མདུན་ལམ་	-10.5604
རིན་མེད་	-10.5604
ཅ	-10.5606
མདོར་	-10.5607
ཐེངས་གཉིས་	-10.561
ཐོས་ནས་	-10.5612
འཛུ	-10.5612
རྩི་ཤིང་	-10.5613
སེམས་དང་	-10.5613
ལོགས་	-10.5616
དུ་ཡོད་པའི་	-10.5618
བཙུགས་ཏེ།	-10.5618
བཅར་འདྲི་དང་ལེན་	-10.5621
ཞེས།	-10.5622
འབར་བའི་	-10.5624
ཡུལ་མིའི་	-10.5626
བསྒོམས་	-10.5627
སྤྱིར་བཏང་གི་	-10.5629
བཟའ་བཅའི་	-10.563
ངེས་པའི་	-10.5632
▁ས	-10.5634
གྲོས་མཐུན་བཀོད་	-10.5634
བོད་ཁུལ་	-10.5634
བོད་ཀྱིས་	-10.5637
བ་ཡིན།	-10.5638
ཆོས་ལུགས།	-10.5644
འབུར་ཐོན་	-10.5644
ནའང་།	-10.5647
ཞིབ་འཇུག་གི་	-10.5647
86	-10.5648
མིའི་རིགས་	-10.5649
ཞིབ་ཏུ་	-10.5652
ཙམ་ཞིག་	-10.5652
གྱེས་	-10.5653
ཐེངས་དང་པོར་	-10.5655
▁རྗེ་	-10.5657
དགོས་ཏེ།	-10.5657
ཏང་ཨུད་	-10.5658
རྗེས་སུ་དཔག་པ་	-10.5659
ཆེ་གེ་མོ་	-10.5665
ཞིབ་འཇུག	-10.5665
▁ཁོ་ཚོས་	-10.5668
བསོད་སྙོམས་	-10.5669
རིམ་པར་	-10.5672
ཧེ་བག་	-10.5672
དོན་གྱིས་	-10.5673
འཛིན་གྱི་	-10.5676
རུང་བ་	-10.5676
ཐབས་ཀྱི་	-10.5676
▁གལ་སྲིད་	-10.5676
▁གཞི་རིམ་གྱི་	-10.5679
གཟའ་	-10.568
སླད་	-10.568
འོ	-10.5682
བསམ་འགྲུབ།	-10.5683
འོས་འཚམ་	-10.5684
འཛིན་པ།	-10.5686
▁རྨང་གཞིའི་	-10.5687
བུར་	-10.569
ལྡན་པའི་སྒོ་ནས་	-10.5693
ཞིབ་བསྡུར་	-10.5698
སྦྱོར་བས་	-10.5699
ཡུལ་གཞན་དུ་	-10.5704
དགེ་རྒན་ཆེན་མོ་	-10.5705
དཔྱད་བསྡུར་	-10.5708
མཐུན་སྒྲིལ་དང་	-10.5709
ནུས་པ་གལ་ཆེན་	-10.5712
པོའོ།	-10.5714
མཛའ་	-10.5714
གོང་རིམ་	-10.5714
དེ་རིང་	-10.5717
འཇར་མན་གྱི་	-10.5719
དེ་ཉིད་ཀྱི་	-10.5726
མུན་	-10.5727
ཕྱ	-10.5729
ལམ་ལ་	-10.573
མ་མཐའི་འཚོ་བའི་	-10.573
▁གཞན་གྱི་	-10.5732
ཀུང་	-10.574
སྲིད་དབང་	-10.574
ནུབ་ཕྱོགས་	-10.5741
གངས་ཅན་	-10.5743
དཀྲོལ་	-10.5745
ཡ་རབས་	-10.5746
ཤཱ	-10.575
ལྷ	-10.5752
ཧང་	-10.5758
རམ་	-10.5758
དངུལ་རྩ་	-10.5758
ཕོ་ཉ་	-10.5759
ཐེངས་གཉིས་པ་	-10.5759
གཞུང་གི་	-10.576
མས།	-10.5762
བསྐྲུན་ནས་	-10.5762
▁འཕར་	-10.5763
མཚོ་ཐོག་	-10.5764
▁ཡང་དག་	-10.5764
གྱི་རྣམ་པ་	-10.5765
དྲུག་པའི་	-10.5765
བྱིན་རླབས་	-10.5766
བདམས་ཐོན་བྱུང་	-10.5769
ཟ་བ་	-10.5769
དབང་བསྐུར་བ་	-10.577
རྩེ	-10.5772
དབྱིངས་	-10.5773
པར་གཞི་	-10.5774
གཅིག་ནས་	-10.5776
▁དེ་དག་གིས་	-10.5776
ཞིག་ཀྱང་ཡིན།	-10.5776
ཁུལ	-10.5777
པིན་	-10.5778
89	-10.5778
མཐའ་འཁྱོངས་ཀྱིས་	-10.5778
གམ།	-10.5778
བྱང་བུ་	-10.5779
མང་ཆེ་བ་	-10.5781
ཞབས་ཞུའི་མ་ལག་	-10.5782
ཟི་ལིང་ནས་	-10.5784
བ་དེ་	-10.5784
ཐེངས་གསུམ་པ་	-10.5784
མཐིལ་	-10.5788
ཉེས་དོན་	-10.579
བྱེད་དུ་འཇུག་	-10.5791
ལག་བསྟར་ནན་མོ་	-10.5794
ཞིང་ཆེན་ཡོངས་	-10.5796
སྐབས་དེའི་	-10.5799
བཅས་རེད།	-10.581
རྩི	-10.5812
བྲིས་པའི་	-10.5815
ཤུགས་སྣོན་པ་དང་།	-10.5816
བདེ་སྐྱིད་ཀྱི་	-10.5816
དེ་བཞིན་གཤེགས་	-10.5816
ཏི	-10.5818
ཀུན།	-10.5824
སྒྱུར་བཅོས་ཀྱི་	-10.5824
དྲོ་	-10.583
ད་ལྟར་	-10.583
གནད་དོན་ཐད་ནས་	-10.5832
རིན་ཐང་ལྟ་བ་	-10.5832
ལ་བརྩོན་	-10.5833
དང་འདྲ་	-10.5834
བཙོན་	-10.5838
ཀྲུང་གོ་ཕྱོགས་	-10.5839
▁ཐུར་ཁེའི་	-10.5844
ར་གྱི་ཀྲུང་གོའི་	-10.5844
མ་ལུས་པ་	-10.5847
སྨན་པའི་	-10.585
ལོ་གསར་གྱི་	-10.5851
ནག་ཆུ་ས་ཁུལ་	-10.5854
དྲང་སྲོང་	-10.5856
▁གོས་	-10.5856
དཀར་ཆག་	-10.5857
ཉམས་ཞན་	-10.5858
▁སཱ་ཏེ	-10.5859
བཙུགས་པ་	-10.586
ནེ་པ་ལའི་	-10.5862
མཐུན་རྐྱེན་	-10.5863
ནང	-10.5864
.5	-10.5867
བུ་ལོན་	-10.5867
མྱེད་དོ།	-10.5868
མ་ཡིན་པས་	-10.5869
▁ཀྲུང་	-10.5869
▁ཏང་	-10.587
བསྐོས་	-10.5871
ཏོ	-10.5871
གོང་འཕེལ་དང་	-10.5873
བྱ་བ་སྒྲུབ་	-10.5874
གོམས་སྲོལ་	-10.5875
སངས་རྒྱས་ཀྱི་ཞིང	-10.5876
ཐད།	-10.5878
པ་སངས་	-10.588
མུའུ་ཁྲི་	-10.588
▁འགན་འཁྲི་	-10.5881
▁གང་ཟག་	-10.5882
བཙུན་མོ་	-10.5885
དང་བསྟུན་	-10.5891
པ་དེ་ནི་	-10.5893
▁ཁྱོད་ཀྱི་	-10.5894
▁ཅིའི་ཕྱིར་	-10.5897
ཚན་རྩལ་གསར་གཏོད་	-10.59
དབང་གི་	-10.5906
བཞིན་དུ།	-10.5909
དང་འབྲེལ་བ་ཡོད་	-10.591
གི་ཡོད།	-10.5913
གསུངས་པ་ཡིན་ནོ།	-10.5913
▁ཚན་རིག་དང་མཐུན་	-10.5915
དྲུག	-10.5916
གློག་རྡུལ་ཚོང་དོ	-10.5918
སྡེར་	-10.5919
ཕུལ་བྱུང་གི་	-10.592
པའི་ཚུལ་གྱིས་	-10.5923
▁མཚོ་ལྷོ་ཁུལ་	-10.5928
ལས་འདས་	-10.5928
མེད	-10.5931
གཅིག་རྗེས་གཉིས་	-10.5933
ཉེ་དུས་	-10.5935
ལ་དབྱེ་ཞིབ་	-10.5936
ཇི་སྲིད་	-10.5936
▁འདུ་ཤེས་	-10.5938
ལྷག་བསམ་	-10.5938
▁བདག་ཉིད་	-10.5941
▁ཨང	-10.5942
ཚོགས་འདུར་ཞུགས།	-10.5943
ཅན་ལ་	-10.5944
རྒྱབ་སྐྱོར་དང་	-10.5945
▁ཧྲིན་ཀྲང་	-10.5947
མི་འཐད་	-10.5947
རྣམ་པ།	-10.5948
གཞུ་	-10.5948
སེམས་ཅན་གྱི་	-10.5948
དེ་སྔ་	-10.5949
པར་བྱ་བའི་ཕྱིར།	-10.595
སྤྲོ་གསེང་	-10.5951
ཐོག་ཁང་	-10.5951
གཞུང་དྲང་	-10.5951
རང་ཞིང་གི་	-10.5952
རང་རྟོགས་ངང་	-10.5955
མི་དམིགས་པ་	-10.5956
23	-10.5956
21	-10.5957
བསྟན་པར་	-10.5959
མི་འདྲ་	-10.5959
88	-10.5962
སྔོན་འགྲོའི་	-10.5962
འཚམས་འདྲི་བྱེད་	-10.5962
སླེབས་ཡོད།	-10.5965
དགེ་སྦྱོང་	-10.5965
མཉམ་འགུལ་	-10.5966
བསྙེན་	-10.5966
ཚད་མཐོའི་མཐོང་ཆེ	-10.5967
ཁོ་རང་	-10.5967
མཐོན་པོ་	-10.5968
དང་འདྲ་བ་	-10.597
ཁེ་སྤོགས་	-10.5971
ཆད་གཅོད་	-10.5976
ཐེངས་གསུམ་པའི་	-10.5977
གཅིག་སྒྲིལ་	-10.5979
དེ་ཉིད་ཀྱིས་	-10.5983
ལ་སྐུལ་སྤེལ་	-10.5983
དགོན་སྡེའི་	-10.5985
ལམ་བུའི་ཐོག་	-10.5985
ཕ་རོལ་དུ་ཕྱིན་པ་	-10.5985
ཕེབས་ཏེ་	-10.5987
དང་མཐུན་པར་	-10.5988
ལྷད་མེད་	-10.5988
སྤྱི་བདེ་ཅུས་	-10.599
མཚུངས་པ་	-10.5991
ཐེངས་བཅུ་དགུ་བ	-10.5993
ཆེ་མོའི་	-10.5994
ལྡིང་	-10.5995
ཡའོ་	-10.5996
འཁོར་གྱི་	-10.5996
དམ་ཚིག་གི་	-10.6002
▁ཀྱེ་	-10.6005
གྲིབ་	-10.6006
བགྲེས་སོང་	-10.6009
ལུང་བསྟན་	-10.601
ཐོག་མ་དེ་	-10.6011
ཞིས་ཅིན་ཕིང་	-10.6012
ཐུ	-10.6015
མ་བྱུང་	-10.6016
ཡོངས་འགྲུབ་	-10.6017
ས།།	-10.6017
རང་བཞིན་དུ་	-10.602
མའེ་	-10.6021
ཀོན་	-10.6021
དགོང་	-10.6022
ཉིན་རེའི་ཚགས་པར	-10.6022
རང་ངོས་ཀྱི་	-10.6024
ནང་སའི་	-10.6024
བརྒྱབ་སྟེ་	-10.6027
▁ཡུན་ནན་	-10.6029
མཉམ་པ་ཉིད་	-10.603
སྐད་ཅེས་གསོལ་ཏོ།	-10.6031
མེས་རྒྱལ་གྱི་	-10.6034
སཾ་	-10.6036
པ་ན་	-10.6037
པར་བྱེད་	-10.604
ཤས་	-10.604
ཆེ་རུ་གཏོང་	-10.6041
པྲ	-10.6047
ཕྱོགས་གཅིག་	-10.6049
ཐོན་ཁུངས་ཀྱི་	-10.6053
སྟོང་གི་	-10.6053
ལྔ་དང་	-10.6054
རྫི་	-10.6055
ཀན་སུའུ་	-10.6058
ལྟ་སྐུལ་ཞིབ་བཤེར	-10.606
བསྐྱར་དུ་	-10.6061
ཀྱི་ནུས་པ་	-10.6062
སྐུ་ཞབས་	-10.6066
མི་བྱེད་	-10.6066
▁བུ་མོ་	-10.6067
དྲིལ་བུ་	-10.6068
སྔོན་འགོག་དང་	-10.607
གཏོགས་པའི་	-10.6074
ལ་སོགས་པ་ལ་	-10.6074
སྔར་ལས་ལྷག་པར་	-10.6074
ལ་ཞབས་འདེགས་ཞུ་	-10.6074
24	-10.6075
ལིའི་	-10.6076
དེ་རེད།	-10.6079
ཚད་ཡོད་ཀུང་སི་	-10.608
སོང	-10.608
ཉེ་བའི་	-10.6081
ཀེ	-10.6083
མཁས་པས་	-10.6083
གར་སྟེགས་	-10.6084
དྲག་ཤུགས་	-10.6084
འགན་འཁུར་བས་	-10.6085
བུས་	-10.6088
སྒྲུང་གཏམ་	-10.6088
འདེད་	-10.6089
ཨ་རི་	-10.609
འགྲོ་རྒྱུར་	-10.609
བ་སོགས་ཀྱི་	-10.6091
དུ་བསྡུས་པ།	-10.6091
མང་དུ་ཕྱིན་	-10.6092
བྱེད་དུ་བཅུག་	-10.6092
མ་ལག་གི་	-10.6094
གཞན་པ་	-10.6097
གཞུང་ལས་ཁང་གིས་	-10.6098
▁སྔགས་	-10.61
ཆོས་ཀྱི་རྒྱལ་པོ་	-10.6103
མཉམ་བསྲེས་	-10.6103
ཐམས་ཅད་མཁྱེན་པ་	-10.6104
ཞིང་དུད་	-10.6107
དཔང་	-10.6107
རྩིག་	-10.6109
ཧྥང་	-10.611
སྣ་ཁ་	-10.6112
▁རབ་ཏུ་	-10.6113
▁318	-10.6113
གོང་འཕེལ་འགྲོ་	-10.6114
ཉེ་བ་	-10.6114
ནུས་པ་ཆེ་རུ་	-10.6117
སེམས།	-10.6117
འདོད་ཆགས་དང་བྲལ་	-10.612
ཆེན་པོ་བྱུང་	-10.6121
▁ཞེས་གསུངས་	-10.6121
ཚན་རིག་གི་	-10.6124
གྲོས་དཔོན་	-10.6127
ལ་རབ་ཏུ་	-10.6128
ཚོར་སྣང་	-10.6129
རྡོ་སྣུམ་	-10.6132
ཁང་དང་	-10.6134
པཎ་ཆེན་	-10.6137
འབྱུང་གནས་	-10.6137
▁༢༠༡༨	-10.6137
སློབ་གྲྭ	-10.6138
མཚོན་པ་	-10.6138
ནུས་པ་དང་	-10.6139
▁གླུ་གཞས་	-10.6144
རྡོ་སོལ་	-10.6148
རྒྱུའི་རེ་བ་	-10.615
འགོ་ཁྲིད་ཚན་ཆུང་	-10.6152
འི་རྒྱལ་ཡོངས་	-10.6153
▁བདེ་ཆེན་	-10.6154
འཐད་	-10.6158
བོད་ལུགས་	-10.6159
ཥྚ	-10.616
27	-10.6162
ཕྱིན་ཅི་ལོག་	-10.6163
གྲུ	-10.6164
བྱུང	-10.6165
ཕྱིར་འཐེན་	-10.6168
▁མཉམ་དུ་	-10.6169
གྲོས་གཞི་བཏོན།	-10.617
རི་མོའི་སྒྱུ་རྩལ	-10.6172
འཚོག་	-10.6174
མཐུན་པ་	-10.6176
▁ཉེ་དུས་	-10.6179
▁ཞི་ཅིན་ཕིང་	-10.6181
ཁྲུའུ་	-10.6189
ཏང་སྲོལ་སྲིད་གཙང	-10.619
བ་ལང་	-10.6191
གཏོང་རྒྱུ་དང་།	-10.6194
ཏང་ཀྲུང་དབྱང་	-10.6195
འགན་ཁུར་བ་	-10.6195
བྱེད་པའི་བྱ་བ་	-10.6199
ཆེ	-10.62
བརྟག་པ་	-10.62
གྲོང་ཁྱེར།	-10.6204
▁ཟིན་པའི་	-10.6207
ཟོ	-10.6208
མི་སྣ།	-10.621
ཇེ་མཐོར་གཏོང་	-10.6211
བཞིན་འདུག	-10.6211
བློ་བཟང་རྒྱལ་མཚན	-10.6214
སྤྲོ་སེམས་	-10.6215
▁དེ་ལྟ་བུའི་	-10.6218
▁ཧོར་	-10.6219
ལྟ་བུ།	-10.6219
ས་བབ་	-10.6219
ཞིང་བྲན་	-10.6219
རྒྱ་མ་	-10.622
ལོག་པའི་	-10.6221
▁༡༠	-10.6223
ལ་སོགས་པ་རྣམས་	-10.6223
ཡལ་	-10.6224
ཕྱིར་འཚོང་	-10.6228
སྤྱོད་གཙང་	-10.6229
ཅན་ནོ།	-10.623
མེད་ལ་	-10.6231
གནང་བ་དང་	-10.6232
ལོ་གཅིག་	-10.6235
ནས་ཟླ་	-10.6235
བཀལ་	-10.6236
བསྡམས་	-10.6236
དབུ་ཚོགས་	-10.6237
ལྕི་	-10.624
དང་ས་གནས་	-10.6242
བྱས་པའི	-10.6243
ཀྱི་བར་དུ་	-10.6243
འདི་ལྟ་བུའི་	-10.6244
ཡི་གེ	-10.6245
ཆོ	-10.6249
དཀའ་སྡུག་	-10.6249
གྲོས་འགོ་བཏོན་	-10.6253
ཚངས་	-10.6255
རྒྱུ་འབྲས་	-10.6256
▁ཕན་ཅི་ཝུན་གྱིས་	-10.6259
སིའི་	-10.6259
གདམ་	-10.6261
བཙུགས་པ།	-10.6262
ལ་རྟོག་ཞིབ་	-10.6263
ཁུ་བ་	-10.6263
བརྒྱའི་	-10.6263
མྱེད་	-10.6264
བྲ	-10.6265
▁ཉིན་གྱི་སྔ་དྲོ།	-10.6267
ཀློང་	-10.6271
བསྒྲུབ་པར་	-10.6272
འདུས་བྱས་	-10.6272
ཕུན་སུམ་ཚོགས་སུ་	-10.6273
མི་དམངས་འཐུས་མི་	-10.6274
ཞེས་པའོ།	-10.6276
བསྙེན་པར་རྫོགས་	-10.6279
མེད་པ་ནི་	-10.628
མགོ་བརྩམས།	-10.6281
ཁག་ལ་	-10.6282
༥༠	-10.6284
ཚུན།	-10.6285
▁ལྗང་མདོག་	-10.6286
བདག་མེད་	-10.6288
ནས་བསྡུས་པ།	-10.6288
རྣམ་པ་གསུམ་	-10.6288
བར་དུ།	-10.6289
ནི།།	-10.629
བཟའ་བཏུང་	-10.629
ཕྱོགས་ཡོངས་	-10.6291
ཡའི་	-10.6291
རྗེ་བཙུན་	-10.6292
རི་མོའི་	-10.6303
བསོད་ནམས་ཀྱི་	-10.6304
རྒྱ་ནག་	-10.6306
ཡུ	-10.6309
▁ད་ལྟའི་	-10.6312
ཤོས་ཀྱི་	-10.6314
དབེན་པ་	-10.6314
ཆས།	-10.6314
འཇིག་རྟེན་པའི་	-10.6317
མི་ཚོགས་	-10.6318
ཟི་ལིང་གྲོང་ཁྱེར	-10.632
འབྲོག་པ་མང་ཚོགས་	-10.6325
རུ་ཁག	-10.6326
གསོ	-10.6327
ལྷག་པ་	-10.6327
སྒྲིག་བཤེར་	-10.6328
ཞུ།	-10.6329
ཆུ་དང་	-10.6331
76	-10.6334
ནམ་རྒྱུན་	-10.6334
གང་དང་གང་	-10.6335
དགོང་ཚོགས་	-10.6336
བདེ་ཐང་གི་	-10.6336
གནང་སྟེ་	-10.6336
འོད་སྲུང་	-10.6338
རབ་བྱུང་	-10.6339
མཚམས་ཀྱི་	-10.634
ཁྲིམས་ཁང་གི་	-10.6341
བསླབས་	-10.6342
སོང་སྟེ་	-10.6342
87	-10.6342
ལོ་ངོ	-10.6343
འོད་སྟོང་འཕྲོ་བ	-10.6345
▁བློ་བརྟན་འགྱུར་	-10.6347
ཀྲུའུ་ཞི་ཚོགས་པ	-10.6348
▁—	-10.6349
གནོད་ཐེབས་	-10.6349
▁དགེ་འདུན་	-10.6352
བླངས་ཏེ་	-10.6354
གྲངས་ཉུང་	-10.6357
བསྐྱོད་པའི་	-10.6358
འཚམ་མཐུན་ཡོང་	-10.636
དགའ་སྟོན་	-10.636
ཚེ	-10.6362
▁རྒྱུད་	-10.6365
ཞུས་པ་	-10.6366
གྲོང་སྡོད་	-10.6369
༡༨	-10.6374
གོ་ཆོད་	-10.6374
ལ་ལྟོས་	-10.6375
བྱིས་	-10.6378
འདྲ	-10.6379
བྱས་ཚེ་	-10.6383
▁རྡེབ་ཚད།	-10.6383
ཆེན་པོ	-10.6384
གཉིས་ཀའི་	-10.6386
དྲོད་ཁང་	-10.6387
ལག་རྩལ་གྱི་	-10.6389
གནམ་གྲུའི་	-10.6392
འཕངས་	-10.6394
སྨན་ཁང་དུ་	-10.6395
.5%	-10.6395
ཧྥན་	-10.6395
བཏིང་	-10.6395
▁ཏང་དང་རྒྱལ་ཁབ་	-10.6396
ལེགས་སུ་གཏོང་	-10.6397
འདེམ་བསྐོའི་	-10.6398
གཞི་རིམ་ཏང་	-10.6398
ཅེ	-10.6398
ཇུས་ཆོད་	-10.64
▁སྨྲས་པ།	-10.6404
གཞན་ལས་	-10.6404
ལྷོ་ཁ་	-10.6405
ལ་གཟེངས་བསྟོད་	-10.6407
▁ཁྱིམ་ཚང་	-10.641
▁ཁྲིམས་	-10.6412
སྤྲད་པའི་	-10.6414
ནས་མི་	-10.6415
བརྡ་སྤྲོད་	-10.6417
ཡུལ་ལྗོངས།	-10.6418
བཏང་བས་	-10.6418
ཐེན་ཅིན་	-10.6419
ཏང་ནང་ཁུལ་གྱི་	-10.6424
ལྗོན་ཤིང་	-10.6424
མངག་	-10.6426
བྱེད་པས་	-10.643
ཡིན་མིན་	-10.6431
བསྐྱངས་	-10.6431
827	-10.6433
མིང་གིས་	-10.6433
བླང་	-10.6436
ཆ།	-10.6436
ཐག་བཅད་	-10.6436
རྟེན་གཞིའི་	-10.6437
བརྩེ་དུང་	-10.6437
བྲན་	-10.6437
འབྱུང།	-10.6437
ལོ་རེའི་	-10.6438
གཞོན་པ།	-10.6438
བཅའ་ཁྲིམས	-10.644
མ་བྱས་གོང་	-10.644
སྣང་བར་	-10.644
▁-1	-10.6443
ཙུང་ཐུང་གི་	-10.6444
སྐར་གྲངས་	-10.6445
ཤིང་རྟ་	-10.6446
ཤེ	-10.6448
▁དང་པོ།	-10.6449
བརྒྱད་པའི་	-10.6449
▁འདི	-10.645
ཕན་ཐོགས་	-10.6451
དགེ་སློང་གིས་	-10.6452
ཆུ་ཤུར་རྫོང་	-10.6455
ན་བཤད་གནང་བ་རེད།	-10.6457
ཡིག་འབྲུ་	-10.6459
▁ཁྱིམ་བདག་	-10.6459
བྱས་པ་ལས་	-10.646
ངོར་	-10.6461
སྒྲུབ་ཐབས་	-10.6465
གདམས་ངག་	-10.6466
▁ལྕགས་	-10.6468
ལེགས་བཤད་	-10.6471
སྐྱོན་བརྗོད་	-10.6471
རོང་འབྲོག་པའི་	-10.6474
སྤྱི་ཡོངས་ཀྱི་	-10.6475
པ་ནས་བཟུང་	-10.6476
ཁ་སྣོན་	-10.6477
འགོ་བརྩམས་པ།	-10.6477
ཕྱིན་པ་	-10.6483
མི་འ	-10.6483
ཟན་	-10.6483
ཆེ་རུ་བཏང་	-10.6483
གཞི	-10.6484
ཆེད་མཁས་པ་	-10.6484
རྡོར་	-10.6487
སྔགས་ཀྱིས་	-10.6489
སྤེལ་ཏེ།	-10.6496
བདེན་པའི་	-10.6496
མི་ཤེས་པ་	-10.6497
▁དབྱང་བྷ།	-10.65
▁ཐོག་མའི་བསམ་འདུ	-10.6501
▁ཞེས་བཤད།	-10.6501
▁ཀུན་	-10.6502
རྣམ་པར་དག་པས	-10.6503
བསོད་	-10.6504
གཡང་བྷ།	-10.6506
26	-10.6508
གྲོང་ཁྱེར་ནས་	-10.6509
ལ་བརྟེན་པ་	-10.6511
རིམས་ནད་	-10.6511
མཇལ་འཕྲད་གནང་	-10.6511
▁ཡོད་པ་	-10.6513
སྲ་བརྟན་དུ་གཏོང་	-10.6515
ཏང་ཀྲི་པུའི་	-10.6516
ཀྱི་སྒོ་ནས་	-10.6516
ཁྱབ་ཁོངས་ནང་	-10.6516
▁ཞལ་	-10.6516
འི་ཡན་ལག་ཚོགས་	-10.6517
འཕེལ་རྒྱས་མྱུར་	-10.6517
འདེམ་བསྐོ་	-10.6519
འཚོ་བཅུད་	-10.6521
མང་ཚོགས་རྣམས་	-10.6522
ཉམས་ཉེན་	-10.6524
འགོ་ཚུགས།	-10.6526
འགྱུར་རོ་ཞེས་	-10.6526
ཁག་སོ་སོར་	-10.6529
▁བཞི་ནས་	-10.6533
སྔོན་མ་	-10.6536
རྣམས་ལས་	-10.6539
ཁོ་ཚོར་	-10.6539
ཐར་པ་	-10.6539
འཕྲིན་གསར།	-10.6539
བྱེད་པའི་ལས་དོན་	-10.6542
ཡིའུ་	-10.6542
སོགས་ཀྱི་ཐད་	-10.6544
▁རོ་	-10.6544
འི་ཚང་འཛོམས་	-10.6544
མཐུན་ཚོགས་ཀྱིས་	-10.6545
ཕྱུགས་ཟོག་	-10.6546
༠༠	-10.6551
འདི་སྐད་ཅེས་	-10.6551
རྨས་	-10.6553
བསམ་གཞིགས་	-10.6553
ཕྱི་མའི་	-10.6554
གཏི་མུག་	-10.6555
▁ཚེ་རིང་	-10.6555
བྱིན་པ་	-10.6556
དུད་ཁྱིམ་	-10.6563
དམངས་ཆེན་	-10.6564
གྱི་ལས་དོན་	-10.6566
དུས་ཡུན་ཉིན་	-10.6566
ཡུན་རིང་བདེ་འཁོད	-10.6566
▁སྤྱི་ཚེས	-10.6566
ཁ་ཤས་ཀྱི་	-10.6568
▁400	-10.6568
མྱེད་དེ་གཉིས་སུ་	-10.6571
འབྲེལ་ཡོད་ཀྱི་	-10.6571
ར༷་	-10.6571
སྐྱེ་ལྡན་	-10.6574
ལ་དམིགས་པའི་	-10.6576
ལོ་ལྔའི་རིང་	-10.6577
▁ལིས་ཁི་ཆང་	-10.6578
ས་གནས་ས་ཐོག་ཏུ་	-10.6578
སློབ་འབྲིང་གི་	-10.658
གཙང་གསུམ་ཆུ་འགོ	-10.6582
བཟུང་སྟེ་	-10.6583
བཅའ་	-10.6583
རོགས་སྐྱོར་བྱེད་	-10.6584
པའི་དབང་གིས་	-10.6587
ཞི	-10.6589
འགན་གཙང་ལེན་	-10.6592
བསད།	-10.6595
▁མངའ་རིས་ས་ཁུལ་	-10.6596
འདི་སྐད་དུ་	-10.6597
08	-10.6599
འདུག།	-10.66
བསྟན་ཡོད་པ་རེད།	-10.66
འདི་ལ་གཉིས་སུ་	-10.66
ལྷོ་ཕྱོགས་	-10.6602
▁ཁྱད་པར་	-10.6603
སྣང་ཆེན་བཞི་དང་	-10.6605
རྒྱལ་ཁ་རླབས་	-10.6605
གེ་	-10.6612
མཉེས་	-10.6614
▁ཡི་རིང་	-10.6616
གསུངས་བཤད་གལ་ཆེ	-10.6619
གླུ་དབྱངས་	-10.6619
ལ་མངོན་པར་	-10.6619
རྒྱུར་ཁྲིད་སྟོན་	-10.662
བཅོལ་མ་བྱས་གོང་	-10.6621
སློབ་ཐོན་སློབ་མ་	-10.6622
ཁོང་ཚོས་	-10.6622
སྙིང་པོའི་	-10.6623
སྐོར་གཟིགས་	-10.6625
ལ་དམིགས་ཏེ་	-10.6626
ས་ཁོངས་ཀྱི་	-10.6627
འཁོར་བར་	-10.6628
རླབས་ཆེའི་	-10.663
སློབ་བསྡུའི་	-10.6631
སྙི	-10.6631
བྱེད་ཅིང།	-10.6631
ཏྲ་	-10.6632
བསྒྲགས་པའི་	-10.6634
འཚམ་	-10.6635
བར་མ་	-10.6636
ལས་སོ།	-10.6638
སྒྲིག་སྦྱོར་	-10.664
000	-10.6642
༡༤	-10.6643
མི་རིགས་ས་ཁུལ་	-10.6644
ཁོ་བོ་	-10.6645
མཚོན་ཡོད།	-10.6645
སྡེ་ཁག་སོ་སོས་	-10.6646
མི་སྒེར་	-10.665
འཐུས་མི་དང་	-10.665
རེའུ་མིག་	-10.6651
▁དེའི་ཁྲོད་	-10.6653
སརྦ་	-10.6655
ཕྱི་འབྲེལ་པུའུ་	-10.6655
ནུས་པར་	-10.6656
མ་ཟིན་	-10.6656
▁ལྷག་པར་	-10.6659
སློག་	-10.666
▁གཞུང་དོན་	-10.6661
དཔོན་རིགས་	-10.6663
གཙོ་བོ་དང་	-10.6665
85	-10.6668
འཚོགས།	-10.6671
▁དེ་ལྟ་བས་ན་	-10.6672
▁1.7	-10.6675
ཞབས་འདེགས་ཞུ་	-10.6677
92	-10.6679
6716	-10.668
▁ཉིན་གྱི་སྔ་དྲོ་	-10.6681
སྦྲ	-10.6681
དོན་འཁྱོལ་ནན་ཏན་	-10.6682
དེ་རིགས་	-10.6683
རྫོང་དང་	-10.6684
ཁྱེད་ཀྱི་	-10.6684
བསྩལ་	-10.6686
གླེང་ཕྱོགས་	-10.6686
སྐྱིད།	-10.6688
▁ཅིང	-10.6689
ལས་དོན་དེ་	-10.6692
ལས་རིམ་	-10.6693
གསར་འགྱུར་དྲ་བ	-10.6694
སྔ་ཙམ་	-10.6698
མི་ཚོགས་ཆེན་	-10.6698
▁པེ་ཅིང་སྤྱི་	-10.6698
ལ་བའི་གནས་ཚུལ།	-10.67
མི་བྱ།	-10.6701
སྐབས	-10.6702
བསྡུ་སྒྲིལ་	-10.6703
ཡོད་ཆ་འཕྲིན་མེད།	-10.6704
བ་སྟེ།	-10.6706
▁010-5833	-10.6706
གང་གི་ཚེ་	-10.6708
བསྐྲུན་པའི་རྒྱལ་	-10.6708
ཏེན་	-10.6709
བྱུང་ཡོད་པ་རེད།	-10.671
རྟ་རྒྱུག་	-10.6711
དྲའི་བདེ་ཐེབས	-10.6713
ཉེ་འགྲམ་གྱི་	-10.6713
▁ན	-10.6714
འདོད་ན་	-10.6715
ལོངས་	-10.6716
12020	-10.6718
གྱོང་གུན་	-10.672
ཙུ	-10.6721
ཤུགས་ཀྱིས་	-10.6721
དབྱེ་བས་	-10.6723
ཧྲིལ་པོའི་	-10.6723
མཐོ་རྒྱུགས་	-10.6725
ཐུར་	-10.6725
ལམ	-10.6725
ཏང་དང་མི་དམངས་	-10.6725
ལྟད་མོ་	-10.6726
རྒྱུ་ཡིན་ཞིང་།	-10.6728
རྣོ་	-10.6728
ཚིག་གིས་	-10.6729
ཚོགས་པ་དང་	-10.6731
▁འཇར་པན་	-10.6733
▁110102001709-1	-10.6735
མཁའ་ལམ་	-10.6735
བབ་བསྟུན་	-10.6736
དུ་འགྱུར་	-10.6741
༨༥༠༠༠༠	-10.6741
གད་	-10.6742
ལོ་མ་	-10.6742
རྒྱལ་ཁོངས་	-10.6743
▁ཞེས་སོ།	-10.6747
བཀྲ	-10.6748
དད་ལྡན་མང་ཚོགས་	-10.6748
གྲུབ།	-10.6749
དུ་ཕེབས་ནས་	-10.6751
དངོས་གཞི་	-10.6753
སྟོབས་ཆེན་	-10.6753
དཔག་	-10.6756
ཆེད་སྒྲིག	-10.6757
ཤ་སྟག་	-10.6757
གཅིག་མཚུངས་	-10.6757
མིང་ལ་	-10.6758
▁གཞུང་	-10.6761
ས་གནས་ཁག་གི་	-10.6761
གདངས་	-10.6762
པར་མི་འགྱུར་རོ།	-10.6768
པོ་ཆེ་བརྩོན་ལེན་	-10.6768
▁33	-10.6769
རིམ་པ་བཞིན་	-10.6771
▁སྤེལ་དུས	-10.6774
ཞུགས་ནས་	-10.6775
དང་འགལ་	-10.6776
གྲོས་རིམ་	-10.6777
འགུགས་	-10.6781
▁ཨེ་ཅིབ་	-10.6782
དམངས་ཁྲོད་ཀྱི་	-10.6785
རང་གི་མཚན་ཉིད་	-10.6788
ནག་ཉེས་	-10.679
པ་དང་པོ་ཁྲིད་དེ་	-10.6791
རྩུབ་	-10.6792
▁ལག་	-10.6792
ཞེ	-10.6793
བྱང་ཕྱོགས་ཀྱི་	-10.6793
ལོན་པར་	-10.6793
ཁ་ཕུ་ཐག་བཅད་དེ་	-10.6793
མ་སྐྱེས་པ་	-10.6794
སུ་ཞིག་	-10.6796
ལས་ཞུགས་ཀྱི་	-10.6798
སྐབས་གཉིས་པའི་	-10.6799
ཚན་རིག་ཁང་	-10.6806
ཡོང་འབབ་སྒོར་	-10.6808
▁ད་ཐེངས་	-10.6811
གཏོང་དགོས་པ་དང་།	-10.6812
དཀྲིས་	-10.6816
ཞེས་པ་ནི།	-10.6817
ཁྱེའུ་	-10.6819
▁ཕྱོགས་གཉིས་པོས་	-10.6822
ལྗིད་	-10.6823
པ་རྣམས་ཀྱི་	-10.6825
ཧུའེ་	-10.6827
སྤྱི	-10.6829
ཕ་ཁི་སི་ཐན་	-10.683
ལ་ཁ་གཏད་	-10.683
ཁ་བཏགས་	-10.683
▁བློ་བཟང་	-10.6831
མང་པོ་ཞིག་གིས་	-10.6833
རོགས།	-10.6834
ྞ	-10.6834
གཉའ་	-10.6837
མ་ཟད།	-10.6838
འོང་བ་	-10.6838
ཀྱི་ཁྱད་ཆོས་	-10.6839
ཧུའུ་ཧི་ཧོ་ཐི་	-10.684
རླུང་གིས་	-10.6841
▁༡༩	-10.6843
བསྲེག་	-10.6844
བསྡུས་ནས་	-10.6845
བྲི་	-10.6845
བའི།	-10.6846
ས་སློབ་ཆེན་	-10.6846
མི་མཐུན་པ་	-10.6848
ཽ	-10.6849
ཡོད་པ་ནི་	-10.685
ཏང་གི་འགོ་ཁྲིད་	-10.6851
ཉེ་སྔོན་	-10.6853
མུའུ	-10.6854
▁ཕུའུ་ཅིན་གྱིས་	-10.6855
▁སྔར་ལས་ལྷག་པའི་	-10.6858
ཀྱི་མཉམ་ལས་	-10.6858
▁དམངས་	-10.6858
ས་རྒྱུན་ལས་ཨུ་	-10.6861
དཔོན་རིགས་ཀྱིས་	-10.6866
འགྲན་ཚོགས་	-10.6866
ཧྲི	-10.6866
79	-10.6867
འཛུགས་བསྐྲུན་	-10.6867
ཕྱེས་	-10.6871
སྲུང་སྐྱོབ་བྱེད་	-10.6872
བཞིན་ཡོད་ཟེར།	-10.6873
▁ཕྱག་རྒྱ་	-10.6873
ཧྲིལ་པོར་	-10.6875
83	-10.6878
དགུང་	-10.6878
བཅས།	-10.6879
གཏུག་བཤེར་	-10.688
བརྩོན་འགྲུས་ཀྱི་	-10.6883
རང་སྐྱོང་ཁུལ་	-10.6885
ཡི་རིགས་སོ་སོའི་	-10.6887
རྒན་པ་	-10.6887
ལ་གཞིགས་ན།	-10.6887
རྐང་འཛིན་	-10.6887
སངས་	-10.6889
གནད་དོན་གལ་ཆེན་	-10.689
དེང་སྐབས་	-10.6891
མེད་པ་ཉིད་	-10.6894
དགུང་ལོ་	-10.6897
ལྔ་པོ་	-10.6898
ཐོན་འབབ་	-10.6898
▁ཉེ་སྔོན།	-10.6898
གཞི་འཛིན་ས་	-10.6901
གོང་འཕེལ་ལ་	-10.6901
▁ལྷོ་	-10.6902
མཛད་དེ།	-10.6903
སྐུ་མདོག་	-10.6903
▁རང་བཞིན་	-10.6905
བཟང་པོར་	-10.6907
དེས་ན་	-10.691
ལྷན་ཚོགས་	-10.6911
རྒྱབ་ལྗོངས་	-10.6911
བཅས་ཀྱི་ཐོག་ནས་	-10.6913
མཛད་རྗེས་	-10.6914
ས་པེ་ཏེ་ཧི་ནས་	-10.6914
ནུས།	-10.6915
ཕྱོགས་སྟོན་	-10.6918
གྲོས་འཆམ་བྱུང་	-10.692
དེ་ཁོ་ན་	-10.692
▁སྔོན་ཆད་	-10.6923
ལག་བསྟར་བྱས་ནས་	-10.6926
དཀར་མཛེས་བོད་རིག	-10.6927
སྨྲ་བར་	-10.6928
དང་པོ་དེ་	-10.6929
དྲག་པོའི་	-10.6931
དམ་ཟབ་	-10.6931
པར་ཨང་གྲངས།	-10.6934
པེ་ཅིང་དཀྱིལ་ལམ་	-10.6935
ངེད་	-10.6937
དང་བོད་	-10.6939
མྱོང་།	-10.694
འབུ་	-10.6947
ཁྲི་ཀ་རྫོང་	-10.6947
རྒྱལ་ཁབ་ཁག་གི་	-10.695
རང་བཞིན་ལྡན་པའི་	-10.6953
བཏུང་	-10.6954
སྦ	-10.6956
ངལ་གསོ་	-10.6958
▁འདི་གའི་པར་དབང་	-10.6959
དག་གོ།	-10.6961
▁38	-10.6962
ནི་ཀྲུང་གོའི་	-10.6962
ཁྲེང་ཏུའུ་	-10.6963
མི་འབོར་དབུལ་པོ་	-10.6965
སྤེལ་ཏེ་	-10.6966
བརྟན་སྲུང་	-10.6966
དངོས་པོ་མེད་པ་	-10.6966
དངོས་གཉེར་མཉམ་ལས	-10.6968
ཉེན་ཁའི་	-10.697
31	-10.697
ཇོ་མོ་གླང་མའི་	-10.6975
འུ།	-10.698
སློབ་ཞུགས་	-10.6981
▁བདེ་བ་	-10.6983
35	-10.6985
གོ་ཆ་	-10.6987
ཐོབ་ནས་	-10.6988
བཙུགས་ནས།	-10.6997
ཕྱོགས་དང་	-10.6997
▁གཉིས་པ།	-10.6998
དམ་པའི་ཆོས་	-10.7
འདྲ་བའི་	-10.7
དྲུང་	-10.7001
བའི་ཕྱིར།	-10.7002
སྤྲུལ་སྐུ་	-10.7002
བསྟན་པས་	-10.7002
གནོད་སྐྱོན་	-10.7004
བླ	-10.7004
ཐ་དད་པར་	-10.7004
84	-10.7004
སློབ་གྲོགས་	-10.7005
གནོད་སྦྱིན་	-10.7006
77	-10.701
ཁམས་གསུམ་	-10.7011
རམ་འདེགས་	-10.7011
ཚེས་གཅིག་ཉིན་	-10.7013
བདག་ནི་	-10.7013
ཡོད་པར་མ་ཟད།	-10.7014
བར་གྱུར་པ་	-10.7014
འཇིག་རྟེན་དུ་	-10.7014
བྱས་པའི་གནས་ཚུལ་	-10.7015
ལས་རིགས་ལག་རྩལ་	-10.7015
རྫ	-10.7016
ཇ་ཁང་།	-10.7016
གྲོང་ཚོ་རིམ་པའི་	-10.7017
རིགས་ཀྱི་བུ་མོ་	-10.7019
69	-10.7022
ཟད་པ་	-10.7023
མུ་ཏིག་	-10.7024
▁སྐལ་བཟང་	-10.7026
ཀར་	-10.7029
བཞི་བ་	-10.703
བསྐྱོད་པ་	-10.7031
ཞབས་བྲོ་	-10.7031
ནེ	-10.7031
འགགས་	-10.7031
བྱ་སྤྱོད་ལ་	-10.7032
05	-10.7032
མི་ཐུབ་	-10.7033
འད	-10.7033
ལ་རྡུང་རྡེག་	-10.7045
▁གཞིས་རྩེའི་	-10.7045
ལ་ཕེབས་	-10.7045
ངན་སོང་	-10.7047
འདོན་སྤྲོད་བྱེད་	-10.7047
ང་གི་ཀྲུའུ་ཞི་	-10.7047
ཁྱེད་ལ་	-10.7048
གསར་པ་དང་	-10.7048
ཏང་གི་སྒྲིག་ཡིག་	-10.705
གི་ཀྲུའུ་ཞི་	-10.705
ཕུལ་བ་	-10.7051
ཕྱི་རྒྱལ་དུ་	-10.7052
སྒར་	-10.7053
གཤེར་	-10.7053
དང་ཐོག་	-10.7055
འདི	-10.7056
སྔར་གྱི་	-10.7059
དོག་	-10.7059
རྒྱུན་འཁྱོངས་དང་	-10.7061
ངོ་བོ་ཉིད་ཀྱིས་	-10.7063
འི་ནང་	-10.7066
བྱང་གི་	-10.7069
དགའ་ཞེན་བཞིའི་	-10.7069
མྱོས་	-10.707
ངུ་	-10.7071
▁པོའི་ཚེས	-10.7073
ངོས་ཟིན་	-10.7074
སུས་	-10.7075
མཁོ་སྤྲོད་ཕྱོགས་	-10.7075
ཨར་སྐྲུན་	-10.7076
དགའ་བསུ་	-10.7076
དབྱི་སི་རལ་གྱིས་	-10.7077
སྟོན་ཏེ།	-10.7078
ཀུའེ་	-10.7078
གཞུང་ལས་ཁང་གི་	-10.7078
འཕྲོད་བསྟེན་ཁང་	-10.7078
▁བདག་ནི་	-10.7079
བོད་རིག་པ།	-10.708
ཐང་ཆེན་དུ་	-10.7081
རྒྱལ་དོན་	-10.7081
▁རྒྱལ་ནང་།	-10.7082
མི་ཐེངས་	-10.7084
ཆུ་བོའི་	-10.7085
ཆེ་རུ་	-10.7085
ཡང་དེ་	-10.7086
དེ་བཞིན་དུ།	-10.7087
ཨུ་རུ་སི་	-10.709
ཞེས་བྱ་བས་	-10.7091
ལྡན་པའི་ངང་	-10.7093
ཨཱ	-10.7095
ཏང་ཨུའི་ཧྲུའུ་ཅི	-10.7096
ས་ཁུལ།	-10.7098
ཞིང་ཆེན་མི་དམངས་	-10.7098
དཔེ་སྐྲུན་ཁང་གིས	-10.71
ཙུང་	-10.71
ང་ཚོའི་གནས་ཚུལ།	-10.7102
རོང་འབྲོག་ཁུལ་	-10.7103
▁བོད་ཡིག་	-10.7104
༡༦	-10.7105
མི་འགྱུར་བ་	-10.7105
དང་རྒྱལ་སྤྱིའི་	-10.7105
དགུ་པ་	-10.7106
▁འདིའི་	-10.7109
བསྟན་པ།	-10.7109
འོག་ནས་	-10.7111
ཐོན།	-10.7113
སྤུས་	-10.7114
རྩད་ཞིབ་	-10.7117
▁ཉིན་ནས་བཟུང་	-10.7117
གཙང་པོ་	-10.7118
ཇོ་བོ་	-10.7118
གཏིང་ཟབ་སྤེལ་	-10.7119
བྱེ་བྲག་གི་	-10.7119
73	-10.7122
ཐང་གའི་	-10.7123
ཚེ་དབང་	-10.7124
སྤྱི་ཁོག་	-10.7127
▁གླུ་གར།	-10.7127
འབྲོག་ཁུལ་གྱི་	-10.7128
བྲེལ་ཞུ་བའི་	-10.7128
▁ཁོས་བཤད་རྒྱུར།	-10.713
ལག་ཤེས་	-10.7132
འཚོགས་ཤིང་།	-10.7133
མཁོ་འདོན་བྱས་	-10.7135
བཏང་ཡོད་པ་རེད།	-10.7137
▁རྩོམ་པོ།	-10.7142
དུས་ཆེན་སྐབས་	-10.7143
ན་ཕེན་གྱི་ལོ་	-10.7144
ལས་གཞན།	-10.7149
ཡོད་ཅེས་བསྟན་	-10.715
སྤྱི་ཚོགས་སྐྲུན་	-10.715
འུར་	-10.7153
བུམ་པའི་	-10.7157
ལུད་	-10.7158
གཏུག་བྱེད་ཡུལ།	-10.7158
▁ལས་བརྒལ་	-10.716
རྟེན་ཅིང་འབྲེལ་	-10.716
ཚུལ་ལ་	-10.716
བརྙེས་	-10.7163
0030	-10.7163
ཀྲེ་	-10.7164
ཕྱེད་ཀ་	-10.7168
ལོ་ལེགས་	-10.7171
ལོ་ལྔ་	-10.7172
རྒྱལ་ཁའི་ངང་	-10.7172
བཟོས་པ་	-10.7173
དེ་འདྲའི་	-10.7174
དཔའ་བོའི་	-10.7177
གནས་ཡུལ་	-10.7177
སོས་	-10.7181
▁མཚོ་ཉ	-10.7181
མི་རིགས་རིག་གནས་	-10.7181
ཚོགས་ཆེན་ཐོག་	-10.7181
▁བརྙན་ཟློས	-10.7185
འཛུགས་པར་	-10.7186
འབོད་སྐུལ་བཏང་བ།	-10.7187
འབྱུང་སྟེ།	-10.7189
▁0800	-10.719
མ་ཡིན་ཏེ་	-10.719
དངོས་འབྲེལ་	-10.719
ཁྲོས་	-10.7193
༣༩༦	-10.7194
ཁྱུ་	-10.7194
གྲལ་བཤེར་	-10.7194
གཏིང་ཟབ་ཏུ་	-10.7195
མགར་	-10.7195
གྱི་ཆེད་དོན་	-10.7196
ལྷས་	-10.7196
ལས་ཁུངས་ལ་བ	-10.7198
ཐེངས་དྲུག་པའི་	-10.7198
རཨང་	-10.7201
▁45	-10.7217
ཕུལ།	-10.7217
མཁའ་འགྲོ་མ་	-10.7217
ཀླད་	-10.7219
སིལ་	-10.722
འགན་སྲུང་གི་	-10.7223
འབྲི་ཆུའི་	-10.7223
གསང་སྤྱོད་	-10.7223
ལམ་ལུགས་འཐུས་ཚང་	-10.7226
40	-10.7226
པའི་ངང་	-10.7227
འགྲེ	-10.7228
མ་ཡིན་ནམ།	-10.7229
ྰ	-10.7229
དམ་འཛིན་ཡག་པོ་	-10.723
▁གཉིས་ནི་	-10.7231
▁བྱམས་པ་	-10.7236
བ་ལས་	-10.7238
▁ཡུལ་སྐོར་ལམ་ཐིག	-10.724
ན་དེ་	-10.7242
▁ཤར་	-10.7243
མི་ཁྲི	-10.7243
དང་བཅས་པར་	-10.7244
དངོས་སྒྲུབ་	-10.7245
བཟའ་བ་	-10.7245
▁ལྷ་མོ་	-10.7253
༎	-10.7253
▁མགོ་	-10.7255
ལོ་ཙཱའི་	-10.7256
མར་མེ་	-10.7256
ཧ་ཅང་མཐོང་ཆེན་	-10.7256
སྤྱན་དྲངས་	-10.7259
ལ་སླེབས་	-10.726
གྱི་ཕྱི་དྲོར།	-10.726
▁2009	-10.7261
མཐོང་བར་	-10.7264
མཚོ་སྔོན་པོའི་	-10.7265
དག་པས་ཕན་ཚུན་	-10.7266
▁བོད་ཐོ་ཨང་༠༩༠༠༠	-10.7267
སྒོ་རྟགས༤༡	-10.7267
▁༦༨༣༧༥༤༣	-10.7267
▁མཛེས་ལྗོངས་ཁུལ།	-10.7268
ངས	-10.7268
གཅད་	-10.7269
ཇི་སྙེད་	-10.7271
འོད་ཀྱི་	-10.7272
ཏང་རྩ་འཛུགས་ཀྱི་	-10.7272
ལྷོ་ནུབ་	-10.7274
དཔེ་སྐྲུན་ཁང་།	-10.7275
བྱར་མྱེད་སོ་སོ་མ	-10.7275
ཨ་མེ་རི་ཁ་	-10.7276
ལྟ	-10.7277
ངོ་བོའི་	-10.7278
ཐུབ་བསྟན་	-10.7279
བཟོ་རིག་པ།	-10.728
འབའ་	-10.7281
མི་ཆོས་རིང་ལུགས་	-10.7281
འགོས་	-10.7284
▁ཟིན་པ་དང་	-10.7284
ཤང་དུ་	-10.7285
དགྲ་བཅོམ་པ་	-10.7287
93	-10.7288
འཕྲད་པའི་	-10.7289
ཞེས་བྱ་	-10.729
རང་བྱུང་གི་	-10.7292
མ་མཐོང་	-10.7293
བཀོད་འདོམས་པུའུ་	-10.7294
ཉིང་ཁྲིའི་	-10.7294
གྲོས་མོལ་དབང་	-10.7296
ཞིབ་བཤེར་དང་	-10.7297
མཚམས་འཇོག་པའི་	-10.7298
རྒྱལ་སྲས་	-10.7299
རྫོང་།	-10.7301
ཀྱིས་ཀྱང་	-10.7302
གསལ་བྱེད་	-10.7303
▁དམངས་འཚོ་	-10.7303
གང་ན་	-10.7303
དམངས་ཀྱི་	-10.7304
དཔག་ཏུ་མེད་པ་	-10.7306
སུ་གཏོང་བར་	-10.7307
ཐམས་ཅད་ནི་	-10.7308
འཚོ་བའི་ཆ་རྐྱེན་	-10.7309
བྱང་སེམས་	-10.7312
གཡོ	-10.7313
ས་ཁུལ	-10.7314
བརྒྱད།	-10.7322
▁ཞེས་དང་།	-10.7322
རེད།།	-10.7323
▁དགུང་ལོ་	-10.7323
ལས་གཞི	-10.7324
སྙིགས་	-10.7324
ཀླ	-10.7325
སློབ་ཆེན་སློབ་མ	-10.7325
རིག་ཚན་	-10.7326
ན་སྲིད་གཞུང་གིས་	-10.7326
པར་འགྱུར་རོ་ཞེས་	-10.7328
ཡོད་ཀྱང་།	-10.733
ཚུལ་གྱི་	-10.733
ད་ལྟའི་བར་ལོ་ངོ	-10.733
▁མི་རིགས་ཀྱི་	-10.7331
གང་འདྲ་	-10.7332
▁དགེ་རྒན་	-10.7332
གཅོད་པའི་	-10.7333
ནོར་འཁྲུལ་	-10.7334
གསོའི་	-10.7336
སྲུང་སྐར་	-10.7337
གཏོད་པའི་	-10.7337
ཤིག་རེད།	-10.7337
ནུས་པ་ཐོན་	-10.7339
བྱ་བས་	-10.7339
བཟོ་བ།	-10.734
ཟིང་	-10.7341
འབྲེལ་གཏུགས་ཞལ་	-10.7341
▁43	-10.7343
▁74	-10.7343
▁རང་རྒྱལ་	-10.7344
ལས་ཞུགས་ཐུབ་	-10.7345
འདྲིས་	-10.7347
མངོན་འགྱུར་ཡོང་	-10.7349
▁ཉིན་ཤས་གོང་	-10.7355
ཀྱི་ཡོད་པ་རེད།	-10.7357
འཚོ་བ་དང་	-10.7358
གཉིས་པ་བསྡུས།	-10.7359
ཕན་བདེ་	-10.736
སི་རི་ཡཱ་	-10.7364
▁སླར་ཡང་	-10.7367
གཟུགས་ལ་སོགས་པ་	-10.7369
ཁྲུ་	-10.7372
▁འཁོར་	-10.7372
ལམ་ལུགས་ལག་བསྟར་	-10.7372
ཀྲ	-10.7374
མཚོ་བོད་ས་མཐོའི་	-10.7374
▁སྐྱེས་བུ་	-10.7375
ཕྱག་རྒྱ་ཆེན་པོ་	-10.7376
མི་འགྱུར་རོ།	-10.738
ལས་འདས་པ་	-10.738
▁མདོར་ན་	-10.738
བཀང་	-10.7381
དང་རྒྱབ་སྐྱོར་	-10.7382
▁བདེ་	-10.7382
ཚེས་ཉེར་དྲུག་ཉིན	-10.7383
.1	-10.7383
དྲུག་དང་	-10.7383
ལ་མཐོང་ཆེན་	-10.7384
▁སྤྱི་ཚེས་	-10.7384
▁སྙན་ངག་	-10.7385
བོད་ཡུལ།	-10.7387
སན་	-10.7388
འཕྲོ	-10.7388
ཤོ་	-10.7389
ཅིག་ཅར་	-10.739
མཐོར་གཏོང་	-10.7391
བསྡུས་ཏེ་	-10.7392
དགེ་འདུན་པ་	-10.7392
ཆོན་	-10.7392
དུམ་	-10.7394
སར་འགྱུར་ལས་དོན་	-10.7394
བཞི་བཅུ་	-10.7396
གཙོ་དོན།	-10.7396
འབྲལ་	-10.7399
འདས་པའི་	-10.74
ཉན་ཐོས་ཀྱི་	-10.74
ཤིག་ཡིན།	-10.7402
རྒྱང་སྐྱོད་	-10.7402
སློབ་གྲྭས་	-10.7405
རྒྱ་བོད་	-10.7406
འགན་ཁུར་བའི་	-10.7407
རྣམ་པ་བཟང་པོ་	-10.741
གློ་བུར་	-10.7411
དང་མཐུན་པ་	-10.7413
འགོ་ཁྲིད་འོག་	-10.7414
དོ་མཉམ་	-10.7414
ལྕང་	-10.7414
ལས་བརྒལ་བའི་	-10.7416
པ་རྣམས་ལ་	-10.7416
ངེས་ཅན་ཞིག་	-10.7416
ཁྱད་ཆོས་དང་	-10.7416
འགན་བཞེས་	-10.7417
བྱང་ཕྱོགས་	-10.7417
བྲོས་	-10.7417
▁སྦྲག་ཨང་	-10.7418
▁དཔལ་ལྡན་	-10.7419
ཕྱོགས།	-10.7419
རབ་འབྱོར་	-10.7421
མེད་ཀྱིས་	-10.7422
མཐའ་མཚམས་ས་ཁུལ་	-10.7422
ཕོ་མོ་	-10.7422
ཀྱི་གནད་དོན་	-10.7424
འོ་ཨར་སི་	-10.7426
རྩ་ཆེའི་	-10.7426
མངའ་ཁོངས་སུ་	-10.7427
ཧྲེན་	-10.7428
ལབ་	-10.7429
སེམས་ཅན་རྣམས་ལ་	-10.743
ཀྱིས་ཁེངས་	-10.7431
བསྲུངས་	-10.7431
ཀོ	-10.7433
བུན་	-10.7433
༩༡༠བ	-10.7434
▁༦༨༢༧	-10.7436
ཡོང་ནས་	-10.7436
དྲ་ཚུགས།	-10.7436
དང་ཀྲུང་དབྱང་	-10.7436
པེ་ཅིང་ཐོ	-10.7437
སྐུལ་སྦྲག་སྐུར།	-10.7438
རྡུལ་སྦྲག་སྐུར།ག	-10.7438
ཞེས་གསུངས་པ་རེད།	-10.7438
བཟོ་ཚོང་མཉམ་འབྲེ	-10.7438
སྙིང་རྗེ་ཆེན་པོ་	-10.7439
སྣའི་ཀུན་སྤྱོད་བ	-10.7439
ལྷུག་	-10.7443
འཇ	-10.7445
མན་ཆད་	-10.7447
▁མཁའ་མཚོ།	-10.7447
འཚོགས་པ་དང་།	-10.7448
▁ལྷག་ཙམ་ལ་	-10.7449
ཚོལ་	-10.745
ངྒ	-10.745
འཇུག་པར་	-10.745
པར་ཡང་	-10.7451
སྲིད་དོན་	-10.7453
ཇེ་དྲག་ཏུ་བཏང་	-10.7454
ར་བའི་	-10.7454
གཞོང་	-10.7454
དམར་དམག་	-10.7458
འདུ་ཤེས།	-10.7459
ཕུར་བུ་	-10.7459
གཙང་སྦྲ་	-10.7463
མུ་སྟེགས་	-10.7464
འགུག་	-10.7464
ལ་དབང་	-10.7464
འགོ་བརྩམས།	-10.7465
ལ་སོགས་པ་ནི་	-10.7468
ངམ།	-10.7472
བྱ་ཡུལ་གྱི་	-10.7475
བཞིན་གྱི་སྡོད་ཁང	-10.7478
ཆོག་པ་	-10.7479
ལྟ་སྐྱོང་	-10.748
ྣ	-10.7481
དགོས་མཁོ་སྐོང་	-10.7484
ཟིན་ཐོ་	-10.7485
འབྲོང་	-10.7486
དགའ།	-10.7487
ཆུང	-10.7487
ཝུའུ་དབྱིང་ཅེ་	-10.7488
སྟོང་ཉིད་	-10.7491
དུ་མར་	-10.7492
གས་ཀྱི་	-10.7492
ཨུ་ཡོན།	-10.7493
གཙུག་	-10.7493
སྐབས་དེར་	-10.7495
མུ་མཐུད་ནས་	-10.7497
གང་ཡིན་པ་དང།	-10.7497
ཡིན་ཞིང་	-10.7498
གྲོས་མོལ་མཛད་པ།	-10.7499
ཡུལ་སྐོར་ཆ་འཕྲིན	-10.75
ཡོ་ནན་	-10.7502
རྒྱལ་སའི་	-10.7503
▁ཡང་དག་པའི་	-10.7503
ཆུང་བའི་	-10.7504
ཆུ་ལོག་	-10.7504
▁ཞིང་འབྲོག་	-10.7505
བཞག་སྟེ་	-10.7505
ལིག་	-10.7505
དེ་ཉིད་ཀྱི་ཕྱིར་	-10.7506
ཧན་གོའི་	-10.7507
སྟེང་།	-10.7508
ཆ་སྒྲིག་	-10.7508
བཙོང་	-10.7508
བརྟན་པོར་	-10.7509
ལོ་ན་	-10.7509
མི་དགོས་པར་	-10.7509
▁བརྙན་གཟིགས།	-10.7511
ཡུལ་སྐོར།	-10.7511
རྒྱུ་མ་ཟད།	-10.7513
མེ	-10.7517
▁རྩ་	-10.7518
སྲ་བརྟན་དང་	-10.7522
གིན་	-10.7523
ལས་གཞི་ལག་བསྟར་	-10.7523
▁སྙིང་	-10.7525
མ་འོངས་པ་	-10.7525
མྱང་	-10.7526
ཇ	-10.7528
འགོ་ཚུགས་ཤིང་།	-10.7528
གཏོང་ཆེད་	-10.753
སྡོད་པའི་	-10.753
ཁོ་ནའི་	-10.7531
ལྷགས་	-10.7531
▁ལྷག་ཙམ་ཟིན་	-10.7534
གྱུར་ན།	-10.7535
སྤྱོད་པའི་ཚེ།	-10.7535
མི་འདོད་	-10.7537
▁ཀཽ་ཤི་ཀ་	-10.7538
ཞིག་ཏུ་གྱུར་ཡོད།	-10.754
གངས་རིའི་	-10.754
རྒྱུར་སྐུལ་མ་	-10.754
▁བོད་ལྗོངས་ནས་	-10.7543
ཧྲིལ་པོ་	-10.7544
པའི་ཚེ་	-10.7545
ནམ་མཁའ་ལ་	-10.7546
སྙན་རྩོམ་	-10.7547
མངོན་པར་འདུ་	-10.7547
ཕྱུགས་རིགས་	-10.755
འཆིང་	-10.7551
རྩ་ཆེན་	-10.7551
ཁྲའོ་ཞན་གྱི་	-10.7552
བསྒོམ་པར་བྱའོ།	-10.7556
འགོ་ཚུགས་པ་དང་།	-10.7558
དམངས་ཚིས་	-10.7558
ཀ་ར་	-10.7558
དེང་	-10.7559
ཆེན་པོ་ཐེབས་	-10.7561
བླངས་པ་	-10.7562
དམངས་སྤྱོད་	-10.7564
སྡེ་ཚོགས་ཀྱི་	-10.7565
ལོ་གཉིས་	-10.7566
སུས་ཀྱང་	-10.7568
ཁྱིམ་མི་	-10.7569
ལེང་	-10.7573
བརྗོད་པར་	-10.7573
གྱིས་བཤད་རྒྱུར།	-10.7574
རྣམ་པ་གསར་བ་	-10.7574
དྭངས་གཙང་	-10.7575
དཔྱད་གླེང་	-10.7576
▁༨	-10.7578
ཝུའུ་དབྱིང་ཅེས་	-10.7578
དུད་ཚང	-10.7581
▁ཨ	-10.7582
བར་གྱུར་	-10.7582
ལྷ་ཡི་	-10.7583
ཟི་ལིང་ནས་ཚོགས།	-10.7583
གྱུར་པས་	-10.7588
སྤྱན་རས་གཟིགས་	-10.7589
གནང་བ་མ་ཟད།	-10.7592
ཉིས་བརྒྱ་	-10.7592
ཕྱག་རྒྱའི་	-10.7592
བྱས་པ་དེ་	-10.7592
འགན་སྲུང་རང་	-10.7594
91	-10.7595
དགོས་ཀྱི་ཡོད།	-10.7595
ཁོར་ཡུག་སྲུང་	-10.7596
དང་མཐུན་སྦྱོར་	-10.7596
འདེམས་བསྐོའི་	-10.7599
ཚེས་བཅུ་གཉིས་ཉིན	-10.7599
དྭ་ཕྲུག་	-10.7601
70	-10.7602
ཤར་ཕྱོགས་ཀྱི་	-10.7603
དགར་	-10.7604
ཆུང་གྲས་	-10.7605
ཡེ	-10.7606
སློབ་པ་	-10.7607
ཕྱིར་དང།	-10.7608
བར་འགྱུར་བ་	-10.7609
འཕར་སྣོན་བྱུང་	-10.761
སྤྲད་པ་རེད།	-10.7611
ལེན་པར་	-10.7612
དོན་འཁྱོལ་བྱེད་	-10.7613
▁ཁོང་གིས	-10.7613
གྲོང་བརྡལ་	-10.7616
སློབ་ཁང་	-10.7616
ཁོང་ཚོ་	-10.7618
ལན།	-10.7618
ཁེ་ལས་ལ་	-10.7619
རྗེས་སུ་འབྲངས་	-10.7621
ཞེས་བྱ་བ་སྟེ།	-10.7622
གློག་བརྙན	-10.7622
མཛད་ནས་	-10.7624
ཁོར་	-10.7625
དངུལ་ཁང་གི་	-10.7626
འགག་པ་	-10.7627
▁ས་ཁུལ་	-10.7628
བོད་རིགས་ཀྱི་	-10.7628
བཤད་པའོ།	-10.7628
རྒྱལ་ཁབ་སོ་སོའི་	-10.7628
ཡིད་དབང་འཕྲོག་	-10.7629
པོད་	-10.7629
ས་སྐབས་བཅུ་གཅིག་	-10.763
ཡིན་ཐ་མྱི་དད་ད	-10.7631
ཡོད་ཅིང་	-10.7632
ལུན་	-10.7633
▁སྐབས་འདིའི་	-10.7635
འཛུགས་པ།	-10.7636
ཨུད་	-10.7638
ཕོད་	-10.7638
ཕུན་སུམ་ཚོགས་པའི	-10.7638
ཡས་	-10.7639
ཡུལ།	-10.7639
▁36	-10.7639
ལས་དོན་སྙན་ཞུ	-10.7642
▁ཁོང་ཚོས་	-10.7643
ཧྥུ	-10.7644
▁དེས་ནི་	-10.7646
ཧེ	-10.7647
རྒ	-10.7648
བཟོ་བཀོད་	-10.7648
མགོ་ཁྲིད་པས་	-10.7649
སྲུང་སྐྱོང་།	-10.765
ཚད་ལེན་	-10.7653
གཞན་པའི་	-10.7654
བཙུགས་པ་དང་	-10.7654
ཐམས་ཅད་དང།	-10.7655
དུ་སོང་	-10.7656
འགྱུར་གྱི་	-10.7656
བསླབ་བྱ་	-10.7657
ཡུལ་དངོས་ནས་	-10.7659
ཙམ་ཡང་	-10.7661
ཆེན་པོ།	-10.7661
འཆམ་	-10.7661
ནུས་པ་འདོན་	-10.7663
མ་མཆིས་པ་	-10.7663
▁རྩ་འཛུགས་	-10.7664
གཙོད་	-10.7664
ཉོ	-10.7664
མཇལ་འཛོམས་གནང་བ།	-10.7665
དབུས་ཀྱི་	-10.7665
བཞི་ལ་	-10.7666
རྒྱལ་རོང་	-10.767
བཟོས་ཏེ་	-10.7672
བྱེད་པའི་བྱ་བའི་	-10.7673
ནད་ཀྱི་	-10.7674
བཙས་	-10.7674
བཤད་ན་	-10.7675
གཏམ་བཤད་སྤེལ་	-10.7675
▁ཉོན་མོངས་པ་	-10.7677
པ་རིན་ཆེན་མཚོ།	-10.7678
དུ་བཏང་།	-10.7679
ཚོང་པ་	-10.768
རྒྱལ་ཕྲན་	-10.7681
རྨོ་ཞིང་	-10.7682
དང་རྣམ་པ་ཀུན་ཏུ་	-10.7682
ལ་བརྟེན་པའི་	-10.7683
དྲིལ་སྒྲོག་པུའུ་	-10.7683
71	-10.7685
རང་བདག་	-10.7686
ཉེས་བྱས་སོ།	-10.7687
འཕང་	-10.7687
འབོར་	-10.7688
སེམས་ཅན་གྱི་དོན་	-10.7689
འབྲེལ་བློན་ཆེན་	-10.769
བྱ་རྒྱུ་དང་	-10.7691
ཆེ་རུ་གཏོང་བ།	-10.7692
རྩ་འཛུགས་པུའུ་	-10.7697
རྨོངས་པ་	-10.7699
▁:	-10.7702
རྨས་མ་	-10.7702
དྲུང་ཡིག་ཆེན་མོ	-10.7702
ཀྱི་འདུ་ཤེས་	-10.7703
ཉག་	-10.7703
རི་པིན་	-10.7705
ཤུན་	-10.7707
དུག་འགོག་	-10.7708
འཛེམ་	-10.7709
ལྡེབས་རིས་ཤིག་	-10.7712
སྨན་གྱི་	-10.7712
པ་ཚོས་	-10.7714
འགོ་བཙུགས་	-10.7715
ཡུལ་ཅན་	-10.7718
པའི་ཚེས	-10.7719
པའི་སེམས་	-10.772
བརྒྱབ་པའི་	-10.772
འཁྱུད་	-10.7722
ཡུལ་སྐོར་ལས་རིགས	-10.7722
▁དེ་ལས་གཞན་	-10.7726
ཀྵ་	-10.7728
ཏང་ལ་	-10.7728
ཞེ་ན་	-10.7729
༡༩	-10.7729
ཡང་ན་	-10.7733
ཁྱེད་ཀྱིས་	-10.7735
གྲོགས་པོའི་	-10.7735
▁34	-10.7736
པར་མི་བྱའོ།	-10.7738
སྦྲང་	-10.774
དུ་གཏོང་བའི་	-10.7742
བགྲང་	-10.7742
གྱེན་དུ་	-10.7748
མཐར།	-10.7748
བརྒྱན་པ་	-10.7749
ད་ཐེངས་ཀྱི་	-10.775
ནམ།	-10.775
ཥ་	-10.7754
གསར་དུ་རྙེད་པ།	-10.7756
གོ་དོན་	-10.7756
▁སྦྲག་ཨང	-10.7756
ཐ་སྙད་དུ་	-10.7756
ཞི་ཅིན་ཕེན་	-10.7757
རྟོག་པའི་	-10.7757
དྲང་གཞག་	-10.7762
ལྷན་ཅིག་སྐྱེས་	-10.7763
བཀུག་	-10.7766
དྲ་ཐོག་ནས་ཕབ་	-10.7769
ཞིང་ཆེན་དམངས་	-10.777
སྔ་མའི་	-10.7771
ལོ་རྒྱུས་དང་	-10.7771
▁བརྙན་སྐྱེལ།	-10.7771
རྒྱུན་རྣམ་	-10.7773
གོ་སྐབས་དམ་འཛིན་	-10.7773
བསྐྱོད་ནས་	-10.7774
▁ལོའི	-10.7775
བཅར་	-10.7775
ཤིག་ཏུ་	-10.7776
མ་ཡིག་	-10.7777
འདེམ་	-10.7777
མི་བྱེད།	-10.7779
འགྱེད་	-10.7779
▁ལོར་མཚོ་སྔོན་	-10.7782
ཅིར་	-10.7782
དེ་ལྟར་ན་	-10.7789
འདང་	-10.7789
སྲེད་	-10.7789
ལྗོངས་ལྷ་ས་གྲོང་	-10.7789
མཐོ་རིས་	-10.7789
ཡུ་	-10.7789
78	-10.7792
▁ཁོང་གིས།	-10.7792
འཚམས་འདྲིར་ཡོང་བ	-10.7795
ཆུ་གློག་	-10.7796
ཉེ་འཁོར་གྱི་	-10.7796
འཚོ་སྡོད་	-10.7798
གྱིན་	-10.7798
གདན་ཞུའི་	-10.7799
གནས་སྐབས་སུ་	-10.7799
ཤིས་ཚིག་	-10.7801
དུ་གྱུར་པའི་	-10.7802
▁2008	-10.7803
རྗེ	-10.7807
▁སྟོབས་	-10.7807
གྲྭ་ཚང་	-10.7809
ཆབ་མདོའི་	-10.781
རྨ་ཆུའི་	-10.781
རིགས་པས་	-10.7811
འགྲིམ་	-10.7813
གང་ལས་	-10.7814
▁ལྷག་ཕྱིན་པའི་	-10.7814
▁འདིས་ནི་	-10.7816
འགོ	-10.7817
གནའ་ཤུལ་	-10.7818
དཔྱད་དཔོག་	-10.782
ཨི་	-10.7823
ཉིན་གྱི་ཕྱི་དྲོ་	-10.7823
བྱ་གཞག་ལ་	-10.7824
རྟའི་	-10.7829
སྤོར་	-10.7829
སྤྱི་འབོར་	-10.7829
▁ཟས་	-10.7831
ཆིངས་ཡིག་	-10.7831
ཁག་བགོས་	-10.7833
ང་ཆ་སྤྲད་མེད་ཚེ་	-10.7833
གྲངས་ཀ་	-10.7835
ཁྱེར་རྡོ་སེང་གེ་	-10.7835
8.	-10.7837
▁བདུད་	-10.7837
རྩིས་སྤྲོད་	-10.7838
གན་རྒྱ་དང་ད	-10.7838
ཚི་	-10.7839
གཞ	-10.7839
མི་ཆོགསྡོད་གནས།	-10.7841
སྒྱུ་མའི་	-10.7842
ས་མ་	-10.7844
ཞང་ཀང་	-10.7845
ངོམ་	-10.7845
ང་བདག་ཡིན་པས་	-10.7847
གཙུག་ཏོར་	-10.7847
ལམ་སྒོ་ཨང་༣༦	-10.7847
གྱི་པར་དབང་ར	-10.7849
▁ཅི་སྟེ་	-10.785
བདུད་ཀྱི་	-10.785
མི་ལུས་	-10.7856
བཟོ་མཁན་ལས་ཁུངས།	-10.7856
ཆེ་རུ་འགྲོ་	-10.7856
ཐོ་ཨང་༠༩༠༠༠༧༣༣	-10.7858
3%	-10.7858
སྲིད་ཀྱི་སྐོར	-10.7861
▁ལིའུ་	-10.7861
མཚན་ཉིད་ཀྱི་	-10.7862
པར་བརྟེན་	-10.7863
ཐེག་པ་ཆེན་པོའི་	-10.7863
མདོ་སྨད་	-10.7863
མངའ་ཁོངས་ཀྱི་	-10.7864
ཀྲུའུ་རིན་	-10.7864
དྲན་པ་ཉེ་བར་གཞག་	-10.7865
ལྕག་སྐུལ་	-10.7868
ད་བར་	-10.7869
▁ཉན་ཐོས་	-10.787
དཔྱད་པ་	-10.787
ནང་བཅུག་	-10.787
ཆིག་སྟོང་	-10.7873
བརྡ	-10.7881
བསུས་	-10.7881
.4%	-10.7882
ཤོག	-10.7882
སེང་གེའི་	-10.7883
ལས་འཁྱུར་ངལ་གསོ་	-10.7884
རློམ་སེམས་སུ་	-10.7884
གྲོང་གསེབ་ཏུ་	-10.7884
མཚོ་ལྷོ་	-10.7887
ཁང་བ་	-10.7888
▁གནམ་	-10.7888
གཅིག་གྱུར་གྱིས་	-10.7889
རྫོགས་སོ།	-10.789
མ་རིག་པ་	-10.789
རང་རིག་	-10.7892
▁འདི་ལོའི་	-10.7893
▁ཉིན་གྱི་ཆུ་ཚོད་	-10.7893
བཞད་	-10.7893
ཏང་བཅོས་སྐྱོང་	-10.7894
འགྲུབ་པ་	-10.7895
རར་	-10.7896
ཚེས་བཅུ་བདུན་ཉིན	-10.7897
ལྷུ་ཚིགས་	-10.7897
བཞུགས་བློན་ཆེན་	-10.7898
ནི་བོད་ཀྱི་	-10.7901
བརྟགས་པ་	-10.7902
འཛིན་པར་	-10.7904
ལ་གྲོས་བསྡུར་	-10.7905
▁ཞི་ཅིན་ཕིང་གིས།	-10.7905
ལྷོ་ཁ་ས་ཁུལ་	-10.7906
▁རྒྱལ་ཁབ་ཀྱིས་	-10.7906
མི་རྣམས་ལ་	-10.7907
འཐབ་འཁྲུག་	-10.7909
བརྩོན་པ་	-10.7909
སྐྱིད་རོང་	-10.7909
གལ་ཆེ་	-10.791
བསྡུའི་	-10.7911
རྩེར་སོན་	-10.7912
གནས་སྤོའི་	-10.7912
ནང་སོག་	-10.7913
བཤིག་	-10.7913
པའི་འགས་གཏོར་	-10.7913
ཁ་པར།	-10.7915
གཏོགས་པ་	-10.7915
ཤུག་	-10.7916
བྱང་ཤར་	-10.7918
གདབ་	-10.7919
སྡེ་ཁག་དང་	-10.7919
▁ཞབས་ཕྱི།	-10.7922
སློབ་གྲྭ་ཆེན་མོ་	-10.7924
ཕྱིན་ཡོད།	-10.7927
མཚར་	-10.793
བྱེད་ཐབས་སྤྱད་དེ	-10.7932
གྲོས་ཁང་	-10.7935
དབྱི	-10.7937
▁རྐང་	-10.7937
ཅན	-10.7938
འཚོ་བའི་ཁྲོད་	-10.7939
ཁོངས་ཀྱི་	-10.7939
པར་འགྱུར་བའི་	-10.7942
༢༤	-10.7943
▁ཀུན་དགའ་བོ་	-10.7944
འོ།།	-10.7945
སྔོན་མའི་	-10.7946
སྒྲུབ་པར་བྱེད་པ་	-10.7949
པས་ཀྱང་	-10.795
ན་ཆུང་	-10.795
གསོ་སྦྱོང་གི་	-10.7951
འཆར་འགོད	-10.7952
རྣམ་པར་གཞག་པ་	-10.7954
ཧིན་རྡུ་ཉི་ཞི་ཡ	-10.7954
ལས་ཞུགས་ལས་གཏོད་	-10.7954
གཉེན་ཉེ་	-10.7955
ལ་འགྱུར་བ་	-10.7956
ཚད་ཡོད་ཀུང་སིའི་	-10.7956
གཙོ་འཛིན་	-10.7957
རྣམ་གྲངས་ལ་	-10.7959
སྤྲུལ་པའི་	-10.7962
ཀ་བ་	-10.7963
རྒྱས་བཤད་	-10.7964
འཕྲིན་ཡིག་	-10.7965
ཡོད་དམ།	-10.7965
ཁང་པའི་	-10.7967
▁ཧན་	-10.7969
འགལ་ཟླ་	-10.797
འཛད་སྤྱོད་པའི་	-10.7971
བྱ་འགུལ་གྱི་	-10.7971
ཞང་ཞུང་	-10.7975
དགའ་སྤྲོ་	-10.7976
ཐུབ་ནས་	-10.798
པ་ཡིན་	-10.7981
གས་པ་	-10.7981
དཀོན་པའི་	-10.7983
▁དབྱི་སི་རལ་	-10.7985
མི་སྲིད།	-10.7986
29	-10.7987
▁100%	-10.7988
མཐའ་མཚམས་ཀྱི་	-10.7989
ལས་ཁུངས་ལ་	-10.7989
ཉིན་ཤས་གོང་	-10.799
སྙན་གྲགས་	-10.7991
དམ	-10.7991
འདོད་ཡོད་	-10.7992
པའི་མཚན་ཉིད་	-10.7992
གདམས་	-10.7994
བརྡ་འཕྲིན་	-10.7995
སྦྲག་	-10.7997
གླེང་གཞི་	-10.7999
བྱ་བ་སྣ་ཚོགས་	-10.7999
མ་ཎི་	-10.8
ཐེ་ཝན་	-10.8002
འཆད་པ་	-10.8002
ལ་སྐུལ་མ་	-10.8002
▁ཞེ་སྡང་	-10.8002
▁ང	-10.8004
ན་གནས་པའི་	-10.8005
ཆེ་རུ་བཏང་ནས་	-10.8008
ཆོས་ཐམས་ཅད་ཀྱི་	-10.8009
ས་རྒྱུན་ལས་	-10.8011
ཆེ་བས་	-10.8014
ྫ	-10.8014
▁4.	-10.8015
བརྒྱུད་དེ།	-10.8016
ངོ་ཚ་	-10.8019
རྒྱ་ཆེ་	-10.8019
དུས་མཚུངས་	-10.802
ཉིན་གྱི་སྔ་དྲོར་	-10.802
རྒྱུ་ཡིན་པ་	-10.8021
མཆོང་	-10.8022
མུ་འབྲེལ་	-10.8022
ཧྲ	-10.8023
རྡ	-10.8024
ལིས་ཁི་ཆང་གིས་	-10.8025
▁ཝང་ཅན་ཅོན་གྱིས་	-10.8026
མགོ་རྩོམ་པའི་	-10.8029
མ་ལ་	-10.803
▁ཁ་པར་པར་གཞི་	-10.803
ཀྲོང་	-10.8032
དགེ་ལུགས་པའི་	-10.8034
པར་དབང་	-10.8037
མཛེས་ལྗོངས།	-10.8038
ཕ་རོལ་ཏུ་ཕྱིན་	-10.8042
འགྱུར་མེད་	-10.8043
▁དུག་	-10.8044
སྤྲེལ་	-10.8044
ལག་བསྟར་བྱེད་པ།	-10.8045
རྐ	-10.8045
ལ་འཇུག་	-10.8047
ལོ་འཁོར་གྱི་	-10.8048
སེམས་ནང་	-10.8048
རྒྱུའི་ཐད་	-10.8048
ཁྱབ་སྒྲོག་	-10.8051
དྲན་སྐུལ་	-10.8051
འགྲུལ་བཞུད་	-10.8051
ནུབ་བྱང་	-10.8052
ཝུའུ་ཁི་ལན་	-10.8053
ལ་མཇལ་འཕྲད་གནང་	-10.8055
རང་རྒྱལ་གྱིས་	-10.8055
དགའ་པོ་	-10.8058
རྣ	-10.8058
ཀྲུའུ་རིན་གཞོན་པ	-10.8059
སྤྱིའི་ཆ་ནས་	-10.806
བྱེད་སྒོར་ཞུགས་	-10.8061
ཅི་རིགས་	-10.8063
གཞི་ཚུགས་	-10.8063
སྐོམ་	-10.8064
ཧན་གོའི་ཙུང་ཐུང་	-10.8066
▁བརྩོན་འགྲུས་	-10.8067
གཞོལ་	-10.8067
མངོན་ཡོད།	-10.8069
འཐབ་འཛིང་	-10.8069
འཕར་བའི་	-10.807
འདུག་ཅེས་	-10.807
རྒྱུ་རེད་ཅེས་	-10.8071
ལམ་ལུགས་དང་	-10.8072
▁རང་རྒྱལ་གྱིས་	-10.8073
རྒྱ་ཁྱབ་	-10.8073
▁གཞན་ཡང་།	-10.808
རྒྱལ་སྤྱི།	-10.808
ནད་ཡམས་	-10.8081
བཟོ་བ་དང་	-10.8082
▁བོད་རིགས་	-10.8082
པེ	-10.8086
གྱི་སྒོ་ནས་	-10.8087
སྒོ	-10.8088
བྱས་པར།	-10.8088
སྐྱོན་བྲལ་ངང་	-10.8089
97	-10.8089
གཏོང་དགོས་ཞེས་	-10.809
གཟེར་	-10.809
ལྷོ་ཁ་ས་ཁུལ་གྱི་	-10.809
ཚུན་དུ་	-10.8091
གྱུར་ཏེ།	-10.8095
མ་དངུལ་གྱི་	-10.8095
འདུ	-10.8097
བཙོངས་	-10.8098
ངོས་ཀྱི་	-10.8098
འཇོག	-10.8098
ཇེ་ལེགས་སུ་གཏོང་	-10.8098
བློན་པོ་	-10.8099
དཀར་མཛེས་	-10.8099
འགྱོད་	-10.81
བོད་རིག་པའི་སློ	-10.81
ཁ་ནས་	-10.8101
གཡས་གཡོན་	-10.8101
བདེ་འཇགས།	-10.8101
ལས་བཟོ་བ་	-10.8102
བསྟན་པ་ཡིན་ནོ།	-10.8103
ལྷོ་ཕྱོགས་ཀྱི་	-10.8103
གཅིག་པའི་	-10.8104
ཆོས་འཕེལ་	-10.8104
ཡིན་ནོ་ཞེ་ན།	-10.8105
ཁོ་མོའི་	-10.8106
སྤེལ་བར་གཞིགས་ན།	-10.8109
ཡོང་།	-10.8111
▁རིམ་ཁག་	-10.8111
ལས་སྐྱེས་པའི་	-10.8112
ཇེ་མང་དུ་སོང་	-10.8114
གཅིག་སྡུད་ཐོག་	-10.8114
ཤུ་	-10.8115
བསམ་འཆར་བསྡུ་ལེན	-10.8115
མཐའ་མའི་	-10.8115
བསམ།	-10.8119
སེམས་ཅན་དམྱལ་བ་	-10.8121
རྣམ་གཞག་	-10.8122
ནྟ	-10.8123
མི་རིགས་ལས་དོན་	-10.8124
▁རྒྱལ་བ་	-10.8124
གཏོང་།	-10.8126
ཉེས་བྱས་	-10.8126
གཞིར་བཟུང་ནས་	-10.8127
དང་ལེན་བྱེད་	-10.8128
མཐུས་	-10.813
གུ	-10.8132
གཏ	-10.8132
དང་པོ	-10.8135
དམངས་སེམས་	-10.8137
བྱའོ་ཞེས་	-10.8137
མཆིན་	-10.814
དེ་ཉིད་ལ་	-10.814
དངོས་འབེབ་	-10.8141
སྔ་མ་བཞིན་དུ་	-10.8142
བསུ	-10.8145
བྱིན།	-10.815
ཁྱབ་གདལ་གཏོང་	-10.8152
ཟང་ཟིང་	-10.8154
རྡོ་རྗེ་སེམས་དཔ	-10.8159
65	-10.8162
གྲོས་གཞིར་	-10.8164
སླེབས་པ་	-10.8165
དུ་ཕྱིན་	-10.8165
ད་ལོ་	-10.8166
ལག་བསྟར་བྱས་ཏེ་	-10.8167
▁བརྗོད་དོན་གཙོ་	-10.8169
གཡོ་བ་	-10.817
གཏོང་མཁན་	-10.817
འདི་ལོའི་	-10.817
▁ཉོན་མོངས་	-10.817
བསྡུས་ཤིང་།	-10.8171
ཟློས་	-10.8172
ཡིད་འོང་	-10.8172
མྱུར་བགྲོད་གཞུང་	-10.8173
ཤཱཀྱ་	-10.8174
གློད་	-10.8175
45	-10.8179
རུལ་	-10.818
▁གཡོན་	-10.8181
ལས་བྱུང་	-10.8181
▁མཚོ་ནུབ་ཁུལ་	-10.8181
ཤོག།	-10.8185
དང་གྲོས་མོལ་	-10.8186
བྱུང།	-10.8187
ནག་ཆུ་	-10.8188
ཐ་དད་པའི་	-10.8189
གསུང་གི་	-10.8189
གན	-10.8189
ཕན་ཚུན་ལ་	-10.819
མྱོང་རོལ་	-10.8191
དབྱི་སི་རལ་	-10.8191
དམག་མིའི་	-10.8193
ཉུང་དུ་གཏོང་	-10.8193
བཞིན་ཡོད་ལ།	-10.8194
བཅས་ཀྱི་ཐད་	-10.8196
སྐོར་ནས་	-10.8199
འོས་སློབ་གསོའི་	-10.82
ཚན་རིག་ལག་རྩལ་	-10.8202
ཁྱབ་པའི་	-10.8204
བསྡུ་རུབ་	-10.8204
ཡོམ་	-10.8208
གློག་གཏོང་	-10.8208
གྲོང་མིས་	-10.8211
འཆར་གཞི	-10.8212
བ་གླིང་གིས་དགེ་	-10.8215
ཡང་དག་པ་ཇི་ལྟ་བ་	-10.8218
བཟའ་བཅའ་	-10.8218
ཕེན་	-10.8218
བདུད་རྩིའི་	-10.822
རི་ཆུ་	-10.822
སྐུལ་འདེད་བཏང་།	-10.8221
ཆོས་རྒྱལ་	-10.8222
▁90	-10.8223
འདི་དག་གི་	-10.8224
འཁོར་ལོས་སྒྱུར་བ	-10.8226
རཱ	-10.8227
སྔར་བས་ཆེ་རུ་	-10.8229
སྦ་	-10.823
གཉིས་ཀར་	-10.823
གནས་ཚུལ་དངོས་	-10.823
▁དེའང་	-10.8232
▁ཧྥ་རན་སིའི་	-10.8232
ཧྲོ	-10.8234
▁ཤིན་ཧྭ་དྲ་བའི་	-10.8234
འགོ་རྩོམ་	-10.8235
ཐུབ་ཀྱི་	-10.8235
འཛུགས་པ་དང་།	-10.8235
ངལ་རྩོལ་ནུས་ཤུགས	-10.8236
ཐེངས་བཅུ་དགུ་པ་	-10.824
སྒྲ་ནི་	-10.824
བོད་སྐད་ཡིག་	-10.8241
▁སྟག་	-10.8244
དམའ་བ་	-10.8245
མཛད་དོ།	-10.8245
ལོ་རྒྱུས་ཐོག་	-10.8246
ཀྱི་སྲོལ་རྒྱུན་	-10.8247
ལྟུང་	-10.825
སུ་གྱུར་	-10.825
བྲལ་བ་	-10.8251
ཅན་དུ་འགྱུར་	-10.8251
འོས་སྦྱོར་ལེ་ཚན།	-10.8252
དགུ	-10.8253
མ་བུ་	-10.8253
ཀྱི་རང་བཞིན་	-10.8255
གང་ཡོད་	-10.8255
ཕྱིན།	-10.8256
པའི་དུས་	-10.8257
ཡུལ་ཤུལ་ཁུལ་	-10.8257
སྣེ་འཁྲིད་	-10.8259
གཡོས་	-10.826
མཐོ་རུ་ཕྱིན་	-10.826
▁དང་སྐར་མ་	-10.826
ལྷག་བསམ་ཟོལ་མེད་	-10.826
▁ཤཱ་རིའི་བུ་	-10.8261
དེ་སྔོན་	-10.8261
ཀྱི་གནས་ཚུལ་	-10.8262
འཛེགས་	-10.8262
རོལ་མོ་	-10.8263
ཚེས་བཅུ་གསུམ་ཉིན	-10.8263
▁གང་དུ་	-10.8264
བཅུ་པའི་	-10.8269
རྫས་འགྱུར་	-10.8269
▁གསར་དུ་	-10.827
▁ཉིན་ནས་ཚེས	-10.8271
སྒྱུ་རྩལ།	-10.8272
ཞེས་བྱ་བ་ལ་	-10.8272
ཨེ་ཤ་ཡའི་	-10.8274
ཨེ་ཤེ་ཡའི་	-10.8274
ཞིབ་ཀློག་བྱེད	-10.8274
ནི་རྡོ་རྗེ་	-10.8275
སྐྱེས་ནས་	-10.8277
07	-10.8281
81	-10.8281
▁གླིང་	-10.8282
རི།	-10.8285
ཅུས།	-10.8285
མེད།།	-10.8285
ཡོང་རྒྱུ་	-10.8286
བྱེད་རྒྱུ་ནི་	-10.8286
ཚད་གཞིའི་	-10.8287
ཧུ	-10.8287
མལ་གྲོ་གུང་དཀར་	-10.8287
གྲོལ།	-10.8287
བ་བཅས་ཀྱི་	-10.8289
པགས་	-10.829
སྩལ་	-10.8298
ལ་འཚམས་འདྲི་བྱས།	-10.8298
སྐུ་གསུང་ཐུགས་	-10.8298
སྡེ་དམངས་	-10.8299
▁སྲིད་འཛིན་	-10.8301
ས་ཀྱིས་	-10.8303
གནད་འཁེལ་	-10.8304
དུ་བཅའ་སྡོད་	-10.8305
ཡིག་ཆའི་	-10.8305
རྒྱུན་སྲིང་	-10.8307
གང་ཡིན་པ་དེ་ནི།	-10.8309
ཡུལ་དེའི་	-10.8309
དུག་རྫས་	-10.8309
ཨེ་ཅིབ་ཀྱི་	-10.831
དེ་སྐད་ཅེས་	-10.8311
རྒྱལ་སྤྱི་དང་	-10.8312
ཞིབ་དཔྱོད་ཁང་གི་	-10.8313
ངལ་ནུས་	-10.8314
བརྒྱུད་སྤྲོད་	-10.8316
པར་བྱེད་དེ།	-10.8317
ར་ཁང་ནས་ག	-10.8319
སྡོད་ཁང་གི་	-10.8321
ཉེ་འཁོར་	-10.8322
པར་རིས་འོས་སྦྱོར	-10.8323
སྤུངས་	-10.8324
མིག་གིས་	-10.8325
ཟེར་རོ།	-10.833
ཐུགས་རྗེ་ཆེ་ཞུ་	-10.833
རིགས་དང་	-10.8331
ཨ་མའི་	-10.8333
སྨ	-10.8334
དབང་དུ་བྱས་	-10.8334
ལོ་ཙཱ་	-10.8336
བཅོས་སྐྱོང་གི་	-10.8337
ཇི་སྐད་	-10.8338
བཅག་	-10.8338
རིམ་པ་ཁག་དང་	-10.8338
ཤའི་	-10.834
རུང་།	-10.8341
ཡིས་བསྟན་དོན།	-10.8341
གལ་ཆེན་ཞིག་ཡིན།	-10.8342
མི་ཡི་	-10.8342
བུ་བཅོལ་ཁང་	-10.8342
སྐྱེད་པ་	-10.8343
མིའི་ཚོགས་ཆེན་	-10.8347
ཆེད་ལས་མཉམ་ལས་ཁང	-10.8347
ཞུན་	-10.8348
ཞིག་ཀྱང་རེད།	-10.8348
ཁྲིད་དེ་	-10.8349
ཁ།	-10.8349
བྱེད་རྒྱུ་ཡིན་པ།	-10.835
མངོན་མིན་རིག་	-10.8354
ཆེ་བ་དང་	-10.8356
བདུན།	-10.8356
▁བྲམ་ཟེ་	-10.8358
སློབ་དེབ་	-10.8359
སི་ཐན་	-10.8359
▁རྩོམ་ཁུངས།	-10.8363
པ་ན།	-10.8364
ཅི	-10.8365
མཛད་སྒོར་ཞུགས།	-10.8366
ལྟས་	-10.8366
མཛད་སྒོའི་ཐོག་	-10.8367
དུའོ།	-10.837
བསྲུང་བ་	-10.837
ཡི་གེར་	-10.8371
འདོད་དོ།	-10.8372
ལར་	-10.8373
ཆེད་ལས་ཀྱི་	-10.8374
▁གནད་སྨིན་	-10.8375
▁ཚོགས་ཆེན་བཅུ་	-10.8375
སྐབས་བཅུ་གཅིག་པ	-10.838
▁གང་གི་	-10.838
▁42000	-10.8381
དང་བླངས་	-10.8381
ཞིམ་	-10.8381
▁སྐྱེ་བོ་	-10.8383
བསྟ	-10.8383
ཅི།	-10.8384
ཚད་དང་	-10.8385
མེད་དེ་	-10.8386
བཅས་བྱས་ཏེ།	-10.8388
ཕེ	-10.8389
བདེན་པར་	-10.839
སྟབས་བདེའི་	-10.839
རྐང་འཁོར་	-10.8393
པར་བྱེད་པའོ།	-10.8395
སྒྲོ་	-10.8398
ཏང་ནན་པོས་སྐྱོང་	-10.8399
ཉིན་མོར་	-10.84
བྱེད་ན་	-10.84
ཆོ་འཕྲུལ་	-10.8403
བྲོ་བ་	-10.8407
བྲོ	-10.8407
▁རྗེས་སུ་	-10.8407
ཚོགས་འགོ་བརྩམས།	-10.8409
ལ་འཚམས་འདྲི་བྱས་	-10.8409
ཐའེ་ཝན་	-10.8411
ཁོངས་མིའི་	-10.8415
རང་བཙན་	-10.8415
སྤྱི་བོར་	-10.8417
དགོན།	-10.8417
གཉིས་མེད་	-10.8418
སྲན་	-10.842
ལ་མཁས་པ་	-10.8421
ཐེམ་	-10.8421
ཀྲུ	-10.8424
གཏོང་དགོས་ཟེར།	-10.8424
སྦུ	-10.8429
▁གསུམ་ནི་	-10.843
པ་འཚོགས་ཚུན་	-10.8431
ཕྱི་ཕྱོགས་སུ་	-10.8431
རྒྱ་མཚོས་	-10.8431
གསུམ་པར་	-10.8433
ཆུའི་ཐོན་ཁུངས་	-10.8434
འོས་པའི་	-10.8434
▁གང་ཡང་	-10.8434
གནོད་འཚེ་ཐེབས་	-10.8434
གནས་ཏེ།	-10.8435
༢༣	-10.8436
▁སློབ་སྦྱོང་	-10.8437
ཀྱེ་	-10.8438
ཀྱི་སྙིང་སྟོབས་	-10.8439
རི་རབ་	-10.844
སྤོ	-10.844
▁༩	-10.8441
▁གཙོ་བོ་	-10.8441
ཞི་བའི་གྲོས་མོལ་	-10.8443
བར་གྱི་མཉམ་ལས་	-10.8444
རྡོ་རྗེ།	-10.8448
▁ཨུ་ལྷན་གཉིས	-10.8449
▁གཏི་མུག་	-10.8449
གཉིས་སུ་མེད་པའི་	-10.845
བསྒོམ་པའི་	-10.8454
ཤོག་སྦག་ཚོན་ཁྲ་	-10.8455
ཁྲིམས་འགལ་གྱི་	-10.8457
བཅའ་སྡོད་ལས་དོན་	-10.8458
ཁའེ་	-10.8462
ཧྥེང་	-10.8462
▁འདུ་བྱེད་	-10.8462
རྒྱལ་སྟོན་	-10.8463
མདོ་ལས་	-10.8465
གནོད་ཐེབས་ས་ཁུལ་	-10.8467
སྣ་ཚོགས།	-10.8468
འགོ་ཚུགས་མཛད་སྒོ	-10.8469
ཞེས་གསུངས་སོ།	-10.847
6.	-10.847
ཏྱ	-10.8471
པ་ནས་བཟུང་།	-10.8472
▁ལུང་	-10.8473
ཐུབ་པའི་འགན་ལེན་	-10.8474
གནོད་འགོག་	-10.8475
དབོར་	-10.8475
པའི་མཚོ་སྔོན་	-10.8476
དད་པའི་	-10.8478
མི་དགེ་བ་	-10.8478
ཇུས་གཞི	-10.8482
དུ་གནས་པའི་	-10.8483
དུ་བསྐྱོད་	-10.8484
ཁུལ་དང་	-10.8485
མིའི་ཐོབ་ཐང་	-10.8486
པ་ཡིན་ལ།	-10.8488
1.	-10.8489
ལས་རོགས་	-10.8491
ཆགས།	-10.8492
དབུ་མའི་	-10.8497
སུ་འགྲོ་བར་	-10.8499
དཔྱིད་འདེབས་	-10.8499
▁སྲིད་གྲོས་སྐབས་	-10.8501
བརྫུན་	-10.8502
འི་བོད་སྐྱོར་	-10.8503
ཉིང་ཁྲི་གྲོང་ཁྱེ	-10.8504
སྩོལ་	-10.8506
གཏན་འབེབས་བྱས་	-10.8506
གནས་པའོ།	-10.8506
ཚེས་ཉེར་གསུམ་ཉིན	-10.8506
གསུམ་ནི་	-10.8508
འཐུས་མིར་	-10.851
ཆེད་ལས་ལག་རྩལ་	-10.8512
ཐུགས་རྗེ་	-10.8514
གི་གྲོས་ཚོགས་	-10.8517
75	-10.8517
བྱེད་དེ།	-10.8518
ཁྲའོ་ཞན་གྱིས་	-10.852
▁སྲིད་གཞུང་	-10.8521
▁སློབ་སྦྱོང་གཉི	-10.8523
6%	-10.8524
ཕྱོགས་སོ་སོས་	-10.8527
ཚད་མའི་	-10.8527
▁ཞི་	-10.8529
གཤགས་བཅོས་	-10.8532
བཏབ་པ་	-10.8533
▁བཙུགས་པ།	-10.8535
གསུང་བཤད་གནང་	-10.8535
དགོས་ཞེས་ནན་བཤད་	-10.8536
རོགས་ལས་	-10.8536
རོའི་	-10.8536
ཐལ་བ་	-10.8537
འགྲམ་གྱི་	-10.8538
ཡིན་པས་ན་	-10.8539
ཉིས་སྟོང་བཅོ་ལྔ་	-10.854
ཤར་གྱི་	-10.8542
ཚད་ལྡན་ཅན་གྱི་	-10.8543
མཛའ་བཤེས་	-10.8545
▁གོང་	-10.8545
བཏོན་ཡོད་པ་རེད།	-10.8547
བསྒོམ།	-10.8551
དམ་པོ་	-10.8551
ཁྱེད་ཅག་	-10.8553
རྣམ་པ་གཉིས་	-10.8554
འགྲོའི་	-10.8554
འདུག་ལ།	-10.8554
རེ།	-10.8555
གསལ་བསྒྲགས་	-10.8556
སའེ་	-10.8556
འཇོག་པའི་	-10.8557
ཡུལ་གྲུ་	-10.8558
འགའ་ཤས་	-10.8559
འདུས་མ་བྱས་	-10.8559
ནང་སྦྱོང་	-10.856
མགོ་འཛིན་	-10.8561
སྒོར་ཁྲི་ཚོ	-10.8561
དང་འཕེལ་རྒྱས་	-10.8564
ལོག་པ་	-10.8564
གཙོ་སྒྲུབ་	-10.8566
ཚབ་བྱེད་	-10.8568
ཐད་གཏོང་	-10.8569
▁སརྦ་	-10.857
བོའི་སློབ་གསོ་	-10.857
▁མི་དམངས་ཀྱི་	-10.8571
མི་ཐུབ་པའི་	-10.8571
ཞི་འཇགས་སུ་གཏོང་	-10.8571
གནམ་མཚོའི་	-10.8571
རྣ་བ་	-10.8572
དམག་དཔོན་	-10.8573
འདྲི	-10.8573
གཞན་དག་ལ་	-10.8575
ཚོགས་པར་	-10.8576
ཚངས་པ་	-10.8578
བཟླས་བརྗོད་	-10.8578
ཨ་ཧྥེ་རི་ཁ་	-10.8579
རྒྱུན་ལྡན་གྱི་	-10.8579
རྟགས།	-10.858
ཉེ་ལམ་	-10.8581
ཚོགས	-10.8581
ངོམས་	-10.8582
མི་མངོན་པའི་	-10.8583
ཀྲུང་ཧྭ་	-10.8586
གནས་བབ་ལ་	-10.8588
ཨའེ་	-10.8588
ཞག་སྡོད་	-10.8589
འཇོག་པ་	-10.8591
གལ་ཆེན་ཞིག་ཡིན་	-10.8595
ཨ་ཧྥུའུ་ཧན་	-10.86
གཞུང་ཁོངས་	-10.86
ཚད་སྤྱི་ལེ་ཁྲི་	-10.86
བརླག་	-10.8601
གོ་འཕང་	-10.8602
གཟུགས་མེད་	-10.8602
དཱ་	-10.8603
▁གྲོས་ཚོགས་ལས་	-10.8603
འཚར་ལོངས་	-10.8604
འདུག་པས་	-10.8604
ལོའི་ལོ་མཇུག་ཏུ་	-10.8606
▁རྒྱལ་ཁབ་གཉིས་པོ	-10.8607
བཟུང་ཡོད།	-10.8607
ནན་ཏན་ངང་	-10.861
▁༨༥༠༠༠༠	-10.8611
འབ	-10.8612
མི་དགོས་	-10.8615
ཚེས་ཉེར་གཉིས་ཉིན	-10.8616
▁བོད་སྐྱོར་	-10.8616
ཅ༷	-10.8619
བྱེད་དགོས	-10.8619
དག་དང།	-10.862
འཕགས་པའི་བདེན་པ་	-10.862
གེགས་	-10.8621
ཅིག་ཤོས་	-10.8622
▁སྤྱིའི་	-10.8625
▁འཐབ་ཇུས་	-10.8626
སྡེའི་	-10.8626
ལེགས་བསྒྱུར་	-10.8629
མཁར་གྲོང་གི་	-10.8629
བསམ་བློ་ཆབ་སྲིད་	-10.863
གྲོལ་བ་	-10.863
ལོ་ཚོགས་	-10.8631
མཐུན་པའི་ཕྱོགས་	-10.8633
མི་རུང་བའི་	-10.8633
▁༢༠	-10.8634
ཨུ་ཡོན་ལྷན་ཁང་།	-10.8635
▁ཉེ་བའི་	-10.8635
ལ་གཟིགས་	-10.8636
ཚིག	-10.8637
བྲང་	-10.8638
འདེམས་ཤོག་འཕེན་	-10.8639
དམངས་ལ་	-10.8639
བྱེད་ཐུབ།	-10.864
དྲན་པའི་	-10.8641
གཟབ་	-10.8644
ཞེས་བྱ་བ་སྨོས་ཏེ	-10.8644
གླ	-10.8645
ཉིད་ཀྱི་ཕྱིར་རོ།	-10.8645
དང་མཚུངས་	-10.8646
▁ཡུན་རིང་	-10.8646
འཛམ་བུའི་གླིང་	-10.8647
▁ལི་ཁེ་ཆང་གིས་	-10.8647
དང་ཡུལ་སྐོར་	-10.8651
དམའ་བའི་	-10.8651
གཙང་བཤེར་	-10.8654
དང་སློབ་སྦྱོང་	-10.8655
ཤར་རྒྱུད་	-10.8658
ཉིང་རྡུལ་ནུས་པ	-10.8658
སྐྱབས་སུ་	-10.8659
ཀྱང་མི་	-10.8659
འགུལ་སྐྱོད་སྤེལ་	-10.8664
རྒྱག་པ་དང་	-10.8664
དར་བའི་	-10.8665
པ་བཅས་བྱས་ཏེ་	-10.8665
ཁྲོ་བོའི་	-10.8665
ལེགས་ཆ་འདོན་སྤེལ	-10.8665
ཞི་ཅིན་ཕིང་དང་	-10.8666
ཆུ་ཚོད	-10.867
ཉུང་དུ་ཕྱིན་	-10.8671
དུ་མའི་	-10.8673
“	-10.8677
ཡུལ་སྐོར་ཐོན་ལས་	-10.8677
༤༠	-10.8678
ཚངས་པའི་	-10.868
རྨོ་	-10.8681
ལུས་རྩལ་པ་	-10.8682
རྩོམ་པ་པོའི་	-10.8682
སྦྱར་རོ།	-10.8682
འདུས།	-10.8685
ཡོ་རོབ་གླིང་གི་	-10.8687
བ་དན་	-10.8687
ཟི་	-10.8689
རང་རེའི་	-10.869
བཤད་ཟིན་ཏོ།	-10.8693
མི།	-10.8695
གཟན་རྩྭ་	-10.8695
ས་ཀྱི་འཐུས་མི་	-10.8696
སློབ་ཆུང་གི་	-10.8696
རི་སྐྱེས་སྲོག་ཆག	-10.8697
ཡོ་རོབ་མནའ་འབྲེལ	-10.8697
དྲུག་པོ་	-10.8697
དཀའ་ཚེགས་	-10.8698
བཅུ་པ་	-10.8699
བཞག་སྟེ།	-10.8701
བསྐྱེད།	-10.8701
ས་སྐྱ་	-10.8702
བསྒོ་	-10.8703
ལྗོངས་ཁུལ་	-10.8703
▁དེའི་འོག་ཏུ་	-10.8705
ཐབས་ལ་བརྟེན་ནས་	-10.8708
བུ་ཆུང་	-10.8708
ཤུགས་ཆེ་རུ་བཏང་	-10.8708
སྟངས་འཛིན་	-10.871
ཆགས་ཡོད།	-10.871
པའི་ཕྱིར་རོ་ཞེས་	-10.871
དང་འགན་འཁྲི་	-10.871
ཉིན་ཞག་	-10.8711
ངལ་	-10.8713
འགན་ཁུར་བློ་མཐུན	-10.8714
ཅང་སུའུ་	-10.8714
བདག་ཉིད་ཅན་	-10.8716
▁བཞི་པ་	-10.8716
དམ་པོར་	-10.8718
དུས་རབས་གསར་པར་	-10.8718
ལྟག་	-10.8718
སྐད་འཕྲིན་	-10.872
འདི་གར་	-10.8721
པར་གྱུར་ན་	-10.8721
གསར་དར་	-10.8722
ཁྲའོ་	-10.8723
དྲ་ཐོག་ནས་	-10.8725
གངས་རི་	-10.8725
བྲལ་བའི་	-10.8729
རང་སངས་རྒྱས་ཀྱི་	-10.8731
བསྲེ	-10.8731
༦༠	-10.8735
གསུམ་གྱི་རིང་	-10.8736
རང་འགུལ་གྱིས་	-10.8736
▁ཟླ་བརྒྱད་པའི་	-10.8737
གྱོད་	-10.8737
གཞུང་དོན་ཁང་	-10.8738
ལོའི་ཟླ་	-10.874
འཐུས་ཚབ་ཚོགས་པ་	-10.874
སྒྲུབ།	-10.8742
དུར་ཁྲོད་	-10.8743
མཐོང།	-10.8747
བརྗོད་པར་བྱ་བ་	-10.8749
ཕྱོགས་གཉིས་པོས་	-10.875
ནས་རང་སྲོག་གཅོད་	-10.875
བཟའ་ཟླ་	-10.8751
▁ཏང་གིས་	-10.8752
བཟུང་ནས།	-10.8753
བྱ་ཡུལ་དུ་	-10.8754
ཤོར་བའི་	-10.8754
ཡ་མཚན་	-10.8754
རྒྱུན་ལས་ཨུ་ལྷན་	-10.8755
གོང་འོག་	-10.8755
བྱས་པ་དེས་	-10.8755
དབང་གྲགས་	-10.8756
འབུམ་ཕྲག་	-10.8757
བཙའ་	-10.8757
དགོངས་པ་གལ་ཆེན་	-10.8758
འདི་གཉིས་	-10.8759
རྔ	-10.8759
སྐྱོང་བའི་	-10.876
སྨན་རིན་	-10.876
པ་བྱ་དགོས།	-10.8762
ཆོས་ཀྱི་འཁོར་ལོ་	-10.8762
ཉེ	-10.8763
འགྲོ་ལུགས་	-10.8763
དམར་པོའི་	-10.8763
འགན་འཁུར་བའི་	-10.8763
ས་དང་ཚད་ལོན་གཅིག	-10.8764
གཏམ་བཤད།	-10.8765
ཆེས་ཆེ་བའི་	-10.8766
ལྕགས་ཀྱུ་	-10.8766
▁ཉིན་ཤས་གོང་།	-10.8766
▁དེའི་རྗེས་སུ་	-10.8767
གསར་བ་དང་	-10.8768
ལྷན་ཚོགས་ཀྱིས་	-10.8769
པ་ནས་	-10.877
གནས་ཚུལ།	-10.8772
▁ཁ་དོག་	-10.8772
འཛུགས་རྒྱུ་	-10.8774
མ་བྱས་	-10.8774
གཞུང་ལུགས་ཀྱི་	-10.8774
མིང་དང་	-10.8775
ཆེན་པོ་གསུམ་	-10.8778
ཟིན་ཡོད།	-10.8779
གསུང་བཤད་ཀྱང་	-10.8781
གླེགས་བམ་	-10.8781
གང་ལེགས་བྱས་ཏེ།	-10.8781
ཁེར་རྐྱང་	-10.8784
དགེ་སྒྲུབ་	-10.8792
ས་མཚམས་	-10.8793
བསྐྲུན་རྒྱུ་	-10.8794
ཐོན་ཟོག་	-10.8797
འཕྲེད་	-10.8798
ཨུའི་	-10.8799
དགེ་འདུན་གྱིས་	-10.8799
ལ་ལར་	-10.88
བཟོ་བ་	-10.8803
སྨན་བཅོས་འགན་བཅོ	-10.8806
ཐིམ་	-10.8806
སྦྱར་ཏེ།	-10.8806
མཉམ་སྐྲུན་	-10.8807
ལག་བསྟར་བྱས་པ་	-10.8808
བཤད་དེ།	-10.8808
འི་ཙུང་ལི་	-10.8811
ཞུས་པ་རེད།	-10.8812
ལ་ཕན་པའི་	-10.8814
བཅས་ཀྱི་སྒོ་ནས་	-10.8815
དམ་འཛིན་བྱེད་	-10.8817
ལ་ལྟ་	-10.8817
འཚོལ་བསྡུ་	-10.8817
གཡས་པ་	-10.882
གྲོས་མོལ་བྱེད་	-10.882
དོ་དམ་བྱེད་པའི་	-10.882
▁བཞི།	-10.8822
བསྟན་སློབ་གླིང་	-10.8823
ན་གོར་མོ་	-10.8824
སྡོད་གནས་	-10.8825
སྔོན་དཔག་བྱས་ན་	-10.8825
ལས་འགུལ་	-10.8825
ཟིལ་	-10.8827
བུ་མོའི་	-10.8827
འཆ	-10.8827
ཝ་ཧྲིན་ཏོན་ཀྲིག་	-10.8827
བསྒྲུབས་ནས་	-10.8827
▁ཚོགས་ཆེན་	-10.8828
ཡིག་ཚང་	-10.8832
དོན་དམ་པ་	-10.8832
ཆར་པ་	-10.8833
ཟླ་རེར་	-10.8833
བསུ་བ་	-10.8833
ཏུན་ཁྲི་	-10.8836
ཀྲི	-10.8837
གོ་རིམས་	-10.8839
གནས་ནས་	-10.8843
རྒྱུད།	-10.8845
དམིགས་ཏེ་	-10.8848
གནས་པ་དང།	-10.885
དྲོ	-10.8851
▁མུ་མཐུད་དུ་	-10.8851
དམག་གི་	-10.8851
བ༷	-10.8852
ཏཱ	-10.8854
ཚད་ལྡན་ཅན་	-10.8856
སྤུས་ཚད་དང་	-10.8857
མཁན་དང་	-10.8858
གཏང་དགོས།	-10.8858
གཏོང་དགོས་པ།	-10.8859
དང་པོ་ནི་	-10.886
ཕྲ	-10.8862
སོ་སོ་ནས་	-10.8863
སྨོས་པ་	-10.8864
བཀའ་སྩལ་ཏོ།	-10.8865
མ་གྲུབ་པ་	-10.8866
ཉེར་གཅིག་	-10.8867
▁ཁོ་མོས་	-10.8868
རྨང་གཞིའི་སྟེང་	-10.8868
བཀར་	-10.8869
བྱ་བའི་ཕྱིར་	-10.887
དཀའ་ཐུབ་	-10.8872
ཚིམ་	-10.8873
བོད་མི་རིགས་ཀྱི་	-10.8874
སྦྱར།	-10.8877
ས་ཡོམ་གྱི་	-10.8878
རྩེར་	-10.888
པར་མི་འགྱུར་	-10.8885
ཞིབ་འཇུག་ཁང་	-10.8886
▁150	-10.8886
▁༡༢	-10.8888
ཅེས་བཤད་པ་རེད།	-10.8888
སྡེ་བར་	-10.889
སླེབས་པའི་	-10.8891
སོགས་འབྲེལ་ཡོད་	-10.8891
དུས་གསུམ་	-10.8891
▁དེ་གཉིས་	-10.8892
ཟ་མ་	-10.8892
མིང་རྟགས་བཀོད་	-10.8892
ཐད་ནས་གྲུབ་འབྲས་	-10.8894
▁རིམ་པ་	-10.8894
མཁས་ཅན་	-10.8896
ཀུན་དགའ་	-10.8898
མངོན་པར་ཤེས་པ་	-10.8901
རྒྱལ་ཁ་ལེན་	-10.8902
ཚོགས་ཆེན་གཉིས་	-10.8903
དམངས་དོན་	-10.8906
འོང་སྐོར་དུས་ཆེན	-10.8907
ནས།།	-10.8908
བྱས་ཡོད་ལ།	-10.8908
ལས་འགན་གཙོ་བོ་	-10.891
དབུས་གཙང་	-10.891
བྱ་བའོ།	-10.8911
ན་རེ།	-10.8912
སྒྲིག་ཁྲིམས་ཞིབ་	-10.8912
▁ཀན་སུའུ་	-10.8913
▁ས་ཁོངས་	-10.8915
▁ཉིན་བར།	-10.8917
ཆོག་མཆན་ཐོབ་	-10.8919
ཚེས་ཉེར་བདུན་ཉིན	-10.892
བཏོན་པ་དང་།	-10.8924
གྱུར་ནས།	-10.8925
ལས་རིགས་སློབ་གསོ	-10.8925
དཔལ་འབར་	-10.8927
ཤེས་རབ་ཀྱིས་	-10.8927
རྣམས་ཀྱིས་ཀྱང་	-10.8929
བསྔགས་	-10.893
7.	-10.8931
མཚམས་བཞག་	-10.8932
དབུལ་སྒྲོལ་ཐུབ་	-10.8932
དབུལ་ཕོངས་ས་ཁུལ་	-10.8934
ག༷	-10.8935
ལང་ཚོ་	-10.8935
▁གསང་སྔགས་	-10.8936
མཆོད།	-10.8936
བཏོན་པ་	-10.8937
ཅུང་ཙམ་	-10.8937
ཡོངས་སུ་སྨིན་པར་	-10.8937
▁སེམས་ཀྱི་	-10.894
▁༢༠༡༦	-10.8942
▁ཆ་འཕྲིན་	-10.8942
རེབ་གོང་	-10.8943
པུར་	-10.8943
ཚུ	-10.8944
གནས་ཤུལ་བཞག་གི་	-10.8945
▁ལག་རྩལ་	-10.8946
ཅེས་བྱའོ།	-10.8946
པའི་རྣམ་པ་	-10.8947
རྐྱེན་པས་	-10.8948
▁ས་དེའི་	-10.8949
༢༢	-10.8949
ཕོག་པའི་	-10.8951
སོན་པའི་	-10.8952
ཤང་ཀང་	-10.8952
ཁྲལ་འབབ་	-10.8954
ཆ་འཕྲིན་ཅན་	-10.8954
ཁྲལ་དོན་	-10.8955
བརྩིགས་	-10.8956
▁ཟླ་ལྔ་བའི་	-10.8958
ཏང་གི་བཀའ་དྲིན་	-10.8959
སྙམ་དུ་	-10.896
འདི་སྙམ་དུ་	-10.8962
ཆེ་བར་	-10.8962
ཆེན་པོ་དང་	-10.8963
ཨ་མེ་རི་ཁར་	-10.8964
སྟེར་བའི་	-10.8966
ཐོན་སློབ་མའི་	-10.8966
བྱེད་སྒོ་དེ་	-10.8967
ཚུལ་ཁྲིམས་ཀྱི་	-10.8968
རང་བཞིན་བཅས་	-10.8971
སློབ་ཐོན་སློབ་མ	-10.8972
གདོད་	-10.8973
ཐུབ་པ་བྱུང་	-10.8976
ཏའེ་	-10.8977
སློབ་ཡོན་	-10.8977
སྲོག་ཆགས་ཀྱི་	-10.8978
སུ་བཅུག་	-10.8981
མི་ཐེངས་ཁྲི	-10.8981
རིམས་	-10.8982
གྲོས་གཞིའི་	-10.8985
རྫས་འགྱུར་མཚོན་ཆ	-10.8985
སེམས་ཁུར་བྱེད་	-10.8986
འོག་མ་	-10.8986
▁ལོའི་ཀྲུང་གོ་	-10.8986
▁སྐབས་དེ་དུས་	-10.8986
ངང་ནས་	-10.8988
བྱེད་ཐབས་གལ་ཆེན་	-10.8989
བརྩི་བཀུར་	-10.899
བའི་མཛད་སྒོ་	-10.8991
ཁུའུ་	-10.8992
ཅན་གྱི་གནས་སྐབས་	-10.8992
▁སྣ་	-10.8993
མགོ་རྩོམ་	-10.8993
བྱུག་	-10.8994
གནད་ཕིགས་	-10.8995
གང་གི་ཕྱིར་	-10.8996
ཞིང་ལས་དང་	-10.8999
▁དུས་མཚུངས་སུ་	-10.9
ཚབ་ཞུས་ནས་	-10.9
སེམས་བསྐྱེད་པ་	-10.9
ཧཱ	-10.9001
ལས་འཛིན་ལྷན་ཚོགས	-10.9001
▁ཆོས་ཀྱི་དབྱིངས་	-10.9002
ཤིག་ཅེས་	-10.9004
དཔྱད་འཇོག་	-10.9006
ཕི	-10.9007
བྱས་པ་ཡིན།	-10.9008
▁འཇིག་རྟེན་གྱི་	-10.9008
གླ་ཆ་	-10.9011
▁༡༡	-10.9011
བྱུང་བ་ཞིག་རེད།	-10.9013
གྲབས་གསོག་	-10.9013
ཕེབས།	-10.9013
ཞོ	-10.9014
རང་སྐྱོང་ཀྲོའུ་	-10.9014
ཝུ་	-10.9015
དར་ཆ་	-10.9015
ཉུང་མཐར་ཡང་	-10.9016
ནི་ཤིན་ཏུ་	-10.9017
གཉིས་ལས་	-10.902
ཞིབ་འཇུག་པ་	-10.9021
འཚུབ་	-10.9021
བཟང་པོ་ཞིག་	-10.9024
▁ངག་	-10.9028
རུ་མི་	-10.9028
བ་མ་ཟད་	-10.9029
ཡང་མ་ཡིན་	-10.9032
དཔེ་དེབ།	-10.9034
སྤེལ་རེས་དང་	-10.9034
ཞགས་པ་	-10.9035
ཚུད་ཡོད།	-10.9037
རིམ་གྲོ་	-10.9037
ན་ནིང་གི་	-10.9038
པས་ན།	-10.9038
བློའི་	-10.904
པའི།།	-10.9042
རྨ་ཆུ་	-10.9042
ཤུལ་བཞག་	-10.9043
ཐག་ཆོད་	-10.9043
ཅག་	-10.9046
གསུངས་ཡོད་པ་རེད།	-10.9046
མགྱོགས་སུ་བཏང་	-10.9047
བྱ་བར་ཤུགས་སྣོན་	-10.9048
བཀའ་སྩལ་པ།	-10.905
ཐེར་	-10.9052
▁5.	-10.9052
གནས་པས་	-10.9053
▁ཀ་	-10.9053
ཕུན་སུམ་ཇེ་ཚོགས་	-10.9057
ར་བརྟེན་ནས་	-10.9058
མཆེ་བ་	-10.9061
མཉེན་ཆས་	-10.9064
▁དགེ་	-10.9065
ཐུབ་པ་བྱུང་ཡོད།	-10.9066
བསྐྲུན་པར་	-10.9066
སྙན་ངག་གི་	-10.9069
རྒྱལ་མོ་	-10.9072
ཙུང་ཐུང་གཞོན་པ་	-10.9074
འཚམས་འདྲི་བྱས་	-10.9074
▁བོད་ཡིག་དྲ་བ།	-10.9077
▁ལྷའི་	-10.9077
བསྡད་དེ་	-10.9077
དུ་གཏོང་བ།	-10.9077
མཆིས།	-10.9078
སྒྲ་དང་	-10.9081
ཞེས་སོ།	-10.9081
ཐ་ན་	-10.9082
ལག་རྩལ་མ་རྐང་	-10.9082
ཁ་ཕྲལ་ལ་ངོ་རྒོལ་	-10.9083
གློག་སྤྱོད་ཚད	-10.9083
ཚོགས་འདུ་གཉིས་	-10.9084
འགེལ་	-10.9085
པོ་དང་	-10.9087
ཟུ	-10.9088
ལ་རོགས་རམ་	-10.9088
མེད་པ་བཟོ་	-10.9089
དགོན་པར་	-10.9092
01	-10.9093
+	-10.9093
ཉོན་	-10.9098
ལྷོ་རྒྱུད་	-10.9099
པ་ཞིག་རེད།	-10.9101
▁བཏང་	-10.9102
·	-10.9103
མཛོད།	-10.9103
ཕཱ་ལེ་སི་ཐན་གྱི་	-10.9105
སིལ་ཚོང་ས་ཚིགས	-10.9107
སྲུང་འཛིན་	-10.9111
ཟད་པར་	-10.9117
འགྱུར་ལྡོག་བྱུང་	-10.9118
ཕྱོགས་སོ་སོའི་	-10.9119
བྲིན་ཚོང་	-10.9119
འཛིན་བཟུང་	-10.9119
པའི་ཚུལ་	-10.912
བརྒྱར་	-10.912
གི་ཚང་འཛོམས་	-10.9121
རྩེ་གྲ་	-10.9125
ལ་གནོད་	-10.9125
ལ་ཡིད་ཆེས་	-10.9126
ནས་ཐོན་པའི་	-10.9127
སྐྱོང་བ་	-10.9127
འཕེལ་བའི་	-10.9127
བཏོད་ཡོད།	-10.9129
ཅོ་	-10.9132
རྩོལ་	-10.9133
▁འབྲི་ཆུའི་	-10.9135
བྱེད་ཀྱི་ཡོད་	-10.9137
སྤྱི་དམངས་ཀྱི་	-10.9139
▁རྨི་ལམ་	-10.9141
ཆད་པའི་	-10.9141
བརྒྱ་ལྷག་	-10.9142
འགའ་ཡང་	-10.9144
ཆེད་ལེགས་སྐྱེས་	-10.9145
དབུ་བརྙེས་	-10.9145
གཏུག་	-10.9147
བར་བརྒལ་	-10.9148
ལག་བསྟར་བྱེད་པར་	-10.9148
ཀྱི་ནང་དོན་	-10.915
དབར་གྱི་འབྲེལ་བ་	-10.915
གཏན་ལ་ཕབ་	-10.9152
མདུང་	-10.9156
ཁུ་ཚུར་	-10.9157
ཨེ་ཅིབ་	-10.9157
གོམ་	-10.9158
ཉེར་ལྔ་	-10.9158
དང་ཕན་འབྲས་	-10.9159
རྩད་ཆོད་	-10.9159
▁ཁེ་ལས་ཀྱི་	-10.916
གླིང་།	-10.916
བཤད་ན།	-10.9161
ཡོད་པའི་སྒོ་ནས་	-10.9161
འགོ་ཚུགས་པའི་	-10.9164
གཙོས་	-10.9165
▁ཝུའུ་	-10.9165
གྱི་རྨང་གཞིའི་	-10.9165
གདམ་གསེས་	-10.9166
བསམ་བློ་གཏོང་	-10.9166
ལྔ་ནི་	-10.9166
རིག་སྔགས་	-10.9167
མངགས་གཏོང་	-10.9168
མཛུབ་	-10.917
བེད་སྤྱོད་བྱེད་	-10.917
༢༡	-10.9175
ཉི་ཟླ་	-10.9176
རླུང་ཁམས་ཆེ་མོ	-10.9177
བརྐྱང་	-10.9179
མནའ་	-10.918
ཉིད་དེ།	-10.9181
བརྒྱུད་རིམ་ནང་	-10.9184
ཏང་གི་འཐུས་མི་	-10.9186
དོན་མེད་	-10.9186
ཨར་འདམ་	-10.9187
ལ་ཐུག་	-10.9188
དོན་འཁྱོལ་ཡག་པོ་	-10.9188
སྣོན་བརྒྱབ་ནས་	-10.9188
སྒྲིག་འགལ་	-10.9189
རྩོམ་པ་	-10.9191
ཐུབ་པས་	-10.9191
དུས་གཅིག་ཏུ་	-10.9193
གསར་གཏོད།	-10.9194
གཟན་	-10.9195
བཅས	-10.9197
རྒྱབ་ཏུ་	-10.9198
▁ཟིན་ཡོད་པ་རེད།	-10.92
ལག་བསྟར་ཇུས་གཞི	-10.9201
བྱད་	-10.9202
ཐུབ་པ་བྱེད་དགོས།	-10.9204
དྲིལ་བསྒྲགས་དང་	-10.9205
ཡུལ་བབ་དང་བསྟུན་	-10.9205
གཙང་གསུམ་འབྱུང་	-10.9208
ཧྲུ	-10.9209
0%	-10.921
2%	-10.9212
ཧྲཱིཿ	-10.9217
སེལ་བའི་	-10.9219
གདན་དྲངས་	-10.9219
ལོན་པ་	-10.9221
རྒྱ་རིགས་	-10.9222
སློབ་ཆེན་དུ་	-10.9223
ཤེ་	-10.9223
ལྟ་ཀློག་	-10.9224
ཆེ་ཤོས་དེ་	-10.923
བདེ་ཆེན་ཁུལ་གྱི་	-10.923
རྒྱ་སྐད་	-10.9236
ྦ	-10.9236
བློ་ལ་	-10.9237
པར་རིས།	-10.9237
འགྱིག་	-10.9239
བླ་ན་མེད་པ་	-10.9239
༢༦	-10.9241
མཐའ་འཁྱོངས།	-10.9241
དཀྱིལ་འཁོར་དུ་	-10.9242
གྱི་བྱ་བར་	-10.9242
▁ཟིན་པ་	-10.9243
པེ་ཅིན་ནས་བསྡུས།	-10.9243
ཆེ་ལ་	-10.9244
ཚེས་ཉེར་གཅིག་ཉིན	-10.9247
ཟུང་འབྲེལ་དམ་ཟབ་	-10.9249
ཕྲག་དོག་	-10.9249
འཐབ་ཇུས་གྲོགས་པོ	-10.9251
ཕན་ཚུན་བར་	-10.9252
.3%	-10.9253
▁རྡོ་རྗེའི་	-10.9254
ཉིན་གྱི་ཕྱི་དྲོར	-10.9255
འགྲན་ཞུགས་	-10.9256
▁ཏེ	-10.9257
གྱི་ཕྱི་དྲོར་	-10.9257
▁120	-10.9257
▁མེས་རྒྱལ་	-10.9257
▁མདའ་	-10.9257
▁གནོད་སྦྱིན་	-10.9259
སློབ་འགོ་ཚུགས་	-10.9259
གྲངས	-10.926
གང་ནས་	-10.926
▁གངས་	-10.9264
དང་ཡོ་རོབ་གླིང་	-10.9266
བྱེད་ཀྱིན་	-10.9268
▁ད་རེས་ཀྱི་	-10.9268
སྲིད་ཏང་	-10.927
བཅས་བྱེད་དགོས།	-10.927
ཡོངས་སུ་གྱུར་པ་	-10.9273
གྲོང་ཚོའི	-10.9274
.6%	-10.9274
སྐུ་གདུང་	-10.9276
ཏེང་	-10.9276
འདོད་ན།	-10.9279
▁ཟླ་ཚེས་ཉིན་	-10.9279
འཇི	-10.9281
ཀྲུང་ཧྭའི་	-10.9281
བཙུགས་ཡོད།	-10.9281
བཅུ་གཅིག་པ་	-10.9282
ཁྲིམས་དཔོན་	-10.9282
གཞན་དག་གི་	-10.9282
ཚོགས་འདུ་སྐབས་	-10.9283
དེ་ཉིད་དུ་	-10.9283
▁དགྲ་	-10.9283
4.	-10.9283
བཏང་སྙོམས་	-10.9283
སྤྲོ	-10.9284
▁སྐབས་དང་པོའི་	-10.9284
ཨེན་	-10.9284
ནག་ཆུ་གྲོང་ཁྱེར་	-10.9285
འཚོ་བ་རོལ་	-10.9285
▁ལས་ཀྱི་	-10.9288
ལ་འགན་སྲུང་	-10.9289
འཇིགས་བྱེད་	-10.929
རྩོད་གཞི་	-10.929
ཅི་གནང་བའི་ཏང་	-10.9291
མན་གྱི་	-10.9295
འཕེལ།	-10.9295
▁འོད་	-10.9295
ལྷུན་གྲུབ་	-10.9296
འབྱོར་པ་	-10.9296
འགྲུབ།	-10.9296
ལྕི་བ་	-10.9297
ཉམས་སུ་མྱོང་	-10.9297
སྟོང་པ་ཉིད་ལ་	-10.9297
བརྒལ་བའི་	-10.9298
རིགས་སུ་	-10.9299
▁འདི་ནི་ཟླ་	-10.9299
སྡང་	-10.93
བྱས་པ་དང།	-10.93
བྱ་བ།	-10.9301
མིང་།	-10.9301
སྤྱི་སྡོམ་	-10.9303
རྗེས་ལུས་	-10.9303
ལ་ཤུགས་བསྣན་ནས།	-10.9304
ཆུ་མཛོད་	-10.9304
དཔེར་ན།	-10.9304
ཆོག་མཆན་	-10.9304
ཁྲིམས་བཞིན་	-10.9308
འགྲོགས་	-10.9308
མ་ཤོག	-10.9308
ཉེན་ཁར་	-10.9308
གནས་ཡོད།	-10.9311
སྤ་སེ་	-10.9313
▁ཉིན་དེར་	-10.9314
དྲི་ཞིམ་	-10.9314
སྙམ་ན།	-10.9316
བ་བཅས་བྱས་ཏེ་	-10.9317
གལ་	-10.9319
གླང་ཆེན་	-10.932
ཞིབ་མོ་	-10.932
ད་ཆའི་	-10.932
ཡབ་ཡུམ་	-10.9321
ཁ་གསབ་མ་དངུལ་	-10.9321
འདར་	-10.9322
ས་ཆར་	-10.9322
གཟུགས་འདས་	-10.9325
འགན་བཅོལ་གྱི་	-10.9326
སྙིང་རྗེའི་	-10.9326
▁ཡོད་པ	-10.9326
ཧན་གོ་	-10.9326
▁སྤྱི་བདེ་	-10.9328
དེ་དག་ལས་	-10.9328
ཐོབ་པ་དང་།	-10.9329
ལྟ་བས་	-10.933
ཞེས་པ་དེ་	-10.9332
དྷི་	-10.9333
འཇབ་རྒོལ་ཐེབས་ཏེ	-10.9335
ཉིང་ཁྲི་ས་ཁུལ་	-10.9336
བཅར་འདྲི་བྱས་པ།	-10.9336
ཐལ།	-10.9336
པར་རིག་པར་བྱའོ།	-10.9336
གདོན་མི་ཟ་བར་	-10.9338
མ་གནས་	-10.9339
བྱ་རྒྱུར་ཤུགས་	-10.934
▁ངེད་	-10.9342
༢༨	-10.9343
ཞེས་པར་	-10.9345
འགོ་ཁྲིད་པའི་	-10.9346
ཡར་ཀླུང་གཙང་པོའི	-10.9346
མཐུན་པའི་	-10.9347
འགོ་བརྩམས་	-10.9349
ད་ཡིག་དཔེ་རྙིང་	-10.9349
ཆོག་མཆན་མ་ཐོབ་པ	-10.9351
བ་རྣམས་	-10.9351
ཏང་གི་འཐུས་མིའི་	-10.9352
སྡེ	-10.9353
མཐོང་ན་	-10.9354
དོན་སྙིང་ལྡན་	-10.9355
རྣལ་འབྱོར་པས་	-10.9357
དགེ	-10.9358
བྱེད་ན།	-10.936
ངོ་སྤྲོད་བྱས།	-10.9361
གཙོ་ཁྲིད་	-10.9361
ཡོང་མཁན་	-10.9361
▁6.9	-10.9365
བརྡར་	-10.9365
དབྱི་རག་གི་	-10.9367
ལེགས་སྒྲིག་དང་ཞི	-10.9369
སྣམ་བུ་	-10.9369
དུས་ཆེན་རིང་	-10.937
བ་འཇུག་སྐོར་གྱི་	-10.9375
གྲོངས་	-10.9377
བཅུ་གསུམ་པ་	-10.9377
བརྩམས་སྒྲུང་	-10.9378
རྩིབས་	-10.9378
▁དབུལ་ཐར་	-10.9379
མཛད་སྒོའི་སྟེང་	-10.938
མར་ཁེ་སི་	-10.9383
དཔྱད་བརྗོད་	-10.9383
དབྱིང་	-10.9383
སྔོན་གཤེགས་དཔའ་	-10.9385
ལག་ལེན་གྱི་	-10.9386
དུང་ཕྱུར	-10.9386
དབྱངས་ཅན་	-10.9386
སྲི་	-10.9386
ཐེངས་དང་པོའི་བོ	-10.9387
སྒྲོགས་	-10.9388
མཇུག་ཏུ་	-10.9388
ཆོས་སྟོན་	-10.9389
ཚེ་བརྟན་	-10.9391
▁དངུལ་རྩའི་	-10.9391
གཙོ་བོར་བྱས་པའི་	-10.9392
དར་ཁྱབ་	-10.9392
ས་ཡ་	-10.9395
ཨེ་ཤ་ཡ་དང་	-10.9395
ཁག་དང་པོའི་	-10.9396
པ་ཡིས།	-10.9399
ཀྲུང་དབྱང་གསར་	-10.9401
ཡུལ་སྐོར་བས་	-10.9402
ཀྱི་དོན་	-10.9405
དམིགས་སའི་	-10.9406
06	-10.9411
ཀུན་རྫོབ་ཏུ་	-10.9412
ཤེས་ཡོན་	-10.9413
མཚན་མོའི་	-10.9415
ཧྥུན་	-10.9418
ལ་སྣང་ཆེན་	-10.9419
བརྩིས་ནས་	-10.9419
▁ལག་པ་	-10.9421
▁ཕྱོགས་གཉིས་ཀྱི་	-10.9422
ཟིན་པ།	-10.9422
དབུ་བཞུགས་བློན་	-10.9423
ཁེ་ལས།	-10.9424
▁འདོད་པ་	-10.9426
དུ་གཏོང་བ་དང་།	-10.9428
རྣམ་པར་དག་པ།	-10.9428
ཚའེ་	-10.943
ཕྱིན་ཆད་	-10.9431
.7%	-10.9431
ལོ་རིམ་	-10.9433
ཆིག་	-10.9434
▁600	-10.9435
འདིའི་ནང་	-10.9436
ྠ	-10.9438
.2%	-10.9439
8%	-10.9439
▁ང་ནི་	-10.9443
སྐྲུན།	-10.9443
སོར་མོ་	-10.9444
སྤེལ་ནས	-10.9445
ལས་དོན་མི་སྣས་	-10.9446
ནི་བོད་	-10.9448
ཞིག་ཡིན་པ་དང་	-10.945
ལོ་སར་གྱི་	-10.945
▁འཆར་འགོད་	-10.9452
སྡེ་ཚན་དང་	-10.9454
དབུ་བཞུགས་	-10.9454
ཕུན་སུམ་ཚོགས་པོ་	-10.9455
འབྱུང་ཡུལ་རྒྱལ་	-10.9457
ཐེངས་བཅུ་དགུ་པ	-10.9458
སྐྱོན་བྲལ་	-10.9462
ཀན་ལྷོའི་	-10.9463
གྲོང་སྡེའི་	-10.9464
ལ་སྣེ་ཁྲིད་	-10.9468
▁དངོས་གྲུབ་	-10.9468
ལས་བྱེད་མི་སྣ་	-10.9468
སྐྱོད་པའི་	-10.9469
དཔྱོད་པ་	-10.9471
▁<<	-10.9471
སློབ་གྲྭ་དང་	-10.9472
པ་བཅས་བྱས་ནས་	-10.9472
ཁོ་མོ་	-10.9474
སྐབས་གསར་བའི་	-10.9474
ཚེས་བཅུ་དྲུག་ཉིན	-10.9475
བཅད་པ་	-10.9476
ཐོན་ནས་	-10.9476
གཙིགས་	-10.9479
དངོས་པོ་མེད་པའི་	-10.9481
གི་གསུང་འབུམ་	-10.9481
བེད་སྤྱོད་གཏོང་	-10.9482
དགེ་རྒན་དང་	-10.9482
ཎཱ	-10.9482
▁རྣ་བའི་	-10.9486
ཚུན་གྱི་	-10.9486
མཚོའི་	-10.9487
མེད་པ་ལ་	-10.9488
▁འཇར་མན་	-10.9489
ལག་རྩལ།	-10.949
ལས་འགན་གལ་ཆེན་	-10.9492
མངགས་བཅོལ་	-10.9492
སྒྲུབ་པ།	-10.9492
རུབ་	-10.9493
ལས་ཀྱིས་	-10.9494
མི་ཤེས་པའི་	-10.9496
བཅུ་དགུ་	-10.9497
ས་དགེ་འོས་སློབ་	-10.9497
བཀའ་སྩལ་	-10.9499
▁དཔའ་བོ་	-10.95
འཇར་པན་གྱི་	-10.9501
ཞེས་འབོད་	-10.9502
མེ་མདའ་	-10.9504
ཆུ་འདྲེན་	-10.9505
ནག་ཆུའི་	-10.9505
ཞབས་ཕྱིའི་	-10.9506
ཐུར་ཁེ་	-10.9508
ངོ་།།	-10.9509
རུམ་	-10.9509
བྱས།།	-10.9511
ཉེན་འགོག་	-10.9511
ཤིན་ཏུ་དབུལ་བའི་	-10.9514
▁ཨུ་རུ་སི་དང་	-10.9514
རེས་སྐོར་	-10.9515
▁ཐུགས་	-10.9515
དུས་བཀག་ལྟར་	-10.9518
ཚེས་བཅོ་ལྔ་ཉིན་	-10.9518
ཧྲང་ཧེ་	-10.9519
རྣམ་པའི་ཐོག་ནས་	-10.9522
གནག་	-10.9523
སྦྱར་བའི་	-10.9525
དང་རྒྱལ་ཡོངས་	-10.9527
གདེང་ཚོད་	-10.9527
ཏིན་	-10.9527
གདམ་ག་	-10.953
ས་སྐྱ་རྫོང་གིས	-10.953
ཅུང་ཟད་ཀྱང་	-10.9531
ཞིབ་འཇུག་ཁང་གི་	-10.9534
ཉམས་སུ་མྱོང་བ་	-10.9535
འབྲིང་ཆུང་གི་	-10.9536
ཐིན་གྱིས་	-10.9537
མིད་	-10.9537
བསྐྱར་དར་	-10.9539
▁ནུབ་བྱང་དགེ་	-10.954
36	-10.9541
རྒྱུ་ནོར་གྱི་	-10.9551
ལས་སྐྱེས་པ་	-10.9552
བཏོན་པ།	-10.9552
▁ཐང་	-10.9552
མི་བྱེད་པ་	-10.9556
ལ་ཐུག་འཕྲད་བྱས།	-10.9557
ཡོན་ཏན་གྱི་	-10.9559
རྗེས་སུ་འགྲོ་བ་	-10.9561
རབ་ཏུ་བྱུང་བ་	-10.9561
ན་མཛུབ་ཁྲིད་དུ་	-10.9564
སོ་ཏི་ཨ་རབ་	-10.9565
སྣང་།	-10.9566
ཚེས་གསུམ་ཉིན་	-10.9567
ལས་འགན་སྒྲུབ་	-10.9568
ཇེ་མང་དུ་འགྲོ་	-10.957
ཐོག་དང་པོར་	-10.957
བརྩོན་ལེན་བྱེད་	-10.957
པེ་ཅིང་གི་	-10.9571
ལྟ་སྟངས་	-10.9571
གྱོན་གོས་	-10.9573
བྱས	-10.9573
ཚེས་ལྔ་ཉིན་	-10.9574
ཅན་དང་།	-10.9575
▁ཐུར་ཁེ་	-10.9575
བྱ་བ་སྒྲུབ་མཁན་	-10.9575
མི་རུང་བ་	-10.9576
མ་མཐའི་འཚོ་བ་	-10.9577
གཙང་པོའི་	-10.9578
ཡོངས་ཀྱི་ཨང་	-10.9578
བརྙན་ཕབ་	-10.958
བྱ་རྒྱུ་ཡིན།	-10.9581
ཐེབས་རྩའི་	-10.9581
འགན་སྒྲུབ་	-10.9582
ཞེས་གསུངས་	-10.9582
མ་ཐོག་རླངས་འཁོར་	-10.9582
ཤྲཱི་	-10.9583
ནད།	-10.9584
▁ཆེས་	-10.9584
ཟི	-10.9585
ལམ་ཕྱོགས་	-10.9587
▁འཁོར་ལོ་	-10.9587
སྒེའུ་ཁུང་	-10.9587
འདི་ན་	-10.9588
▁ཁྱད་ལྡན་	-10.9588
▁རེ་སྐུལ་།	-10.959
འགས་	-10.959
བྱེད་པ	-10.9592
ངོ་གདོང་	-10.9593
ཇི་ལྟར་ན་	-10.9593
བྱེད་དགོས་པ་དང་	-10.9594
ཐུབ་པ་མ་ཟད།	-10.9594
ཟོང་	-10.9595
ཁྲོན་བོད་ལྕགས་ལམ	-10.9597
བརླན་	-10.9597
འོས་སློབ་ཆེན་གྱི	-10.9598
སྐུ་འབུམ་	-10.9598
སྒ་	-10.96
སེམས་དཔའི་	-10.9603
གྲོས་ཚོགས་ཐོག་	-10.9604
པ་ཉིད་དུ་	-10.9605
རྨང་གཞི་བརྟན་དུ་	-10.9606
ཚོ་ཆུང་	-10.9609
རིགས་གཞུང་	-10.9609
བསྒོམས་པས་	-10.961
དུ་འཚོགས།	-10.961
གྲུབ་ཆ་གལ་ཆེན་	-10.9611
▁ཟླ་དྲུག་པའི་	-10.9612
དམུ་	-10.9614
མངོན།	-10.9616
ལྡན་པས།	-10.9617
བསྐྱོན་	-10.9618
ཉིན་རེའི་	-10.9619
དང་ཐ་ན་	-10.962
འཕོ་བ་	-10.9623
དེང་གི་	-10.9623
ལ་ལྷན་ཚོགས་	-10.9624
གདའ	-10.9624
རང་མོས་	-10.9624
ཐུབ	-10.9625
.8%	-10.9625
པར་མི་	-10.9625
དགོངས་པའི་	-10.9625
དང་བླངས་པ་	-10.9625
བསྟན་པ་ནི་	-10.9626
ཁ་བརྡ་	-10.9626
▁གཙང་	-10.9627
ན་མི་བརྗེད་པར་	-10.9627
སོགས་ཀྱང་	-10.9629
▁མཚན་མ་	-10.963
▁ཞིང་ཆེན་ཏང་ཨུ་	-10.9631
གཞུང་ལས་	-10.9631
ཚེས་བཅོ་བརྒྱད་	-10.9632
མྱི་དམྱིགས་སོ།	-10.9632
བསམ་འཆར་དང་	-10.9633
མ་བགྲང་ལས་འདས་	-10.9633
གླིང་སྒྲུང་	-10.9634
▁ཕྱི་རོལ་	-10.9635
མཛུབ་མོ་	-10.9636
དུས་ན་	-10.9636
▁ཡིན་པ	-10.9636
ཕྱུག་པོ་ཆགས་	-10.9637
བྱ་དགོས་པའི་	-10.9639
▁ད་བར་	-10.9639
ཚེས་བཅུ་གཅིག་ཉིན	-10.9641
▁ཚན་རིག་	-10.9643
རྗོད་	-10.9645
བདེ་བར་གཤེགས་པ	-10.9648
དང་པོས་	-10.9649
འཐུས་མི	-10.9649
གཟབ་ནན་གྱིས་	-10.965
ཉེན་སེལ་	-10.9651
▁དེབ་	-10.9653
ཐུབ་པ་རེད།	-10.9654
མི་ཕྱེད་	-10.9656
བོད་ཀྱི་ལོ་གསར་	-10.9658
པ་བསྐྱངས་པ།	-10.966
སྒྲོལ་དཀར་	-10.9664
རྒྱུ་སྐར་	-10.9664
7%	-10.9665
རྨང་གཞིའི་སྒྲིག་	-10.9666
▁གློག་བརྙན་	-10.9668
འཚོ་བའི་ཆུ་ཚད་	-10.9668
དང་སྐར་མ་	-10.9668
▁ཡིན་ན་ཡང་	-10.967
སི་ཡིས་	-10.967
ཅིག་ཅེས་	-10.9671
སྲོང་བཙན་སྒམ་པོ	-10.9671
འཆི་བའི་	-10.9672
ཕྱུག་འགྱུར་ཡོང་	-10.9672
འཕྱུར་	-10.9673
▁37	-10.9673
གྲོས་འཆམ་	-10.9674
ཨུ་ཡོན་གྱི་	-10.9676
པ༷	-10.9676
བརྟག་ཞིབ་གནང་བ།	-10.9677
ལྡན་པར་	-10.9677
ལ་སྙོམས་པར་ཞུགས་	-10.9679
མོད་ཀྱི།	-10.9681
མཁྲེགས་	-10.9682
ཕྱི་ནས་	-10.9682
དམ་དུ་	-10.9682
ཕ་ལེ་སི་ཐན་	-10.9683
སྤྱི་ཚོགས་གཉིས་	-10.9684
བརྩམས་པ་	-10.9688
གྲངས་གཞིའི་	-10.9689
ས་དེའི་	-10.9689
དབྱར་གནང་	-10.9691
བར་བྱ་སྟེ།	-10.9691
ཟློས་གར	-10.9693
ཆོད་དོན་	-10.9694
རྡོ	-10.9695
དུ་སྐྱོད་	-10.9696
འགྲོ་བ་དང་	-10.9697
ཐལ་བར་འགྱུར་	-10.9697
དཔེ་སྐྲུན་ཁང་	-10.9698
གྲངས་མེད་	-10.9698
རྟེན་གཞིར་	-10.97
▁སྔོན་གྱི་	-10.97
ལྟུང་བྱེད་	-10.9701
བདའ་འདེད་	-10.9703
རང་སྟེང་གི་	-10.9704
བདེ་མཆོག་	-10.9705
ད་ཐེངས་	-10.9705
ངོ་ཞེས་	-10.9706
སྲུང་བ་	-10.9707
པའོ།།	-10.9708
ནག་པོའི་	-10.9709
ཟླ་བཅུ་བའི་	-10.971
བཅའ་ཁྲིམས་དང་	-10.9712
གཡུང་དྲུང་བོན་	-10.9713
བ་བཅས་བྱས་ནས་	-10.9713
▁ས་ཆ་	-10.9714
དམག་དམངས་	-10.9715
གཤིན་རྗེ་	-10.9716
བུ།	-10.9716
▁ཏང་ཡོན་	-10.9719
བྱ་འགུལ་སྤེལ་བ།	-10.972
བདུན་ཅུ་	-10.972
ཨུ་རུ་སིའི་ཙུང་	-10.972
ཆར་ཆུ་	-10.9721
ཀྲང་ཏི་ཅང་གིས་	-10.9721
ཏག་ཏག་	-10.9721
▁ངལ་རྩོལ་	-10.9723
གྲངས་འཛིན་	-10.9723
ཀུན་གཞི་	-10.9723
▁ཙམ་ཟིན་	-10.9725
▁ཧུར་ཐག་གིས་	-10.9727
སྐེད་	-10.9729
མགོ་ཁྲིད་པ་	-10.9732
.0	-10.9733
ལ་ཞུགས།	-10.9737
མཁས་གྲུབ་	-10.9738
བཟུང་སྟེ།	-10.9739
ལེགས་སྒྲིག་དང་	-10.974
རྟོག་ཞིབ་བྱེད་	-10.9741
འགྱུར་ཞེ་ན།	-10.9742
དོར་བ་	-10.9743
དགེ་བའི་ཆོས་	-10.9744
མི་དོན་	-10.9744
ཁྱབ་གདལ་བཏང་	-10.9744
དང་རུལ་སུངས་	-10.9744
02	-10.9745
▁སྣའི་	-10.9746
གསོལ་སྟོན་	-10.9747
བསྐྲུན་ཟིན་	-10.9749
ཡུན་རིང་པོའི་ནང་	-10.9749
ཉིན་གྱི་ཕྱི་དྲོ།	-10.975
བ་ཉིད་	-10.975
གཞི་རིམ་མང་ཚོགས་	-10.9751
མཁན	-10.9751
བདག་པོའི་	-10.9753
བརྗོད་བྱ་གཙོ་བོ	-10.9754
མ་ཤེས་	-10.9755
འཕྲལ་བསྟུན་	-10.9755
དང་ཆབས་ཅིག	-10.9755
▁ཀྲུང་ཧྭའི་	-10.9755
ཁ་ལོ་	-10.9756
▁མིག་སྔའི་	-10.9757
ངལ་གསོ་བྱེད་	-10.9757
གྷ་	-10.9757
ཆུ་ཚད་ཇེ་མཐོར་	-10.9758
ཤྲ	-10.976
ལ་དངོས་གཞིའི་	-10.976
བྱེད་རོགས་	-10.976
བསྐྱོད།	-10.9761
བསམ་བློར་	-10.9762
དབྱིན་ཇི་	-10.9763
པའི་ཐོག་	-10.9764
དམིགས་སུ་	-10.9765
གཏོང་གི་	-10.9766
ལ་བལྟ་	-10.9768
རིམ་པ་དང་པོའི་	-10.9768
ཞོ་སྟོན་	-10.9769
དུས་རྒྱུན་	-10.977
ཞུགས་ཏེ་	-10.9771
བྱས་པ་དང་འབྲེལ་	-10.9772
དངུལ་ཁང་གིས་	-10.9772
སྲིད་གྲོས་ཨུ་ཡོན	-10.9772
ཁྱེར་གྱི་གཞུང་ལ	-10.9773
ཐའེ་དབན་	-10.9774
གཤམ་གྱི་	-10.9774
གཟེངས་བསྟོད་ཐོབ་	-10.9775
པོ་ཤེས་རབ་ཀྱི་ཕ་	-10.9775
ཞེང་	-10.9775
འཐབ་རྩོད་ཀྱི་	-10.9776
▁བདེ་ཐང་	-10.9776
རྡུང་རྡེག་	-10.9777
རྒྱུན་གཏན་གྱི་	-10.9778
གཅིག་ལ་གཅིག་	-10.9778
བརྒྱ་སྟོང་	-10.9778
ཀུང་ཟི་	-10.9783
འཛུགས་སྐྲུན་བྱེ	-10.9783
འཇུ	-10.9783
▁ཕྱིས་	-10.9787
ཕ་ཡུལ་གྱི་	-10.9787
དམན་པ་	-10.9787
བར་བྱ་བ་	-10.9789
བདག་ཉིད་ཀྱིས་	-10.9789
གྱུར་ཏོ།	-10.9791
སྐབས་འདིར་	-10.9792
ལེགས་པོ་ཞིག་	-10.9793
དེང་རབས་ཞིང་ལས་	-10.9793
ཚོམས་ཆེན་	-10.9793
▁པེ་ཅིན་	-10.9795
གྲུབ་པ།	-10.9795
ཅོན་	-10.9796
སྒོ་ཕྱེ་	-10.9798
▁མཚན་ཉིད་	-10.9798
ལེགས་གྲུབ་ཟིན་	-10.9799
རྒྱལ་ཁབ་གློག་དྲ་	-10.98
▁དམངས་གཙོའི་	-10.9802
▁ཉེ་ལམ་	-10.9803
ཉོ་ཚོང་གི་	-10.9803
བྱམས་བརྩེའི་ངང་	-10.9804
ཨ་སྒོར་དུང་ཕྱུར་	-10.9804
སྤེལ་ཞིང་།	-10.9807
རྐྱེན་བྱུང་སྟེ་	-10.9807
ཇི་སྲིད་དུ་	-10.9808
ལས་རིགས་ལ་	-10.9809
བཞི་བརྒྱ་	-10.9809
གྲོས་མོལ་གྱི་	-10.9811
▁ཕོ་	-10.9811
ལོ་རབས་	-10.9811
ཟབ་ཏུ་གཏོང་	-10.9812
འགག་སྒོའི་	-10.9813
པའི་སྐབས་སུ་	-10.9817
ཐེག་ཆེན་	-10.9817
རྣམ་པར་གཞག་	-10.9817
རིགས་དབྱེ་	-10.9817
མདུན་གྱི་	-10.9819
ཀྱང་།།	-10.9819
ཟག་པ་	-10.9819
ལྷ་དང་	-10.9819
ཤེས་ནས་	-10.9819
▁ཉིན་གྱི་ཕྱི་དྲོ	-10.982
རྒྱལ་ལམ་	-10.982
གཅིག།	-10.9821
ལ་དམིགས་ནས།	-10.9822
ཀྲང་གཞོན་པ་	-10.9822
དབྱུག་	-10.9822
བྱེད་ཐབས་སྤྱད་	-10.9824
▁དེ་ན་	-10.9825
མཐོ་རུ་བཏང་	-10.9825
སྐུ་ཕྲེང་	-10.9826
སློབ་སྟོན་	-10.9826
གཡོལ་	-10.9827
ལག་བསྟར་བྱས་པའི་	-10.9828
ཡོད་དོ།།	-10.9829
བསྐོར་བའི་	-10.9829
རྩད་	-10.983
མཚོ་ཤར་གྲོང་ཁྱེར	-10.9832
རྩེའི་	-10.9832
ས་ཁུལ་ནས་	-10.9833
དྲུག་གིས་	-10.9834
བདེ་བླག་	-10.9834
གང་ཡིན་པའོ།	-10.9834
▁2006	-10.9836
ཁོངས་སུ་གཏོགས་	-10.9837
ཡོད་ཅེས་བཤད་	-10.9837
རྩའི་	-10.9837
མ་ཕྱོགས་སློབ་གསོ	-10.984
▁རང་ལྗོངས་ཀྱིས་	-10.984
འདུམ་འགྲིག་	-10.9841
▁བཀའ་	-10.9842
རྒན་གྲས་	-10.9842
དང་ཕན་ཚུན་	-10.9842
སློབ་དཔོན་གྱིས་	-10.9844
ཆབ་སྲིད།	-10.9845
▁དེ་ཚེ་	-10.9846
གཞན་རྣམས་	-10.9847
ས་མེད་ཐེག་མཆོག་	-10.9847
ཟིན་བྲིས་	-10.9849
བར་སྟོང་	-10.9849
ཚེས་ཉེར་ལྔ་ཉིན་	-10.9851
དུས་ཐུང་	-10.9851
བསམ་ཡས་	-10.9852
ཀཱ	-10.9853
ཞན་ཆ་	-10.9855
དགོངས་དོན་དང་	-10.9855
ཐུབ་རྒྱུར་	-10.9855
སེམས་ཀྱི་ཉི་ཟླའི	-10.9855
ན་མ་	-10.9856
ཀླུའི་	-10.9858
དབྱི་ལིང་	-10.9858
སྒྲ	-10.9859
བརྩེ་བའི་	-10.9859
ནི་དེ་	-10.9859
འཚོ་བ།	-10.9859
ནང་དུ།	-10.986
འགོ་ཁྲིད་ཀྱིས་	-10.986
དུས་སྟོན་	-10.986
རྩ་འཛུགས་བྱས་ཏེ་	-10.9864
ཁྲིམས་སྲོལ།	-10.9865
ཞིག་དང་	-10.9865
ཞིག་ཡོད་པ་	-10.9866
▁འཕར་བ།	-10.9871
གཟིགས་ཞིབ་	-10.9873
ཀྱི་ལེགས་ཆ་	-10.9873
རྙེད་པའི་	-10.9874
ལྟ་བ།	-10.9875
ཀླུང་	-10.9875
ཕན་པ་ཐོབ་	-10.9876
བསལ་བ་	-10.9876
མཐའ་འཁྱོངས་བྱས་	-10.9877
གཙོ་བོ།	-10.9877
རྗེས་འཇུག་	-10.9878
མཛད་སྒོ་རེབ་གོང་	-10.9878
རེན་	-10.9878
ཕྱེ་མ་	-10.9881
བསམ་པས་	-10.9881
ལེ་པཱ་ནུན་	-10.9884
▁ནམ་	-10.9884
བྱུང་བས།	-10.9884
གཞི་གཅིག་ཅན་གྱི་	-10.9886
མཐུད་ངང་	-10.9886
དབུལ་སྐྱོར།	-10.9887
དོན་ཐོག་ཏུ་འཁྱོལ	-10.9888
▁ལོའི་ཀྲུང་དབྱང་	-10.9891
རྒྱགས་	-10.9894
ཡུལ་གཞན་དུ་གནས་	-10.9895
▁སྲིད་པ་	-10.9895
ཆོས་རྗེ་	-10.9896
སྦྱིན་པར་	-10.9897
ཟློག་	-10.9897
▁མཁས་དབང་འཇིག	-10.9897
ཐབས་ཀྱིས་	-10.9901
གཞིས་ཆགས་	-10.9902
ཡི།།	-10.9902
པ་རེད།།	-10.9904
མདོ་ལས།	-10.9906
ཕྱོགས་གཅིག་ཏུ་	-10.9908
གཞིགས་	-10.9911
ཡོད་ན།	-10.9913
ལྗོངས་ཏང་ཨུད་དང་	-10.9913
ཅི་འདྲ་	-10.9913
དབུས་རྒྱུད་	-10.9913
▁མཐའ་	-10.9914
ལྷར་	-10.9915
ལེགས་སྐྱེས་ཕུལ་	-10.9917
▁ལྟ་སྐུལ་	-10.9918
པ་ལ་སོགས་པའི་	-10.9921
▁བསྐལ་པ་	-10.9921
ལས་ཆོད་	-10.9921
འཚོ	-10.9923
མེད་པར་བཟོ་	-10.9924
ཁྱབ་ཚད་	-10.9924
བརྗོད་པར་བྱ་སྟེ།	-10.9926
▁སློབ་མའི་	-10.9926
སྤྱོད་བཟང་	-10.9926
ཐུན་མོང་དུ་	-10.9927
▁ལས་རིགས་	-10.9927
བསམ་འདུན་	-10.9929
བསྔགས་པ་	-10.9929
དབུལ་སྐྱོར་དང་	-10.9931
དབྱི་རན་	-10.9933
ཁྱིམ་ཚང་ལ་	-10.9933
▁ལྕེའི་	-10.9936
▁ལྕེ་	-10.9937
དུས་མཚུངས་སུ།	-10.9937
རྒྱུན་འཛིན་པ་	-10.9939
བསྣམས་	-10.9939
བརྒྱད་དང་	-10.9941
པོ་དང་ཡུན་རིང་	-10.9941
སྒེག་	-10.9943
ར༷	-10.9943
▁སྦྱོར་བ་	-10.9943
རྣམ་པ་གསར་བའི་	-10.9945
▁འཕར་ནས་རྒྱལ་	-10.9946
མཆན་	-10.9947
▁དམག་	-10.9947
འཐད་པ་	-10.9947
གཞུང་ཁོངས་ཁེ་ལས་	-10.9948
མཁྲིས་	-10.9948
ཤིང་འབྲས་	-10.9951
འབྱུང་པོ་	-10.9951
ཡཱ	-10.9953
གཙོར་	-10.9953
ཡིག་རིགས་	-10.9954
བསྟན་པ་ནི།	-10.9955
སེལ་བ་	-10.9957
200	-10.9958
བཙན་པོའི་	-10.9958
སྐུ་གཤེགས།	-10.9959
▁འདུ་ཤེས་བཞི	-10.9959
འགར་	-10.996
ས་ཚིགས	-10.9961
རྡུལ་ཕྲ་རབ་	-10.9961
བཙུ	-10.9962
༢༧	-10.9964
ཤཱ་རིའི་བུ་	-10.9965
ལི།	-10.9965
དྲོ་སྐྱིད་	-10.9966
བརྒྱུད་སྒྲོག་	-10.9966
གལ་ཆེན་ཞིག་རེད།	-10.9966
རྙོག་འཛིང་	-10.9968
ས་ཁམས་	-10.9969
▁གཞོན་ནུ་	-10.9971
▁55	-10.9972
▁བྲག་	-10.9972
གནས་སྐབས་ཀྱི་	-10.9974
འཐུང་ཆུ་	-10.9976
བཟང་པོས་	-10.9976
▁ཟླ་བདུན་པའི་	-10.9977
བཟོད་སྒོམ་	-10.9977
▁སོ་	-10.9978
འགག་རྩ་	-10.998
ལས་དོན་ཁྲོད་	-10.9982
ལོ་གཅིག་གི་	-10.9982
ཁྱད་པར་གྱི་	-10.9982
ཕུལ་དུ་བྱུང་བའི་	-10.9984
སྣོད་བཅུད་ཤེས་	-10.9985
སྔ་ཕྱི་	-10.9985
བྱེད་མི་ཆོག	-10.9986
ཨུ་ཡོན་ཀྲང་	-10.9986
▁མ་ངོས།	-10.9986
མཐོ་རུ་	-10.9986
མི་ཐེངས	-10.9987
ནུས་པ།	-10.9988
མ་ཡིན་གྱི།	-10.9988
མགོ་ལོག་	-10.9989
ནས་ཡིན་པའི་	-10.9991
དང་པོར་སླེབས་པ།	-10.9992
འབྱོར་བ་	-10.9993
གང་ཡང་རུང་བ་	-10.9994
ཟླ་བ	-10.9994
▁ཡོད་	-10.9994
གྲོང་ཚོས་	-10.9994
ཚད་འཇལ་	-10.9996
ཏུན་ཧོང་	-10.9997
རྩིས་རྒྱག་	-11.0001
ཆོས་དང་	-11.0002
བྱེད་སྒོ་སྤེལ་བ་	-11.0003
གཅ	-11.0003
▁ཆོས་དབྱིངས་	-11.0004
བསྟན་ནས་	-11.0005
བཏོན་ཏེ་	-11.0005
▁རུལ་སུངས་	-11.0005
འབྱུང་བས་	-11.0006
ཡི་དམ་	-11.0007
▁མཁས་པ་	-11.0008
གླིང་དུ་	-11.0008
བརྒྱ་རྩ་བརྒྱད་	-11.001
པའི་ཕྱིར་ཏེ།	-11.001
ནུབ་ཏུ་	-11.0012
འདོད་ཡོད་ཅེས་	-11.0013
འདོད་ཚུལ་	-11.0014
བཙན་འཛུལ་	-11.0014
བསྒྲུབས་པ་	-11.0015
ལྗོངས་སྲིད་གྲོས་	-11.0015
སྐྱི་	-11.0016
ཁ་ལོ་བ་	-11.0017
རུས་པ་	-11.0018
བདག་མེད་པ་	-11.0019
ཆེན་པོ་དང།	-11.002
པའི་རྐྱེན་གྱིས་	-11.002
བཀའ་རྒྱ་	-11.0021
གཞན་སྒྱུར་	-11.0021
སྙམ་པའི་	-11.0022
ལས་རིགས་སོ་སོའི་	-11.0023
▁རང་ཞིང་གི་	-11.0024
▁སློབ་གྲྭའི་	-11.0025
དྷཱ་	-11.0026
ཉེན་རྟོག་པའི་	-11.0026
གནས་དེར་	-11.0027
མི་མཐུན་པའི་	-11.0028
དང་དེ་མིན་	-11.0028
ཐེབས་པ་	-11.0028
མ་རེད།	-11.0029
འགྱུར་ཏེ་	-11.003
པའི་དོན་ཏོ།	-11.0034
ཅེས་བྱ་བའི་	-11.0035
ནོར་ལུག་	-11.0035
▁ཉ་	-11.0037
ལག་བསྟར་དང་	-11.0037
▁གྲོས་ཚོགས་ནས་	-11.0039
བྱ་སྤྱོད་ཀྱི་	-11.0041
སྤུས་ཚད་མཐོ་རུ་	-11.0044
རིགས་ཀྱི་བུ་	-11.0046
ཚོགས་པའི་ཁོངས་མི	-11.0047
ཕྱོགས་བསྡོམས་	-11.0051
དབུལ་སྒྲོལ་གྱི་	-11.0051
ཨོ་རྩལ་འགྲན་ཚོགས	-11.0051
▁ཡི་ས་འགུལ་	-11.0052
ལ་ཉན་	-11.0055
སྐྱེ་གནས་	-11.0056
ནམ་ཞིག་	-11.0056
▁42	-11.0059
དཔེ	-11.006
རྗེའི་	-11.0061
བྲེ	-11.0062
བགྱི་	-11.0065
སྤྲད་དེ་	-11.0066
འབྲོག་ཁུལ་	-11.0066
དགོས་པས་	-11.0066
གཏན་སྡོད་	-11.007
ཅིག་ཏུ་	-11.0071
འཆང་བ་	-11.0072
▁56	-11.0073
བརྡུང་	-11.0074
འཕེལ་སྒྱུར་	-11.0075
འཚམ་པའི་	-11.0076
འི།	-11.0077
སྒྲིག	-11.0077
གླེང་བ།	-11.0078
དཔྱད་གཏམ་	-11.008
▁རྩོམ་རིག་	-11.008
གནས་སྟངས་	-11.008
རྣམ་པར་གྲོལ་བ་	-11.0081
▁གྱོད་	-11.0081
ལ་ཤུགས་སྣོན་པ།	-11.0083
ཅོད་པན་	-11.0085
གཏེར་ལེན་ཁ་	-11.0085
པར་བླངས།	-11.0085
མིག་དམར་	-11.0086
དབུ་ཁྲིད་	-11.0087
ལམ་དུ་བསྐྱོད་	-11.0087
ལས་བཟོའི་	-11.0089
བཞུད་	-11.0089
ལ་ལྟ་སྐུལ་	-11.0092
པ་དང་སྦྲགས་	-11.0094
མཐོར་འདེགས་གཏོང་	-11.0094
རང་ལྗོངས་	-11.0095
སྦྲ་གུར་	-11.0096
གོམས་པ་	-11.0097
བའམ་ཡང་ན་	-11.0098
ར་སངས་རྒྱས་	-11.0098
དར་སྤེལ་གཏོང་	-11.0101
གྲོང་ཁུལ་	-11.0102
འདམ་གཞུང་རྫོང་	-11.0103
དྲུག་ཏུ་	-11.0103
དངུལ་གྱི་	-11.0104
བྱེ་མ་	-11.0105
བྱས་པ་མ་ཟད་	-11.0106
56	-11.0108
སྟོང་པར་	-11.0109
ཞིག་དང་།	-11.0109
དགེ་རྒན་གྱིས་	-11.0109
འཐུས་ཚབ་ཚོགས་པས་	-11.011
▁མར་	-11.0111
དངོས་པོ་ཐམས་ཅད་	-11.0111
ལ་ཞུགས་པ་	-11.0111
དྲུག་ལ་	-11.0111
དང་བསྟུན་ནས།	-11.0112
གསོ་བཅོས་	-11.0113
ཐུགས་ཀྱི་	-11.0113
འདྲེན་པ་	-11.0113
ལས་བགོས་	-11.0113
གྱི་ནུས་པ་	-11.0114
འོད་ཀྱིས་	-11.0114
དམངས་འཚོར་	-11.0115
སེམས་ནི་	-11.0115
▁སྙིང་རྗེ་	-11.0117
དང་ལྡན་པའོ།	-11.0117
འཛུགས་དགོས།	-11.0118
ཕྱིར་དྲན་	-11.012
ཟབ་པ་	-11.0121
ཆོས་ནི་	-11.0121
ཚོང་འདུས་	-11.0123
ལྟ་བུར་གྱུར་	-11.0124
བར་བྱའོ་ཞེས་	-11.0126
རབ་རིབ་	-11.0126
དུས་མཉམ་	-11.0127
▁མཚོ་ཤར་	-11.0128
ང་ཚོས་ངེས་པར་དུ་	-11.0128
ཁོར་ཡུག་གཙང་སྦྲ་	-11.0128
འགག་གཏོར་	-11.0128
དམ་ཆོས་	-11.0129
གྲོས་ཚོགས་སུ་ཞུག	-11.0129
དད་ལྡན་	-11.013
རྩམ་	-11.0133
འགོ་ཁྲིད་ཚན་ཁག་	-11.0133
པུའུ་ཀྲང་གཞོན་པ་	-11.0135
བུ་དང་	-11.0135
འཁྲབ་སྟོན་པ་	-11.0135
གཡེང་	-11.0136
མཐའ་འཁྱོངས་དང་	-11.0137
ཕྱོགས་བཅུའི་	-11.0137
ལོ་རེ་བཞིན་	-11.0138
གསར་བ་ཞིག་	-11.0139
▁༢༠༡༥	-11.0144
མགོ་ཚུགས་	-11.0145
ལྷ་རྣམས་ཀྱི་	-11.0146
རང་རང་	-11.0147
རྐང་རྩེད་སྤོ་ལོ	-11.0147
ཤེས་པར་བྱ།	-11.0148
གཤོག་	-11.0149
▁ཧྥ་རན་སེའི་	-11.015
▁ཞེས་གསུངས་པ་	-11.015
དེབ	-11.0151
རྣམས་ཀྱིས།	-11.0152
ཚེས་བདུན་ཉིན་	-11.0152
▁གཞི་རྩའི་	-11.0153
མཐོ	-11.0154
བུད་མེད་དང་བྱིས་	-11.0154
ཡིས་ཉིན་དེར་	-11.0155
བཙོག་ཆུ་	-11.0156
ཟུང་འབྲེལ་གྱིས་	-11.0157
མཛུབ་ཁྲིད་དུ་	-11.0158
གཞལ་	-11.0159
ལས་སྐྱེས་	-11.0161
ཅིས་ཀྱང་	-11.0161
ལ་ཤུགས་སྣོན་དང་	-11.0162
དུ་འགྱུར་བ་	-11.0165
བྲ་	-11.0165
ར་འོག་	-11.0165
ཞིང་ཁ་	-11.0167
རྒྱལ་ཁབ་ལ་	-11.0167
▁མའོ་	-11.0168
ཨ་མེ་རི་ཁ་དང་	-11.0169
བརྗོད་གཞི་	-11.0169
▁སོང་	-11.0169
འགན་འཁྲི་བློ་ལ་	-11.0169
དར་བ་	-11.0169
འདུ་ཤེས་གསར་པ་	-11.017
འདི་དག་གིས་	-11.0171
ད་ཡོད་ཀྱི་	-11.0172
བློ་རིག་	-11.0173
ཆའོ་	-11.0173
ཁག་དང་	-11.0175
འི་རྒྱུན་ལས་	-11.0175
ལ་སེམས་	-11.0178
ཆེ་རུ་གཏོང་བ་དང་	-11.0179
བ་དང་ཆབས་ཅིག་	-11.018
མཁའ་སྐྱོད་	-11.0182
འི་གྲོས་ཚོགས་	-11.0183
རྣམ་པ་བཞི་	-11.0185
བྱ་དགའ་སྤྲོད་	-11.0186
བདག་གིར་	-11.0186
དཱ	-11.0187
སྟོང་པའི་	-11.0187
ས་ཡི་	-11.0188
འོད་སྟོང་འབར་བ	-11.0189
ཚེ་རབས་	-11.0191
ཁྱ	-11.0192
ཐབས་དང་ཤེས་རབ་	-11.0194
▁ཇི་ལྟར་ན་	-11.0195
གཙོ་སྐྱོང་	-11.0196
མཁའ་དབུགས་	-11.0196
བརྗོད་པ་རེད།	-11.0196
སྟེ་ཉུང་མཐར་ཡང་	-11.0197
ཤུགས་རྒྱག་	-11.0198
འཇིག་པའི་	-11.0199
རླངས་འཁོར་ཞིག་	-11.0199
ཞིབ་འཇུག་ཚོགས་པ	-11.0201
པེན་	-11.0202
རྦ	-11.0202
ཀྱི་ཧྲུའུ་ཅི་	-11.0202
ཞབས་ཞུ།	-11.0204
ཕིང་གིས་	-11.0204
▁འདི་ལོའི་ཟླ་	-11.0207
མེས་པོ་	-11.0207
གཞན་ནི་	-11.0208
བཀུར་སྟི་	-11.021
དངོས་པོ་རྣམས་	-11.021
དུ་བསྒྱུར་	-11.0212
ཕྱག་མཚན་	-11.0213
ཕྱི	-11.0213
ཕན།	-11.0214
▁དགེ་བ་	-11.0215
གྱི་འབྲེལ་ཡོད་	-11.0215
འདབས་	-11.0219
བཀྲུས་	-11.0219
པའི་ཆེད་མཁས་པར་	-11.022
ལ་དགའ་ཞེན་	-11.0221
འདུ་ཤེས་ཟབ་ཏུ་	-11.0222
ལ་ངོ་རྒོལ་བྱེད་	-11.0224
མྱུར་བགྲོད་	-11.0225
བྱང་དུ་	-11.0225
འཁོར།	-11.0227
བདེ་བ་ཆེན་པོ་	-11.0227
▁མཐའ་མཚམས་	-11.0228
དག་དང་	-11.023
ཀྱི་ཐོག་ནས་	-11.0231
འཚོལ་ཞིབ་བྱེད་	-11.0232
གཞི།	-11.0234
པའི་གནས་	-11.0235
བཞི་དང།	-11.0237
ཁོ་ཚོ་	-11.0237
མས	-11.0239
གནས་ལ་	-11.0239
ལུས་པོ་	-11.0241
པཎ་ཆེན་ཨེར་ཏེ་ནི	-11.0242
རིམ་འཕར་	-11.0242
མི་ཉག་	-11.0242
སྦྲག་སྲིད་	-11.0244
མི་འགྲུབ་	-11.0244
ཚིལ་	-11.0244
ཡང་ཡིན།	-11.0248
སོགས་ཐད་ཀྱི་	-11.0248
གས་རང་སྐྱོང་ཁུལ་	-11.025
དྲན་གསོ་ཞུ་བའི་	-11.025
བཛྲ	-11.025
ས་ཚུགས་	-11.0251
རྣམ་པ་ཐམས་ཅད་དུ་	-11.0251
འཛིན་པ་དང།	-11.0254
ཀྲན་	-11.0258
ཚན་པ་ཁག་གིས་	-11.026
འཐུ་	-11.026
ཡིན་ནའང་	-11.0261
ཤར་ལྷོའི་	-11.0262
ཕན་པའི་	-11.0262
རྣམ་པར་རྟོག་པའི་	-11.0263
པུའུ་ཡི་པུའུ་ཀྲང	-11.0265
སྒྲིག་བཟོ་	-11.0268
ནུབ་ཕྱོགས་ཀྱི་	-11.0269
བདེ་བླག་ངང་སྤེལ་	-11.0269
▁བསམ་བློ་	-11.0269
▁དྲ་རྒྱའི་	-11.027
སྲ་ཞིང་བརྟན་པའི་	-11.0272
ཡོངས་བསྒྲགས་བྱས་	-11.0272
བསགས་པ་	-11.0273
འགའ་ཞིག་གིས་	-11.0273
▁དྲན་པ་	-11.0275
74	-11.0277
དཀའ།	-11.0279
སྟར་	-11.0279
དུས་ཚིགས་སྔོན་མ་	-11.028
ཐོབ་པ་རེད།	-11.0281
མཇལ་འཕྲད་གནང་།	-11.0285
ལན་དུ་	-11.0286
བང་སོ་	-11.0286
སློབ་ཕྲུག་	-11.0288
པར་དབང་ངེད་	-11.0289
ཁྲིམས་མཐུན་ཁེ་	-11.029
ཕྱོགས་སུ་བསྐྱོད་	-11.029
སླད་ཕྱིན་	-11.0294
བྱ་བའི་སྙན་ཞུ་	-11.0294
དིང་	-11.0294
ཡིས།།	-11.0294
དོན་དམ་པའི་	-11.0294
བཅུ་ཕྲག་	-11.0296
ཚོགས་འདུའི་ཐོག	-11.0296
ཅེས་བྱ་བ་ལ་སོགས་	-11.0297
གནས་སྐོར་བ་	-11.0298
གོ་བ་གཏིང་ཟབ་	-11.0298
གཉིས་ཕན་	-11.0299
རྒྱས།	-11.03
བརྩམས་པའི་	-11.03
དང་ལག་ལེན་	-11.0301
ཞག་བདུན་	-11.0303
▁ཆབ་སྲིད།	-11.0303
གཅིག་ནི་	-11.0303
ལག་བསྟར་བྱ་རྒྱུ་	-11.0304
ཁུན་	-11.0305
སངས་རྒྱས་ཀྱིས་	-11.0305
《	-11.0306
ཐོགས་མེད་	-11.0306
འབག་	-11.0307
འདྲི་རྩད་	-11.0308
གདུལ་བྱ་	-11.0308
▁བྱེད་པ	-11.0308
དོ་དམ་ལམ་ལུགས་	-11.031
རྣ་བའི་	-11.031
ཧཱུཾ།	-11.0311
སོན་བཟང་	-11.0313
བྱང་ཆིངས་	-11.0315
བསྒྲུབས་པའི་	-11.0315
མྱུལ་ཞིབ་	-11.0316
▁འཁོར་བ་	-11.0316
▁སྟོང་པ་ཉིད་	-11.0317
སུམ་བརྒྱ་	-11.032
མཐའ་འཁོར་དུ་	-11.0321
སྤུས་ཀ་	-11.0325
ཟིན་ནས་	-11.0327
ཚེས་གཉིས་ཉིན་	-11.0328
ཁམ་བུའི་མེ་ཏོག་	-11.0328
གཟུགས་པོ་	-11.033
རྒྱལ་ཚོགས་	-11.0331
ལོ་ཆུང་	-11.0332
ཆ་འཕྲིན་ཅན་གྱི་	-11.0333
▁རེ་ཞིག་	-11.0334
དང་མཉམ་	-11.0335
▁རྩྭ་ཐང་	-11.0336
རིག་གནས་དུས་ཆེན་	-11.0337
ནས་ལོ་ངོ་	-11.0338
གོར་	-11.0338
ཡང	-11.0338
▁གི་སློབ་སྦྱོང་	-11.0341
ཡུད་ཙམ་	-11.0342
ཆེན་མོ	-11.0343
▁འཕར་བ་དང་།	-11.0344
གཟུགས།	-11.0344
ཆེ་ཤོས་ཀྱི་	-11.0345
རིམ་པ་ཁག་གི་	-11.0346
སྡོད་ཁང་དང་	-11.0346
ལོར།	-11.0347
བརྙན་ལམ་	-11.0347
དེ་མ་ཐག་	-11.0348
སྣ་ཚོགས་ཀྱིས་	-11.0348
གསེར་དངུལ་	-11.0349
སྒྲུབ་པ་དང་	-11.0353
གུང་གསེང་	-11.0354
སྐུ་བརྙན་	-11.0354
ཡུལ་སྐོར་བའི་	-11.0355
ཞབས་ཞུ་ལྟེ་གནས་	-11.0355
ཁོ་ཚོས་	-11.0355
ཤོར་བ་	-11.0357
ཚེས་བརྒྱད་ཉིན་	-11.0359
ཀྲུའུ་ཞི།	-11.0359
གཞི་རྟེན་	-11.036
རོགས་སྐྱོར་གྱི་	-11.0363
ལྡན་པ་ཞིག་	-11.0363
ཚེས་དྲུག་ཉིན་	-11.0364
མ་ལགས་	-11.0364
དང་འཚམ་པའི་	-11.0364
སྤྱི་བསྡོམས་	-11.0366
▁དེ་དུས་	-11.0366
འཇོན་མི་	-11.0367
ཤིང་ཏོག་	-11.0369
བསླེབས་	-11.0371
དེ་ནི།	-11.0371
འགྱུར་བ།	-11.0374
སྤྱི་ཚེས	-11.0374
དང་ཨ་མེ་རི་ཁའི་	-11.0376
ཁ་ཤས་ཀྱིས་	-11.0377
▁ཁ་ཅིག་	-11.0377
སྐྲུན་པའི་	-11.0378
ཡུལ་སྲོལ་	-11.0381
དམིགས་ཚད་ལས་འགན་	-11.0383
པ་ཞི་	-11.0383
མདོའི་	-11.0384
དམངས་འཚོ་ལེགས་	-11.0385
▁བསྟན་འཛིན་	-11.0387
▁བྱིས་པའི་	-11.0389
གཙོ་བོ	-11.0393
མཇུག་རྫོགས་	-11.0393
▁དཀར་མཛེས་	-11.0394
▁ཡན་ཟིན་	-11.0395
ན་ཨུ་ཡོན་ལྷན་ཁང་	-11.0396
གླེང་།	-11.0397
▁གླུ་	-11.0397
རྒྱལ་དར་	-11.0397
ལོ་ལྔའི་	-11.0397
བསམ་གཏན་གྱི་	-11.0397
ཁ་གཏད་བོད་སྐྱོར་	-11.0398
སྡོང་ཕྲུག་	-11.0399
གནས	-11.0399
ཀྱི་སྤུས་ཚད་	-11.04
ལྗོངས་སྨིན་གླིང་	-11.04
མགྲིན་པ་	-11.0401
དུས་སྐབས་སུ་	-11.0402
རྒྱ་མཚོར་	-11.0403
▁འདི་དག་	-11.0407
གུས་པ་	-11.0408
ལག་ན་	-11.0409
རྩམ་པ་	-11.0409
རྨ	-11.041
མཐའ་འཁོར་གྱི་	-11.041
ཞེན་པ་	-11.0412
སྲུང་སྐྱོབ།	-11.0413
▁བསྡོམས་པས་	-11.0414
འདི་ལྟ་སྟེ་དཔེར་	-11.0416
བཅས་པ་	-11.0417
ཡོང་བའི་འགན་ལེན་	-11.0419
གོ་རིམ་ལྡན་པའི་ང	-11.0421
▁གྲོང་ཚོ་	-11.0421
འགན་ལེན་བྱེད་	-11.0421
བྱ་བ་ལེགས་པོར་	-11.0422
ལ་ལྟོས་ནས་	-11.0422
ཏང་ཡོན་དང་	-11.0424
ལས་འཛོལ་	-11.0424
ཤེས་ཀྱི་	-11.0425
གཅན་ཚ་རྫོང་	-11.0427
སྤྲད་པ་	-11.0427
ཡིན་མོད།	-11.0427
ནུས་ལྡན་གྱི་	-11.0428
འོངས་པ་	-11.043
སྤྲོ་སྐྱིད་	-11.0431
ཁྱད་འཕགས་	-11.0431
སྡོམ་རྩིས་	-11.0433
བློ་ལྡན་	-11.0434
རང་བརྟེན་	-11.0435
བྱས་ནས་ལོ་	-11.0436
ལ་བལྟས་	-11.0439
▁ཚོང་དཔོན་ནོར་	-11.0441
པགས་པ་	-11.0442
དྲན་གསོ་	-11.0444
བཞེངས་པའི་	-11.0444
ཕུང་པོའི་	-11.0445
ཐེངས་གསུམ་	-11.0448
འཛུགས་སྐྲུན་དང་།	-11.0448
རི་ཉིལ་	-11.0449
བདེ་སྡོད་	-11.0449
▁བཅོས་སྒྱུར་	-11.045
རྗེས་སུ་དྲན་	-11.0451
ཀི	-11.0452
ལ་ཕན་པ་ཐོབ་	-11.0458
མཚན་སྙན་ཐོབ་	-11.0461
མདུན་གྲལ་དུ་	-11.0463
▁རྨང་གཞི་བརྟན་	-11.0464
ཐིང་གིས་	-11.0464
འགྱོད་པ་	-11.0467
གཟར་	-11.0472
▁༢༠༡༩	-11.0472
ལ་བརྩི་འཇོག་	-11.0473
.9%	-11.0474
བཀྲ་ཤིས་ཀྱིས་	-11.0474
ཆི	-11.0476
མེད་པའི་ཕྱིར།	-11.0478
ཨ་རབ་རྒྱལ་ཁབ་	-11.0479
སྐུལ་མ་	-11.0479
བཟང་བའི་	-11.0481
གོ་བར་	-11.0481
ལ་ཡར་སྐུལ་	-11.0481
བཟང་བ་	-11.0482
བརྐུས་	-11.0483
བདག་ཏུ་མ་བཟུང་བ	-11.0484
ནཱ	-11.0487
མྱུར་པོ་དང་ཡུ	-11.0488
ལོའི་ལོ་མཇུག་བར་	-11.0488
ཏོན་	-11.0489
ཡོད་པ་མ་ཡིན་	-11.049
▁ཤིན་ཅང་	-11.049
དུ་འཚོགས་པ།	-11.0492
མང་ཉུང་	-11.0494
ན་རིང་བདེ་འཁོད་	-11.0495
འཛུགས་རྒྱུར་	-11.0496
▁ཁྲུང་ཆིང་	-11.0496
སྐད་ཆའི་	-11.0496
▁མེད་པ	-11.0498
འགྱུར་ཞིང།	-11.0502
རྒོལ་གཏམ་དྲག་པོ་	-11.0502
རྒྱུན་ཆད་	-11.0502
94	-11.0503
དཔལ་གྱི་	-11.0505
དུས་མཉམ་དུ་	-11.0505
བཏགས་པའི་	-11.0505
མཚོ་སྔོན་དུ་	-11.0506
▁ཐེངས་འདིར་	-11.0506
—	-11.0506
ཚོམ་	-11.0506
བསྐོ་	-11.0511
རྒྱག་པ་དང་།	-11.0511
འི་བཅོས་སྒྱུར་	-11.0512
འཕོ་	-11.0512
▁འདོད་	-11.0512
ངག་རྒྱུན་	-11.0514
ཡིན་པ་དེ་	-11.0519
▁དེ་སྔ་	-11.052
▁ཝང་ཅན་ཅུན་གྱིས་	-11.052
▁བོད་སྐད་དུ།	-11.0521
ཏང་གཤིས་	-11.0521
55	-11.0523
གཉིས་ཕན་མཉམ་ལས་	-11.0525
མ་འོངས་པར་	-11.0526
གཞུང་དོན་	-11.0527
ཚད་ལྡན་དུ་གཏོང་	-11.0527
དེ་ཡིས་	-11.0528
བྱེ་བྲག་ཏུ་	-11.0529
གཤོང་	-11.053
འཇིམ་	-11.053
▁ཤ་ར་དྭ་ཏིའི་བུ་	-11.053
སྒྲིག་གཞི་དང་	-11.0531
གསར་འབྱེད་	-11.0531
ཡུལ་གྱར་བའི་	-11.0533
གཤིན་	-11.0534
པཎ་ཆེན་རིན་པོ་ཆེ	-11.0535
སྟོན་པས་	-11.0535
སེལ།	-11.0536
▁ཁུལ་ཡོངས་ཀྱི་	-11.0537
ཁྱད་སྟོབས་	-11.0537
འདི་སྐད་	-11.0538
བདེ་མཐའ་སྲུང་	-11.0538
ཚོགས་ཆེན་ལ་ཞུགས་	-11.054
▁བྱང་	-11.0541
ཡིད་ལ་དམ་པོར་བཅང	-11.0541
རང་ལྗོངས་སུ་	-11.0541
མགོར་	-11.0546
ཅུའུ་ཡི་	-11.0547
▁རྒྱ་གར་སྐད་དུ།	-11.0549
མཆོད་སྦྱིན་	-11.0551
རང་དགར་	-11.0551
བཟོ་བཅོས་འཆར་ཟིན	-11.0552
དྲུག་པ།	-11.0552
ཉིན་བཞིན་	-11.0553
དུས་བཀག་	-11.0555
▁དེ་ལྟ་ན་	-11.0556
བྱེད་ཚུལ་	-11.0556
དེ་རྣམས་ཀྱི་	-11.0557
བརྟན་ལྷིང་གི་	-11.0557
བས་ན་	-11.0558
དཔག་མེད་	-11.0558
▁གཞི་	-11.0561
མི་གཅིག་	-11.0561
▁ལོ་རྒྱུས་ཀྱི་	-11.0562
དོན་ཚན་བརྒྱད་	-11.0562
▁ལོ་ནས་བཟུང་།	-11.0564
མ་ཡིན་པའི་ཕྱིར་	-11.0564
ཊི	-11.0565
འདོམས་	-11.0565
རྨང་གཞིར་	-11.0566
གན་	-11.0566
▁ནུབ་	-11.0567
པར་འདོད་པ་	-11.0568
དམ་འཛིན་དང་	-11.0569
མིན་ཏེ།	-11.0569
མག་	-11.057
དོན་ཏོ།	-11.0574
▁དེ་ཡིས་	-11.0574
སོང་ནས།	-11.0575
བྱང་ཐང་	-11.0579
འཚམས་འདྲིར་	-11.058
▁འཇར་པན་གྱི་	-11.058
ལྡ	-11.058
རྩྭ་ས་	-11.0581
ཆོས་ཀྱི་སྐུ་	-11.0582
གཅིན་	-11.0583
དང་གསར་གཏོད་	-11.0583
གཙོ་བོས་	-11.0584
མགུར་	-11.0584
སྤྱི་དབང་མིན་པ	-11.0584
ཞིན་ཅང་	-11.0584
མཐོ་སློབ་སློབ་	-11.0585
རྫོང་དེའི་	-11.0588
▁རྒྱལ་པོ་ཆེན་པོ་	-11.059
འཛུགས་སྐྱོང་དང་	-11.059
དམངས་གཉེར་	-11.059
▁ཀུན་སྤྱོད་	-11.0591
ཡང་ངོ།	-11.0593
ཁྲིམས་སྲུང་	-11.0594
དང་ཞིང་ལས་	-11.0599
4%	-11.06
འགོ་ཁྲིད་ཀྱི་	-11.0601
སྲ	-11.0601
སྐབས་བཅུ་པའི་	-11.0603
སྐུ།	-11.0603
བྱས་པ་ནི་	-11.0604
རང་སྐྱོང་ལྗོངས།	-11.0604
སོལ་	-11.0604
ཇེ་ཉུང་དུ་གཏོང་	-11.0605
ངང་འཕེལ་རྒྱས་	-11.0606
གྲོང་མིར་	-11.0606
མི་རེར་ཆ་སྙོམས་	-11.0607
དུས་ཡུན་རིང་བོར་	-11.0607
གང་ལེགས་བྱས་ཏེ་	-11.0608
བྱེད་པོའི་	-11.0608
རིག་གནས་ཉམས་ཞིབ་	-11.0608
མེད་ན།	-11.0611
གྱུར་ནས་	-11.0612
བཀོད་ཡོད།	-11.0613
འགོ་འཛིན་མཛད་དེ་	-11.0614
ཁོ་བོས་	-11.0614
ཞི་གནས་	-11.0615
ལོ་རྒྱུས།	-11.0615
ཞིང་ཁམས་	-11.0615
བཀའ་འགྱུར་	-11.0617
ལྷོ་བྱང་	-11.0618
ར།།	-11.0621
ལ་རྒྱལ་དོན་	-11.0623
▁གཏིང་ཟབ་ངང་	-11.0623
མཉམ་པའི་	-11.0623
བར་གྱི་ལྕགས་ལམ་	-11.0623
བཞི་ཡི་	-11.0624
སྙན་ཞུ	-11.0626
ཁོར་སྲུང་	-11.0626
༠	-11.0626
རང་བཞིན་དང་།	-11.0627
མདོ	-11.0627
ཟི་ཁྲོན།	-11.063
སྒེར་གྱི་	-11.063
གཞོགས་	-11.063
བྱེད་ཆེད་	-11.0631
གྲོན་	-11.0632
བཞིན	-11.0633
གཞོམ་	-11.0634
ཁྱད་ཆོས་ལྡན་	-11.0635
རྗེས་སུ།	-11.0636
འགྱུར་ལ།	-11.0636
དོན	-11.0638
བ་ཀྱི་ཙུང་ཐུང་	-11.0639
▁དགའ་བ་	-11.0639
རྨང་	-11.0639
སྐད་ཀྱི་	-11.0642
མི་འདང་བའི་	-11.0642
བཀླགས་	-11.0642
ཤང་།	-11.0643
འཇང་	-11.0644
▁དབྱི་སི་རལ་གྱི་	-11.0646
གཞིས་ཀ་རྩེ་	-11.0647
ཆེའི་	-11.0647
ལ་གནོད་འཚེ་	-11.0647
ཅན་དང།	-11.0648
དང་སྨན་བཅོས་	-11.0648
སྦྱིན།	-11.0648
ཙྪ་	-11.0649
03	-11.065
སྙན་ཞུའི་ནང་	-11.0651
▁ཡན་གྱི་	-11.0652
▁ལྷག་མ་	-11.0652
གྲོས་འཆམ་བྱུང་།	-11.0655
རང་བཞིན་ནོ།	-11.0657
9%	-11.0658
རྒྱལ་སྲུང་བློན་	-11.0658
འཆལ་	-11.066
ཕྱོགས་ཁག་གིས་	-11.0661
ནས་སུ།	-11.0661
ཀྲི་པུའུ་	-11.0661
འི་དཔལ་འབྱོར་	-11.0663
ཟུང་འཇུག་	-11.0664
ཞབས་ཞུ་སྒྲུབ་	-11.0664
དང་མང་ཚོགས་	-11.0665
གོ་སྐབས་སུ་	-11.0666
མཆི་	-11.0666
ལས་བཟོ་བའི་	-11.0667
མདུན་ལྗོངས་	-11.0667
ཉན་པ་	-11.0668
ཞོག་ཁོག་	-11.0669
ཆེ་བ་དང་།	-11.067
ལྔ་ཡི་	-11.067
3.	-11.0672
▁54	-11.0672
དེས་ཀྱང་	-11.0672
གཞན་གྱི་དོན་	-11.0673
ཕོ་བྲང་པོ་ཏ་ལའི་	-11.0676
ཇི་སྙམ་དུ་སེམས།	-11.0676
ཐད་མ་དངུལ་	-11.0677
འདབ་ཆགས་	-11.0677
▁ཞིང་ཕྱུགས་ལས་	-11.0677
རྒྱན་གོས་	-11.0677
ལ་གཞིགས་ཏེ་	-11.0677
ས་པའི་	-11.0677
རྡོ་རྗེ་རབ་བརྟན་	-11.0677
མ་དཔེ་	-11.0678
ནུས་རྩལ་	-11.068
▁1500	-11.0682
སྤོས་དབུལ་སྐྱོར་	-11.0682
པིང་	-11.0682
སྒྲོལ་མས་	-11.0683
▁སྤྱི་པའི་	-11.0683
▁ཆུས	-11.0684
ཇི	-11.0686
ལ་གྲུབ་འབྲས་	-11.0687
▁བུམ་པ་	-11.0687
ཧྲུའུ་ཅི་དང་པོ་	-11.0689
སྒྲ་དབྱངས་	-11.069
གྲོང་མི་ཚོས་	-11.0692
ཐུབ་པ་བཅས་	-11.0692
རྫོང་མཁར་	-11.0692
བྱེད་བཞིན་ཡོད་པ།	-11.0692
བརྡ་ཐོ་	-11.0693
དགའ་ཞིང་	-11.0694
བྱ་རྒྱུ་ཡིན་པ་	-11.0695
རྒྱ་ཁྱབ་ངང་	-11.0695
▁བསམ་པ་	-11.0697
▁ཨ་མེ་རི་ཁ་དང་	-11.0698
བཏང་བར་	-11.0701
ཉེར་གཉིས་	-11.0702
བྲུ	-11.0702
བཀྲ་ཤིས་བདེ་ལེགས	-11.0703
སྤྱད་དེ།	-11.0707
34	-11.0708
ཕྱེ་བ་	-11.0708
ཐོན་ལས་འཕེལ་རྒྱས	-11.0708
བྱས་ཡོད་	-11.0709
བདེ་ཐང་ངང་	-11.071
ལོ་བཅུ་	-11.071
འཕེལ་རྒྱས་ཕྱིན་	-11.0711
▁ནགས་	-11.0711
དོམ་	-11.0712
དཀ	-11.0715
བྱས་ཚུལ་	-11.0716
གཞུང་ཚབ་ཆེན་མོ་	-11.0716
ཎྜ་	-11.0717
བརྐོ་	-11.0718
དཔེ་ཚོགས་	-11.0718
འདོན་པ་	-11.0718
འ་རྣམས་ཀྱི་	-11.0721
འགོ་གཙོ་	-11.0722
ཨ་རབ་མཉམ་འབྲེལ་	-11.0723
ལུང་གིས་	-11.0725
བག་མེད་	-11.0725
བཞིན་མཆིས།	-11.0727
▁བདག་ཅག་	-11.0728
ཉུང་གཏོང་	-11.0728
ཁྱོན་མ་དངུལ་	-11.073
ཅུན་གྱིས་	-11.0731
བཤད་པར་	-11.0734
ཕྲན་མཉམ་འབྲེལ་	-11.0734
བཤེར་ཨུ་ཡོན་ལྷན་	-11.0734
▁བརྙན	-11.0736
གཏོང་དགོས་	-11.0736
ཁང་གི་སྒོ་འབྱེད་	-11.0737
གནང་བ་རེད།།	-11.0737
རྒྱ་གྲམ་དམར་པོ་	-11.0738
རྒྱལ་སྤྱི་	-11.0739
ཕུང་པོ་ལྔ་	-11.0739
རིག་སྟོབས་	-11.0739
འཕོས་	-11.0739
བཟོ་ཚོགས་	-11.0742
མཐོང་སྟེ།	-11.0744
དམིགས་ཏེ།	-11.0744
ཐ་དད་དུ་	-11.0745
གསོ་བ་རིག་པའི་	-11.0746
དབབ་	-11.0747
རྒྱལ་ཁབ་ཏུ་	-11.0747
▁གངས་ལྗོངས་	-11.0748
འཁོད་པའི་	-11.0749
ལ་འཇུག་པའི་	-11.075
ཤིང་འཛུགས་	-11.075
▁རྗེ་བཙུན་	-11.075
ཧི	-11.0751
ངེས་རེད།	-11.0752
ལག་བསྟར་བྱེད་པ་	-11.0752
ཏའི་	-11.0752
མཚོ་སྔོན་གྱིས་	-11.0753
▁འདིར་ནི་	-11.0753
ཧཱུྃ།	-11.0755
མཛངས་	-11.0755
48	-11.0755
འགན་ལེན་ལྔའི་	-11.0756
ལོག	-11.0758
འཛིན་ཡིག་	-11.0759
ཨུ་རུ་སུ་	-11.076
ཚུན་དུ།	-11.076
ཆོས།	-11.076
གླེང་བ་	-11.0763
བར་མ་ཟད་	-11.0763
ཧྲང་	-11.0768
▁རྒྱུ་མཚན་	-11.0769
▁ཁོའི་	-11.077
ཡང་མ་ཡིན་ནོ།	-11.077
སྲོག་གི་	-11.0771
ཕུབ་	-11.0771
སྤེལ་བ་དང་	-11.0771
ས་ཕྱོགས་	-11.0772
ཐག་ཉེ་	-11.0772
རྗོད་བྱེད་	-11.0772
▁གྲོང་ཁྱེར	-11.0772
འཛུགས་རྒྱུའི་	-11.0776
ཕྱག་རྒྱའོ།	-11.0776
པ་ཙམ་གྱིས་	-11.0777
འི་སློབ་གསོ་	-11.0777
བགྱི་བ་	-11.0779
[...]
