<unk>	0
<s>	0
</s>	0
[PAD]	0
[UNK]	0
[CLS]	0
[SEP]	0
[MASK]	0
ས་	-0
ང་	-1
ན་	-2
ད་	-3
ར་	-4
ལ་	-5
ག་	-6
འི	-7
འི་	-8
གས་	-9
བ་	-10
བྱ	-11
མ་	-12
པ་	-13
དང་	-14
རྒ	-15
རྒྱ	-16
ཀྱ	-17
སྐ	-18
ཞི	-19
གྱ	-20
ཀྱི	-21
ངས་	-22
དུ	-23
དེ	-24
ཚོ	-25
པའི་	-26
གྲ	-27
ཀྱི་	-28
ང་ག	-29
ནས་	-30
ཡོ	-31
གྱི	-32
གས	-33
སྒ	-34
མི	-35
རི	-36
མས་	-37
ཆེ	-38
སྤ	-39
དེ་	-40
ལས་	-41
བྱེ	-42
དོ	-43
གོ	-44
ཡི	-45
སྟ	-46
པར་	-47
དུ་	-48
གྱི་	-49
བྱེད་	-50
པོ	-51
སྐྱ	-52
ཉི	-53
བས་	-54
ང་བ	-55
ས།	-56
མི་	-57
རྒྱུ	-58
ང་གི	-59
ཐོ	-60
ད།	-61
གྲོ	-62
ཕྱ	-63
ཚོགས་	-64
བཅ	-65
འབ	-66
ཁྲ	-67
ཆེན་	-68
རྩ	-69
ཅི	-70
ནི	-71
ཁྱ	-72
སྲ	-73
སྒྲ	-74
སོ	-75
ག་ག	-76
བྱས་	-77
སྤྱ	-78
བོ	-79
ཐུ	-80
དྲ	-81
ལོ	-82
ནི་	-83
ཀྲ	-84
ན།	-85
གཏ	-86
དོན་	-87
འཕ	-88
བྱ་	-89
དང་།	-90
དང	-91
ང་གི་	-92
པོ་	-93
འ་	-94
འཛ	-95
རྒྱལ་	-96
རེ	-97
བའི་	-98
སུ	-99
ལྟ	-100
ཞུ	-101
སྐྱོ	-102
སྡ	-103
སྔ	-104
རྟ	-105
རྣ	-106
འབྲ	-107
འོ	-108
ཁོ	-109
མེ	-110
སླ	-111
གྱུ	-112
ཞི་	-113
ལྷ	-114
ད་པ་	-115
ཁུ	-116
ན་པ་	-117
དཔ	-118
པ།	-119
ས་བ	-120
▁ག	-121
ཏེ	-122
ཞེ	-123
ཀྲུ	-124
ར།	-125
ཁྲི	-126
འུ	-127
མོ	-128
སྤྱི	-129
ཞིང་	-130
བོད་	-131
དམ	-132
སུ་	-133
འད	-134
ལེ	-135
འུ་	-136
དགོ	-137
སློ	-138
ཆོ	-139
ལ་བ	-140
གཏོ	-141
▁བ	-142
ཤེ	-143
ར་བ	-144
ར་འ	-145
▁མ	-146
ཚོ་	-147
ཕྱི	-148
ས་པ་	-149
རྗ	-150
ལ་འ	-151
ཡུ	-152
ཆུ	-153
ན་གྱི་	-154
ཡིན་	-155
གྱུར་	-156
སྣ	-157
དབ	-158
སློབ་	-159
ག་གི	-160
སེ	-161
སྲི	-162
གན	-163
དག་	-164
ཏུ	-165
སྤྱི་	-166
ང་།	-167
སྟེ	-168
འཇ	-169
ང་བ་	-170
སྒོ	-171
འག	-172
སྟོ	-173
ལོ་	-174
ཀྱིས་	-175
གསུ	-176
དག	-177
ངོ	-178
ལུ	-179
སྲིད་	-180
སྔོ	-181
ས་ཀྱི་	-182
བྱུ	-183
སྦ	-184
ལྡ	-185
འདི	-186
▁དེ་	-187
ཡོད་	-188
ཡང་	-189
ཞིན་	-190
ཚེ	-191
གནས་	-192
ཚུ	-193
སོགས་	-194
རེད།	-195
གྲོང་	-196
རོ	-197
འཕྲ	-198
ག་བ	-199
སྒྲི	-200
རིགས་	-201
ཏུ་	-202
ཡོངས་	-203
ལ།	-204
གྱིས་	-205
ཤི	-206
ཞེས་	-207
ལྗ	-208
རང་	-209
རྫ	-210
མེད་	-211
དང།	-212
སྐྱེ	-213
རྒྱུ་	-214
ཉེ	-215
ཅིག་	-216
གཉི	-217
རྗེ	-218
ལམ་	-219
རྣམ་	-220
དམངས་	-221
སྐུ	-222
འབྲེ	-223
ཏང་	-224
སྔོན་	-225
ལྗོ	-226
ཕྱོ	-227
དུས་	-228
གསོ	-229
ན་བ	-230
གོ་	-231
ཐེ	-232
ཕྱོགས་	-233
གླ	-234
ཉིད་	-235
པས་	-236
སྡུ	-237
བཅོ	-238
འཛུ	-239
འབྲེལ་	-240
ལྗོངས་	-241
ཁུལ་	-242
སྤེ	-243
ག་གི་	-244
སྨ	-245
ཟླ	-246
གྲུ	-247
རུ	-248
ཏེ་	-249
སྦྱ	-250
ཤུ	-251
སྐོ	-252
ཨུ	-253
སེམས་	-254
འཛི	-255
འཛུགས་	-256
རྡ	-257
ང་གིས་	-258
ཀྲུང་ག	-259
ཡོད།	-260
དབྱ	-261
གྲོས་	-262
ན་པའི་	-263
ན་འ	-264
ཉམ་	-265
ཚད་	-266
འདི་	-267
ཤེས་	-268
རྣམས་	-269
སྐྲ	-270
རིམ་	-271
ཁ་	-272
སྙ	-273
མཐུ	-274
ལྟ་	-275
གསར་	-276
ཚན་	-277
ཞིང་ཆེན་	-278
མཐོ	-279
བར་	-280
འཕེ	-281
རྒྱ་	-282
ཞིག་	-283
ཞིབ་	-284
མཛ	-285
ཀྲུང་གོ	-286
ང་དུ་	-287
བཅུ	-288
འོ།	-289
སྐྲུ	-290
ཁྱེ	-291
ནུ	-292
རྩོ	-293
ག་པ་	-294
ཡུལ་	-295
གཞ	-296
མཉམ་	-297
སྐྱོང་	-298
སྐབས་	-299
རྫོ	-300
གཉིས་	-301
ཁོར་	-302
ཏེ།	-303
གསུམ་	-304
ད་ཀྱི་	-305
བཟ	-306
འཕེལ་	-307
དྲ་	-308
རྒྱས་	-309
▁2	-310
གཞི་	-311
ཆ་	-312
བཞིན་	-313
ཧྲ	-314
གཅིག་	-315
སྤེལ་	-316
ཙོ	-317
▁1	-318
ཐོན་	-319
ཤུགས་	-320
མང་	-321
རྒྱལ་ཁ	-322
འཕྲི	-323
འཛིན་	-324
བྱ་བ་	-325
ཆོས་	-326
མོ་	-327
ཆེ་	-328
སྤྱོ	-329
ལི	-330
དབུ	-331
ང་བའི་	-332
སྒྲིག་	-333
སྦྱོ	-334
ནང་	-335
རྒྱལ་ཁབ་	-336
ཀོ	-337
དངོ	-338
ལྟར་	-339
ཚོ་སྔོན་	-340
གསར་འ	-341
མཁ	-342
ཟི	-343
སྲུ	-344
བཅས་	-345
སི	-346
བྱེད་པ་	-347
ཐོག་	-348
སྒོ་	-349
གས་པ་	-350
ཡོད་པ་	-351
ཁྱོ	-352
རུ་	-353
ཁྱབ་	-354
▁“	-355
བྱོ	-356
ནོ	-357
གཞུ	-358
སྐྲུན་	-359
ཨུ་	-360
སྒྱ	-361
ཏོ	-362
རྙ	-363
བཅུ་	-364
བུ	-365
སྐོར་	-366
དངོས་	-367
རྐ	-368
ལེགས་	-369
▁”	-370
སྒྱུ	-371
ཅན་	-372
བླ	-373
ལུགས་	-374
རྟེ	-375
ཁྱེར་	-376
ཀུ	-377
ལྡན་	-378
གཏོང་	-379
▁འ	-380
ཡོན་	-381
ད་པའི་	-382
▁བོད་	-383
ལག་	-384
ཙུ	-385
སྒྲུ	-386
རྟོ	-387
གྲུབ་	-388
དགོས་	-389
ཕྱིར་	-390
ཙོ་	-391
དམ་	-392
བྱེད་པའི་	-393
ཅེ	-394
ཇུ	-395
ནས།	-396
ཟུ	-397
ང་དང་	-398
ཆུ་	-399
ཟླ་	-400
རྒྱུན་	-401
པོའི་	-402
སྡེ	-403
དེའི་	-404
ཞུགས་	-405
གྲོང་ཁྱེར་	-406
ཉིན་	-407
ཁེ	-408
མི་དམངས་	-409
གསོ་	-410
རླ	-411
སྤྱོད་	-412
སྲུང་	-413
དྲི	-414
ཀྲུང་	-415
སྤྲ	-416
བྱུང་	-417
བྱོར་	-418
ཁྲིམས་	-419
རི་	-420
ཁྲོ	-421
རྩ་	-422
ལེན་	-423
ཚུལ་	-424
འོ་	-425
ལྷ་	-426
ཤོ	-427
བདེ་	-428
བཅོས་	-429
སྲོ	-430
གྲོ་	-431
ཕུ	-432
སྒྲོ	-433
ཡི་	-434
མྱ	-435
ཀྱང་	-436
གས།	-437
སྟེ།	-438
འདུ	-439
རྟེན་	-440
སམ་	-441
སོ་	-442
ཐེངས་	-443
ཐུས་	-444
དགེ	-445
འགྱུར་	-446
གང་	-447
མཐ	-448
དོ་	-449
འགྲ	-450
དགེ་	-451
ད་བ	-452
ལས་དོན་	-453
ཅིན་	-454
རབ་	-455
སྡོ	-456
ཅུ	-457
བ།	-458
འགན་	-459
ཅི་	-460
བྱས་པ་	-461
མཐུན་	-462
དངུ	-463
ལྔ	-464
ཁྲིད་	-465
རྗེས་	-466
ན་གྱིས་	-467
སྒྲུབ་	-468
ཁང་	-469
ཚེ་	-470
དབུལ་	-471
སྤྱི་ཚོགས་	-472
▁20	-473
རིག་ག	-474
རྒྱུད་	-475
རིང་	-476
གྱུར།	-477
འཐུས་	-478
ཐུབ་	-479
ཆེད་	-480
མེ་	-481
ད་པར་	-482
སི་	-483
དཔྱ	-484
ཨ་	-485
རེ་	-486
རིག་	-487
གཙོ་	-488
གཞི	-489
ཡིག་	-490
འཕེལ་རྒྱས་	-491
ངེ	-492
བོ་	-493
ཟེ	-494
སྟོན་	-495
རྩོམ་	-496
སྐྱོར་	-497
ཚི	-498
རྐྱ	-499
▁མཚོ་སྔོན་	-500
སྡེ་	-501
ཁྲི་	-502
སྐད་	-503
ཙམ་	-504
ལ་སོགས་	-505
མ།	-506
ཤད་	-507
འཆ	-508
དབང་	-509
རྨ	-510
གླི	-511
ལོའི་	-512
དཀ	-513
བྱང་	-514
ཐམས་	-515
མངོ	-516
ག་གིས་	-517
ཁང་གི་	-518
དགོས།	-519
ཐམས་ཅ	-520
ཀྲུང་གོ་	-521
ཆེན་པོ་	-522
ཚེས་	-523
བསྡུ	-524
ངོ་	-525
ཁོ་	-526
ཐབས་	-527
ལྷན་	-528
སྒྱུར་	-529
▁རྒྱལ་	-530
འཕྲིན་	-531
རྗེ་	-532
དམི	-533
ཀྲུང་དབྱ	-534
ཚང་	-535
རྩལ་	-536
རྡོ	-537
གྲངས་	-538
ཐད་	-539
ཟོ	-540
དངུལ་	-541
ཁག་	-542
འགོ	-543
མའི་	-544
འདུ་	-545
རྗོ	-546
ཕྲ	-547
རྐྱེ	-548
ཐོབ་	-549
ག་པའི་	-550
ཕྱུ	-551
ངས།	-552
ཕྱི་	-553
ཅོ	-554
ས་པའི་	-555
སྟན་	-556
གྲོས་ཚོགས་	-557
དཔེ	-558
ཀོད་	-559
འཁོར་	-560
རང་བ	-561
ལ་འདེ	-562
མི་རིགས་	-563
ཞེས་བྱ་བ་	-564
སྐྱེ་	-565
ཡིན་པ་	-566
ང་བ།	-567
སྣོ	-568
དྲུ	-569
ཟབ་	-570
ཡིན།	-571
ཕན་	-572
རྡོ་	-573
གནད་	-574
ཀྲུང་གོའི་	-575
ལ་འབྱོར་	-576
རྣམ་པར་	-577
སྤྲོ	-578
ས་ཁུལ་	-579
ཞུ་	-580
མཐོ་	-581
དམིགས་	-582
རིག་གནས་	-583
སྟེ་	-584
ར་བ་	-585
ཉེ་	-586
འཇུ	-587
རྩེ	-588
སྣ་	-589
མང་ཚོགས་	-590
རྩི	-591
ལྔ་	-592
སྐུལ་	-593
རང་སྐྱོང་	-594
ཚམས་	-595
པུ	-596
ཚོགས་ཆེན་	-597
སྒོར་	-598
ཐམས་ཅད་	-599
གྲྭ	-600
དགའ་	-601
ཁེ་	-602
སྨན་	-603
བཟོ	-604
འགྲོ་	-605
སྐུལ་འདེ	-606
གཞུང་	-607
རྙན་	-608
ཏི	-609
ནུས་	-610
བྱས་ནས་	-611
ང་བར་	-612
དགུ	-613
འགོ་	-614
ཨུ་ཡོན་	-615
ལ་བ་	-616
ངས་པ་	-617
ལག་བ	-618
ཁུངས་	-619
ཇི	-620
ལྷག་	-621
དབྱི	-622
▁201	-623
ཅེས་	-624
བུ་	-625
འདོ	-626
འཛུགས་སྐྲུན་	-627
རྐྱེན་	-628
སྟར་	-629
བརྟ	-630
ཡོངས་ཀྱི་	-631
སོ།	-632
ཅིན་ཕ	-633
མཆོ	-634
བློ	-635
ཁམས་	-636
ཁྱི	-637
ཕོ	-638
ཁོངས་	-639
ནི།	-640
བྱས་ཏེ་	-641
མཐའ་	-642
ཚོང་	-643
བྱས།	-644
མ་བ	-645
དམག་	-646
ཇུས་	-647
སྔར་	-648
རོལ་	-649
ཀུན་	-650
བྱ་བའི་	-651
རྫོང་	-652
ཞབས་	-653
མངོན་	-654
དུན་	-655
ནན་	-656
ཧྲུ	-657
ལྷོ	-658
བྲ	-659
མ་ཟ	-660
རོགས་	-661
གསར་འགྱུར།	-662
པའོ།	-663
ཡིས་	-664
དཔེ་	-665
དུང་	-666
མཚན་	-667
གལ་	-668
དཔལ་འབྱོར་	-669
ཧྲུའུ་	-670
དཔྱད་	-671
བོད་ཀྱི་	-672
མཚོ	-673
ཡོང་	-674
ཇི་	-675
ར་གྱི་	-676
▁ལོ་	-677
ལག་བསྟར་	-678
རྣམ་པ་	-679
དུ་བ	-680
སྤྱིའི་	-681
འཇོ	-682
སྙི	-683
ཞི་ཅིན་ཕ	-684
གོང་	-685
ཡོད་པ་རེད།	-686
ཀྲུའུ་	-687
མཚོ་	-688
རྒྱབ་	-689
མ་ཡིན་	-690
ཐང་	-691
གཞོ	-692
ག་ཏུ་	-693
▁འདི་	-694
ངང་	-695
གློ	-696
ལུས་	-697
ལ་གྱི་	-698
རོ།	-699
གས་པའི་	-700
དྲི་	-701
བསམ་	-702
ལི་	-703
ཉེར་	-704
འཇགས་	-705
འཇི	-706
ན་དང་	-707
མེད་པ་	-708
མུ	-709
རབས་	-710
ཏང་གི་	-711
ཚོད་	-712
བ་དང་	-713
རིན་	-714
ཇེ	-715
སྐུལ་འདེད་	-716
འདེ	-717
བཞི་	-718
ཇེ་	-719
ཆུབ་	-720
པས།	-721
▁ཉི	-722
འབྲི	-723
འབྲས་	-724
སྟོང་	-725
སྤྱི་ཁྱབ་	-726
ཧྥ	-727
བྱང་ཆུབ་	-728
འགུ	-729
ཐི	-730
འབུ	-731
ཡོངས་སུ་	-732
ཁྱིམ་	-733
འཚོ་	-734
ཀ་	-735
▁3	-736
ཐབ་	-737
བྱི	-738
▁ད་	-739
ཁྲུ	-740
སྲོལ་	-741
སྦྱོང་	-742
པ་དང་	-743
ནོ།	-744
རང་སྐྱོང་ལྗོངས་	-745
གུ	-746
གཞན་	-747
པར་བ	-748
ཕ་	-749
ཆི	-750
▁ས་	-751
གསལ་	-752
འཕྲིན།	-753
རླུ	-754
ཨུ་ཡོན་ལྷན་	-755
གླིང་	-756
མཛད་	-757
ང་བོ	-758
ཡིད་	-759
མགོ་	-760
སངས་	-761
སྟོབས་	-762
དེས་	-763
ཧུ	-764
བྱེ་	-765
ཆབ་	-766
མཉམ་ལས་	-767
གསར་འགྱུར་	-768
དཔའ་	-769
ང།	-770
འབྲོ	-771
སྡོད་	-772
བློ་	-773
བྱུང་བ་	-774
སྒྲགས་	-775
འདོན་	-776
ལྷོ་	-777
རྗོད་	-778
སུམ་	-779
མཚོ་སྔོན་	-780
ཙུང་	-781
གྱོ	-782
མིག་	-783
སྲིད་གཞུ	-784
སོ་སོ	-785
ཧྲི	-786
དར་	-787
ཀླ	-788
རྒྱུར་	-789
དོ།	-790
པོར་	-791
པེ	-792
▁མི་	-793
▁ལོའི་	-794
ལྡན་པའི་	-795
འཇུག་	-796
བཟོ་	-797
རྩེ་	-798
▁དང་	-799
སྐྱེད་	-800
ཧྭ	-801
ཉེན་	-802
ལྕ	-803
སྦྲ	-804
ཁྱད་	-805
མར་	-806
ག་པོ་	-807
ཁྲོད་	-808
ས་ནས་	-809
▁གླ	-810
རྡོ་རྗེ་	-811
ཤིང་	-812
སྤོ	-813
▁རྩོམ་	-814
བརྒྱ	-815
འགྲེ	-816
ཚོགས་འདུ་	-817
▁ཀྲུང་གོ་	-818
སྐུ་	-819
ཟེར།	-820
བྱེད་པ།	-821
འགན་འ	-822
▁།	-823
དྲེ	-824
ས་པར་	-825
▁ལ་	-826
རྒྱུས་	-827
རྟོགས་	-828
སྐྱོད་	-829
བྱས་ཏེ།	-830
མཁན་	-831
ལ་སོགས་པ་	-832
ཡེ	-833
དགུ་	-834
ཆུང་	-835
▁དེའི་	-836
ཤིན་	-837
སྔ་	-838
ནམ་	-839
སྙན་	-840
རང་བཞིན་	-841
▁ལས་	-842
▁ཉིན་	-843
མོལ་	-844
ནད་	-845
ལེ་	-846
གཏོང་བ་	-847
ཡང་དག་	-848
ཉོ	-849
ཅོད་	-850
▁བོད་ལྗོངས་	-851
ཀྲུང་དབྱང་	-852
ཟུགས་	-853
ཡུལ་སྐོར་	-854
ཏང་ཨུ	-855
ཉམས་	-856
དོ་དམ་	-857
ཞོ	-858
ཧྭ་	-859
▁》	-860
ཉི་	-861
གྲྭ་	-862
འདྲ་	-863
ཧྲུའུ་ཅི་	-864
ཁུར་	-865
ང་ཚོ	-866
ཐ་	-867
མཐུད་	-868
གལ་ཆེན་	-869
00	-870
རླུང་	-871
དཔོ	-872
བྱའོ།	-873
འཁྱོ	-874
ཡ་	-875
བཅོམ་	-876
སྐྱོབ་	-877
འེ	-878
གཏན་	-879
རྒྱུའི་	-880
གསུངས་	-881
ང་པོ་	-882
ལ་བའི་	-883
ཁོར་ཡུ	-884
དཀར་	-885
ཡུན་	-886
འཐབ་	-887
འདས་	-888
རྒྱལ་ཁབ་ཀྱི་	-889
གློག་	-890
སྐྱི	-891
པེ་	-892
བྱས་པའི་	-893
འགུལ་	-894
པུའུ་	-895
ཞེས་པ་	-896
ཤེར་	-897
མེད་པའི་	-898
▁《	-899
ནུས་པ་	-900
མ་ཟད།	-901
ཁྱོན་	-902
བཅས་ཀྱི་	-903
དགོངས་	-904
ན་མོ	-905
གནོ	-906
ཆགས་	-907
སྤྲོད་	-908
ཤར་	-909
འེ་	-910
ཞན་	-911
▁རང་	-912
སྤུ	-913
ཁི	-914
ང་ནས་	-915
གནས་ཚུལ་	-916
རྟོག་	-917
མཚམས་	-918
དཀའ་	-919
བརྟན་	-920
ཅན་གྱི་	-921
ལོར་	-922
མོའི་	-923
ཐག་	-924
མིའི་	-925
རྩ་འཛུགས་	-926
བྱེད་དགོས་	-927
ཉིས་	-928
▁སློབ་	-929
བོད་ལྗོངས་	-930
དགོས་པ་	-931
ཏན་	-932
བཏང་	-933
པོས་	-934
ཚེས	-935
རྒོ	-936
དེ་བཞིན་	-937
ཁི་	-938
གནད་དོན་	-939
ཀྲང་	-940
ད་མེད་	-941
ཅིང་	-942
སྣང་	-943
ཡེ་	-944
གླེ	-945
ཞི་ཅིན་ཕི	-946
སྦྱོར་	-947
གཤེ	-948
ག་དང་	-949
བདག་	-950
▁པར་	-951
ཡོད་པའི་	-952
▁4	-953
ཕྱིན་	-954
ཐོ་	-955
ཤུགས་སྣོ	-956
མཛེ	-957
བྱེད་པར་	-958
དེར་	-959
བྱ་རྒྱུ་	-960
གེ	-961
ཞིའི་	-962
རྫས་	-963
ཡོངས་ནས་	-964
འབྲེལ་ཡོད་	-965
སེམས་དཔའ་	-966
ཁག་གི་	-967
ཁུལ་གྱི་	-968
ཟིན་	-969
▁5	-970
དེ།	-971
ཞེ་	-972
བས	-973
གཙ	-974
མིན་	-975
ཐུང་	-976
ཐོན་ལས་	-977
ཤིས་	-978
གཅི	-979
ཀྲུའུ་ཞི་	-980
གྲོས་ཚོགས་ཐེངས་	-981
འཐུས་མི་	-982
མཆ	-983
▁ལྷག་	-984
སྨྲ	-985
རྩིས་	-986
ཆེའི་	-987
ཞིང་།	-988
ཟོ་	-989
མཐོང་	-990
སོགས་ཀྱི་	-991
ཆས་	-992
གཏི	-993
བཟུ	-994
མྱུ	-995
འཕྲོ	-996
རྒྱས་ཀྱི་	-997
གཏོད་	-998
▁ཟླ་	-999
སྐབས་བཅུ་	-1000
སྣེ	-1001
གསོའི་	-1002
རྒྱུན་ལས་	-1003
ཆབ་སྲིད་	-1004
ཐག་ག	-1005
བཅོམ་ལྡན་	-1006
▁ཞེས་	-1007
འཇོག་	-1008
མང	-1009
ཡན་	-1010
འང་	-1011
ལྟེ	-1012
དེ་དག་	-1013
བྱེད་པ་དང་།	-1014
དཔོན་	-1015
གྱིས་བ	-1016
ཕྱག་	-1017
བཅའ་	-1018
▁སྤྱི་	-1019
རྗེས་སུ་	-1020
འཛམ་	-1021
དོན།	-1022
དྲོ	-1023
འབེ	-1024
གྲོང་ཚོ	-1025
མ་དངུལ་	-1026
སློབ་གསོ་	-1027
ལྟེ་	-1028
འབོ	-1029
ཚོགས་ཀྱི་	-1030
ས་བུ	-1031
དཔལ་	-1032
▁ཨ	-1033
དབྱི་	-1034
ཡོ་	-1035
རང་གི་	-1036
རྟགས་	-1037
གད	-1038
▁ལྷ་	-1039
ཚིགས་	-1040
▁ཨ་	-1041
སྙིང་	-1042
སར་	-1043
ཆེས་	-1044
འབྲོག་	-1045
བྱེད་དགོས།	-1046
གཟི	-1047
སྣེ་	-1048
འབབ་	-1049
ཟུང་	-1050
ཤིང་།	-1051
ཁེ་ལས་	-1052
ཧ་	-1053
ཉུ	-1054
རྣམ་གྲངས་	-1055
▁ཁོ	-1056
ཀོད་སྒྲིག་	-1057
དུད་	-1058
རིང་ལུགས་	-1059
ག།	-1060
ན་པར་	-1061
ལ་བར་	-1062
རྡུ	-1063
ཁོར་ཡུག་	-1064
ཆེ་རུ་	-1065
སངས་རྒྱས་	-1066
གོད་	-1067
མྱོ	-1068
▁ཀྲུང་གོའི་	-1069
ཚིག་	-1070
ངོས་	-1071
ཞེས་བ	-1072
འདོད་	-1073
འཇིག་	-1074
ལས་ཁུངས་	-1075
ཚགས་	-1076
ལན་	-1077
གཉིས་ཀྱི་	-1078
འཆར་	-1079
ནོར་	-1080
དྲུག་	-1081
སྐོར།	-1082
འདིའི་	-1083
བཏོ	-1084
འོད་	-1085
▁ཉེ་	-1086
དུང་ཕྱུ	-1087
རྒན་	-1088
དང་བ	-1089
ལམ་ལུགས་	-1090
འཕྲད་	-1091
▁འི་	-1092
ཡག་པོ་	-1093
དྲ་བའི་	-1094
འབྲེལ་བ་	-1095
ར་འགྱུར་	-1096
གཉེར་	-1097
འགྲུ	-1098
བསྡུས་	-1099
རིམ་པ་	-1100
ཡིན་པའི་	-1101
དྲ་བ།	-1102
ང་ཟབ་	-1103
ང་གསེ	-1104
འདྲི་	-1105
བཤེར་	-1106
སྒྲོག་	-1107
ཞེས་བྱ་བ་ནི་	-1108
རབ་ཏུ་	-1109
སླེ	-1110
རྨང་ག	-1111
མུ་	-1112
▁མ་	-1113
ནས་བ	-1114
ཕེ	-1115
ལས་རིགས་	-1116
▁བླ	-1117
ཆོས་ཀྱི་	-1118
འཛོ	-1119
མ་པ་	-1120
མཇུ	-1121
ན་པ་དང་	-1122
▁ཚེས་	-1123
གནང་	-1124
ཙུགས་	-1125
བཅོམ་ལྡན་འདས་	-1126
ཤེས་པ་	-1127
▁དེ་བཞིན་	-1128
ལིས་	-1129
མང་པོ་	-1130
བརྒྱུད་	-1131
སའི་	-1132
དབུལ་སྐྱོར་	-1133
▁6	-1134
ཅང་	-1135
ཀྱིས་བ	-1136
གཟུགས་	-1137
▁དུས་	-1138
བྱེད་རྒྱུ་	-1139
ཞག་	-1140
▁དེ་ནས་	-1141
འཕར་	-1142
ཤ་	-1143
མི་སྣ	-1144
ཀའ་	-1145
བོའི་	-1146
ཀྲི	-1147
གསུམ་པའི་	-1148
ཝང་	-1149
བྱས་པ།	-1150
གསར་པ་	-1151
▁7	-1152
བདེ་འཇགས་	-1153
ཝུ	-1154
ངལ་	-1155
བས།	-1156
བྱེད་སྒོ་	-1157
ཟློ	-1158
མིང་	-1159
▁ཆོས་	-1160
རེས་	-1161
བྱེད་པ་དང་	-1162
དགོངས་དོན་	-1163
ཡར་	-1164
སྐྱོན་	-1165
སྲུང་སྐྱོང་	-1166
ཚབ་	-1167
འབྱོར་	-1168
སྐྱེས་	-1169
ཐུབ་པ་	-1170
དཔུ	-1171
ཞིབ་འཇུག་	-1172
ཚ་	-1173
ཇལ་	-1174
འོས་	-1175
གཏིང་ཟབ་	-1176
གྲུབ་འབྲས་	-1177
ཉིད་ཀྱི་	-1178
སྨི	-1179
ཞིབ་བཤེར་	-1180
གཏོང་བའི་	-1181
སྒྲ་	-1182
ལ་བརྟེན་	-1183
ཐག་གཅོད་	-1184
བྱ་བར་	-1185
དེ་ནི་	-1186
དབྱེ་	-1187
འདྲེ	-1188
དེང་	-1189
གཞིགས་	-1190
བཏ	-1191
སྔགས་	-1192
གྲོང་གསེ	-1193
གནང་བ་	-1194
གྲོང་རྡ	-1195
ཧོ	-1196
ནུབ་	-1197
▁ཞིང་ཆེན་	-1198
▁དམངས་	-1199
ཐེབས་	-1200
མཉམ་དུ་	-1201
སྒྱུ་	-1202
སྡུར་	-1203
དཀྱི	-1204
ཤིག་	-1205
རྣམས་ཀྱི་	-1206
གྲོས་མོལ་	-1207
རྒྱལ་སྤྱིའི་	-1208
གྲ་	-1209
གླེང་	-1210
སྙོ	-1211
མཚོན་	-1212
སྨོ	-1213
སླེབས་	-1214
ར་བར་	-1215
སྐོར་གྱི་	-1216
སྦྱི	-1217
ཚོགས་འདུ	-1218
ཧཱ	-1219
འཛོམས་	-1220
གྲོང་གསེབ་	-1221
སྲིད་ཇུས་	-1222
སྨན་བཅོས་	-1223
མཛོ	-1224
▁སེམས་	-1225
▁གློ	-1226
ཡིན་ནོ།	-1227
རང་བཞི	-1228
གནོད་	-1229
མདོ	-1230
མཛེས་	-1231
རྒོལ་	-1232
སྣ་ཚོགས་	-1233
མདོ་	-1234
མཁོ་	-1235
མཇལ་	-1236
འགོག་	-1237
རླངས་	-1238
མཉམ་འབྲེལ་	-1239
ལས།	-1240
ལྟ་བུ	-1241
སྒྲོལ་	-1242
མྱུར་	-1243
མེད་པར་	-1244
རིས་	-1245
བསྒྲགས་	-1246
▁ཞིང་	-1247
ས་བུ་	-1248
སྒོར་དུང་ཕྱུ	-1249
ཁང་གིས་	-1250
གྲུ་	-1251
མཐར་	-1252
▁པའི་	-1253
འཚོ	-1254
སྒྲིལ་	-1255
སྐྱིད་	-1256
ཤེས་རབ་	-1257
བྱུང་བའི་	-1258
ཕྱེ	-1259
ལྡོ	-1260
རྒྱལ་ཡོངས་	-1261
ང་གས	-1262
མས།	-1263
གནམ་	-1264
ཟི་	-1265
ས་ཁུལ་གྱི་	-1266
རྩའི་	-1267
དོད་	-1268
ཐུགས་	-1269
ལྡན་པ་	-1270
སྤུས་	-1271
སོ་སོའི་	-1272
མཁའ་	-1273
མཛུ	-1274
པའི	-1275
ཅུ་	-1276
རོགས་སྐྱོར་	-1277
ལྕགས་	-1278
ཐུན་མོ	-1279
སྟོད་	-1280
དག་གི་	-1281
▁ལོར་	-1282
▁ན	-1283
དུ།	-1284
ཕ་རོལ་	-1285
སྒོ་ནས་	-1286
མཛུབ་	-1287
པོ།	-1288
དག་གིས་	-1289
འཁྱོལ་	-1290
བྱས་ནས།	-1291
ཚུན་	-1292
སྟེགས་	-1293
བྱེད་ཐབས་	-1294
དང་པོ་	-1295
གཙོ་བོ་	-1296
ཁའི་	-1297
འཁོ	-1298
ཡོད་པ་དང་།	-1299
ལོ་རྒྱུས་	-1300
▁རྒྱལ་ཁབ་	-1301
▁དགེ་	-1302
རྩོན་	-1303
ཆར་	-1304
▁དཔྱད་	-1305
ངས་པའི་	-1306
ག་པར་	-1307
རྙི	-1308
སྲུང་སྐྱོབ་	-1309
འཁྲུ	-1310
ཏོ།	-1311
▁8	-1312
▁རྩོམ་སྒྲིག་	-1313
▁ཁ་	-1314
རྩམས་	-1315
གསེ	-1316
མགྱོ	-1317
▁ཕྱོགས་	-1318
ལྟ་སྐུལ་	-1319
ཞེ་ན།	-1320
ཞུའི་	-1321
རང་བཞིན་གྱི་	-1322
སྟུ	-1323
▁ངེ	-1324
ས་གནས་	-1325
སྙོམས་	-1326
ཤིན་ཏུ་	-1327
▁མཚོ་	-1328
པར།	-1329
ཐར་	-1330
ཚུགས་	-1331
འབྲིང་	-1332
ཐོག་ནས་	-1333
སློང་	-1334
ཕྱིར་རོ།	-1335
འདིར་	-1336
དོན་འཁྱོལ་	-1337
མཚུ	-1338
ཁུངས།	-1339
ཨེ	-1340
▁གཞན་	-1341
སྲོག་	-1342
སྐྱེ་ཁམས་	-1343
སྔར་ལས་	-1344
ཚོགས་པའི་	-1345
འཚ	-1346
བརྒྱ་	-1347
ལ་ཤུགས་སྣོ	-1348
རྐང་	-1349
ཉོ་	-1350
འབྱུང་	-1351
▁མི་དམངས་	-1352
ལ་འཁོར་	-1353
ས་གྲོང་ཁྱེར་	-1354
སོང་	-1355
མི་སྣ་	-1356
རྟན་	-1357
བྱས་པ་དང་།	-1358
གར་	-1359
▁.	-1360
འགོད་	-1361
ཆེ་བའི་	-1362
རེའི་	-1363
▁ཡི་	-1364
▁གནས་	-1365
ཅེས་བ	-1366
ཅིང་།	-1367
ཤས་	-1368
རིམ་པའི་	-1369
སློབ་གསོའི་	-1370
འགྲི	-1371
གཞོན་	-1372
འགན་འཁྲི་	-1373
ཀླུ	-1374
ཞིང་ཆེན་གྱི་	-1375
▁རྒྱ་	-1376
▁གང་	-1377
ཕྱིན་པ་	-1378
རྒྱབ་སྐྱོར་	-1379
མགྱོགས་	-1380
ལ་བ།	-1381
མོ།	-1382
ཇི་ལྟར་	-1383
▁9	-1384
ལ་སྐུལ་འདེད་	-1385
▁"	-1386
རྩྭ	-1387
དྲ་བའི་འཕྲིན།	-1388
མེད།	-1389
▁གི	-1390
འགྲུལ་	-1391
གེ་	-1392
ཤད།	-1393
ཚམས་འདྲི་	-1394
གྲི	-1395
གོས་	-1396
རྨ་	-1397
ཧུར་	-1398
ཏང་ཨུའི་	-1399
▁སྲིད་	-1400
ཕབ་	-1401
ཡང་བ	-1402
རྣམས་ཀྱིས་	-1403
ཤེས་རྟོགས་	-1404
▁བདེ་	-1405
ཡིན་ལ།	-1406
ཁྲེ	-1407
ལ་བརྟེན་ནས་	-1408
དབུ་	-1409
གཏོང་བ།	-1410
▁གལ་	-1411
སྦྲེ	-1412
ངན་	-1413
རོ་	-1414
གཉིས་པའི་	-1415
བརྗོད་	-1416
ཆེར་	-1417
ཡཱ	-1418
ཆད་	-1419
དངོས་པོ་	-1420
སློབ་སྦྱོང་	-1421
ཁྱད་པར་	-1422
ཀའི་	-1423
ན་འགྱུར་	-1424
གནང་།	-1425
ལག་རྩལ་	-1426
དྲག་	-1427
འམ་	-1428
འོག་	-1429
རྩི་	-1430
ཕེབས་	-1431
སྣོད་	-1432
▁10	-1433
རྡ་	-1434
རྩྭ་	-1435
▁གསར་འགྱུར།	-1436
ཞི་ཅིན་ཕེ	-1437
མད	-1438
ཙུང་ཐུང་	-1439
བརྙན་	-1440
པ་དང་།	-1441
ཀྲ་	-1442
▁གཙོ་	-1443
ལྟར་ན།	-1444
འབེབས་	-1445
མེ་ཏོ	-1446
ཀུང་	-1447
ལག་ལེན་	-1448
ཏི་	-1449
རྒྱང་	-1450
འཕེལ་རྒྱས་ཀྱི་	-1451
ཞུང་	-1452
འཛམ་གླིང་	-1453
ཐོན་ཁུངས་	-1454
སྲིད་སྤྱི་ཁྱབ་	-1455
རྒྱུན་འ	-1456
པ་ཉིད་	-1457
རླབས་	-1458
ཏ་	-1459
ར་བའི་	-1460
གཏུ	-1461
ཁྲབ་	-1462
▁མིག་	-1463
ད་དེ་	-1464
ཀྲུང་དབྱང་གི་	-1465
ནང་གི་	-1466
ར་བ།	-1467
བསྡུས།	-1468
གཞོན་པ་	-1469
ཕྱིར།	-1470
ཚོས་	-1471
ཧྭ་གསར་འགྱུར་	-1472
རྣམས་ལ་	-1473
གསར་གཏོད་	-1474
བྱ།	-1475
ཧྥུ	-1476
སྟན་པ་	-1477
བསྟན་	-1478
ཞིས་	-1479
ངོས།	-1480
སྐྱར་	-1481
མུ་མཐུད་	-1482
གྲགས་	-1483
གཙང་	-1484
ཡང་དག་པར་	-1485
ཁག་གིས་	-1486
ནང་དུ་	-1487
ཚན་རིག་	-1488
ཁྱབ་ཁོངས་	-1489
བོད་རིགས་	-1490
དགོས་པའི་	-1491
གཞིའི་	-1492
ཐོན་སྐྱེད་	-1493
དམར་	-1494
འགོ་ཁྲིད་	-1495
མང་ཚོགས་ཀྱི་	-1496
ཁྱོད་	-1497
ང་བོ་	-1498
▁རྩོམ་སྒྲིག་པ།	-1499
ལྟར།	-1500
ངེས་	-1501
རྙེ	-1502
མཇལ་འཕྲད་	-1503
མཆོག་	-1504
འབྲུ	-1505
རྡུལ་	-1506
▁དོན་	-1507
འགྲུབ་	-1508
བརྒྱད་	-1509
གོང་འཕེལ་	-1510
ཡུས་	-1511
གཅིག་ཏུ་	-1512
བྱས་པ་རེད།	-1513
▁མཉམ་	-1514
སྒྱུར་བཅོས་	-1515
▁བློ	-1516
ལྟེ་གནས་	-1517
མེ་རི་	-1518
སྟངས་	-1519
▁ཡུལ་	-1520
▁དེས་	-1521
གླིང་གི་	-1522
རྒྱུན་འཁྱོ	-1523
ལྷུ	-1524
ལྟ་བུ་	-1525
▁དེ་ནི་	-1526
ཐེ་	-1527
བྱས་ཡོད།	-1528
རྒྱུར།	-1529
ང་བྱ་	-1530
དང་པོའི་	-1531
དུས་ཆེན་	-1532
ཀློ	-1533
▁འདི་ནི་	-1534
ཨུ་རུ་	-1535
བ་དང་།	-1536
ལ་སོགས་པའི་	-1537
མངོན་པར་	-1538
བྱུང་།	-1539
ནང་བ	-1540
སྲིད་གཞུང་གི་	-1541
སྟེང་	-1542
བཅོ་	-1543
ཡེ་ཤེས་	-1544
རྔ	-1545
▁ཡང་	-1546
གཏོང་རྒྱུ་	-1547
སྡོམས་	-1548
ནའ་	-1549
རིང་ལུགས་ཀྱི་	-1550
དྲིལ་བ	-1551
▁ཀྱི་	-1552
ཁྱད་ཆོས་	-1553
ངོ་བོ་	-1554
ཚང་དུ་	-1555
གྲོགས་	-1556
རྒྱུན་འཁྱོངས་	-1557
འབྲི་	-1558
གྲོན་	-1559
སྙེ	-1560
ཕོ་	-1561
རྫོང་གི་	-1562
རིགས་ཀྱི་	-1563
།།	-1564
བཟང་	-1565
བྱས་པར་	-1566
ཀྲོ	-1567
གསུངས་པ་	-1568
འབྲས་བུ་	-1569
ལམ་དུ་	-1570
འདུན་	-1571
▁དེ་ལྟར་	-1572
ཆུའི་	-1573
༢༠	-1574
ག་བརྙན་	-1575
གཏོགས་	-1576
ཤང་	-1577
ཉེས་	-1578
བཟུང་	-1579
སླར་	-1580
རྟ་	-1581
ད་པ་དང་	-1582
ཨར་	-1583
ངེས་པར་	-1584
བྱ་འགུལ་	-1585
ག་ལ་	-1586
དངོས་སུ་	-1587
འཇིག་རྟེན་	-1588
སྔར་བས་	-1589
▁དེ་ལ་	-1590
བྱེད་ཀྱི་	-1591
སིའི་	-1592
མ་དང་	-1593
ཕྱོགས་ཀྱི་	-1594
ཚོགས་པ་	-1595
ཞིང་ལས་	-1596
ན་ནས་	-1597
འགན་ལེན་	-1598
རྩོད་	-1599
ན་པ་དང་།	-1600
རྫོགས་	-1601
བྱེད་བཞིན་	-1602
▁གི་	-1603
རྒྱག་	-1604
གྲོང་ཚོ་	-1605
ཡའི་	-1606
▁རྒྱལ་ཡོངས་	-1607
བཅུད་	-1608
གཞིགས་ན།	-1609
ཁེལ་	-1610
ལྟ་བ་	-1611
སྒོས་	-1612
▁དཔྱད་མཆ	-1613
ཆོག་	-1614
མཐོ་རིམ་	-1615
རྟོག་ཞིབ་	-1616
ང་ཚོས་	-1617
སྟབས་	-1618
▁བློ་	-1619
▁ཏང་	-1620
ཟི་ལི	-1621
གསར་པའི་	-1622
ཀྲུང་གུ	-1623
འཕྲུ	-1624
▁ཀྲུང་དབྱང་	-1625
ཐོས་	-1626
བཅུ་དགུ་	-1627
སྲིད་གཞུང་གིས་	-1628
བཤད་	-1629
མ་ཟད་	-1630
ཕ་རོལ་ཏུ་	-1631
པར་འགྱུར་	-1632
འདུ་ཤེས་	-1633
བོར་	-1634
ལས་འགན་	-1635
གྲོང་ཁྱེར་གྱི་	-1636
ཤོག	-1637
རྒྱུ།	-1638
རླངས་འཁོར་	-1639
ཕུན་	-1640
▁ཆེད་	-1641
དཔུང་	-1642
དེ་བས་	-1643
▁ལྷག་ཙམ་	-1644
ལུང་	-1645
ཞབས་ཞུའི་	-1646
མཚུངས་	-1647
གྱུར་པ་	-1648
ཞབས་ཞུ་	-1649
ཙུང་ལི་	-1650
སྐར་	-1651
ང་བ་དང་	-1652
སྒྲིག་ག	-1653
དུས་རབས་	-1654
▁མཁ	-1655
གཟིགས་	-1656
མདུན་	-1657
ང་བཅ	-1658
གསབ་	-1659
སྤེལ།	-1660
ཁྲོམ་	-1661
ཀྲུང་གུང་	-1662
སྤྲོ་	-1663
ཞི་ཅིན་ཕིང་གིས་	-1664
འཚོ་བ་	-1665
དཀྱིལ་འཁོར་	-1666
དྲན་	-1667
ག་པ་དང་	-1668
ཤོས་	-1669
ཕུལ་	-1670
ལ་འག	-1671
རེར་	-1672
སློབ་ཆེན་	-1673
སྦྲེལ་	-1674
ཏིང་	-1675
ང་གོ	-1676
▁12	-1677
ཨེ་	-1678
ཕྱུགས་	-1679
ཉུང་	-1680
ལས་ཞུགས་	-1681
འདུས་	-1682
ར་དུ་	-1683
▁སྤྱི་ཚོགས་	-1684
▁(	-1685
འདེགས་	-1686
རེ་བ་	-1687
བྱམས་	-1688
▁བོད་ཀྱི་	-1689
▁གྱི་	-1690
ཀན་	-1691
ཉན་	-1692
▁འོ	-1693
ཉིང་	-1694
དང་སྤྱི་ཚོགས་	-1695
གཤེགས་པ་	-1696
ཆའི་	-1697
▁མདུན་	-1698
▁19	-1699
ཝུའུ་	-1700
ཆོད་	-1701
ར་འགོད་	-1702
ཁི་ཆ	-1703
མི་དམངས་འཐུས་མི་	-1704
སྒྲིག	-1705
▁བརྙན་	-1706
དེབ་	-1707
མོས་	-1708
སྔོན་གྱི་	-1709
ར་བུ	-1710
▁)	-1711
ཚོགས་འདུའི་	-1712
གཏོང་བ་དང་།	-1713
ནགས་	-1714
གྲོང་རྡལ་	-1715
ལིས་ཁི་ཆ	-1716
གསུམ་གྱི་	-1717
ཕྱུག་	-1718
སེལ་	-1719
ནག་	-1720
ཕྲུ	-1721
སྟན་དོན།	-1722
གྲོང་ཚོའི་	-1723
སློབ་མ་	-1724
ཙན་	-1725
ནང་དོན་	-1726
སློབ་གྲྭ་	-1727
▁11	-1728
གྲེ	-1729
སེམས་ཅན་	-1730
མ་ལག་	-1731
རྒྱལ་གྱི་	-1732
ལོག་	-1733
དབུས་	-1734
འགན་སྲུང་	-1735
གཉིས་ཀྱིས་	-1736
ཁྲོན་	-1737
རུང་	-1738
མཇུག་	-1739
རྨང་གཞིའི་	-1740
ཆུ་ཚད་	-1741
དམ་འཛིན་	-1742
གསར་བ་	-1743
ཤད་པ་	-1744
ཡིན་པ་དང་།	-1745
ལས་བ	-1746
ནེ	-1747
ནོ་	-1748
དྲིལ་བསྒྲགས་	-1749
ཧན་	-1750
ཧ་ཅང་	-1751
མཁས་	-1752
ཡིན་ཏེ།	-1753
ད་ཀྱི་སྐོར།	-1754
པས་བ	-1755
སྒྱུ་རྩལ་	-1756
དབྱངས་	-1757
ཟས་	-1758
བོད་སྐད་	-1759
▁༎	-1760
ཨོ	-1761
ཟེར་	-1762
ལྔའི་	-1763
▁ཡོང་	-1764
མཁྱེ	-1765
ཁང་།	-1766
ཡས་	-1767
གུང་	-1768
▁ནས་	-1769
རླུང་འཕྲིན།	-1770
སྲེ	-1771
ཤོག་	-1772
མངའ་	-1773
▁གལ་ཏེ་	-1774
ད་བསྟེ	-1775
རའི་	-1776
འདུག	-1777
▁ངེད་ཀྱི་སྐོར།	-1778
དེ་ལ་	-1779
བླ་	-1780
▁..	-1781
འབོར་	-1782
གསོ་སྦྱོང་	-1783
འགག་	-1784
འགྲེམས་	-1785
ཆ་འཕྲིན་	-1786
གྲྭའི་	-1787
སྡུ་	-1788
འཕྲོད་བསྟེ	-1789
▁ཁྲིམས་	-1790
ཡན་ལག་	-1791
▁པ	-1792
ཟང་	-1793
འབུམ་	-1794
ལ་པ་	-1795
འཚོ་བའི་	-1796
ལགས་	-1797
སྡུག་བ	-1798
ཏང་གི་ཚོགས་ཆེན་	-1799
ངག་	-1800
ཕྱོགས་ཡོངས་ནས་	-1801
▁རྡོ་རྗེ་	-1802
ཡིན་པས་	-1803
ལོན་	-1804
▁པའི་ཚེས	-1805
བཞུགས་	-1806
འཚོགས་	-1807
ཟའ་	-1808
▁གློག་	-1809
▁བསམ་	-1810
ཚན་རྩལ་	-1811
ཟ་	-1812
ང་བཤད་	-1813
ཞེས་བྱ་བའི་	-1814
རྫོང་གིས་	-1815
▁ཉིན།	-1816
▁ད	-1817
གཅིག་གྱུར་	-1818
སྣོད་བཅུད་	-1819
མང་དུ་	-1820
ང་བ་དང་།	-1821
ཕན་ཚུན་	-1822
དེ་ཉིད་	-1823
སྣེ་ཁྲིད་	-1824
མཚན་ཉིད་	-1825
སྒྲིག་བ	-1826
སྡུག་བསྔ	-1827
ཧེ	-1828
ཆེད་དོན་	-1829
མྱེ	-1830
▁...	-1831
འམ།	-1832
ས་པ།	-1833
ཆེན་པོའི་	-1834
སྒུ	-1835
▁བཅོམ་ལྡན་འདས་	-1836
▁སྐབས་	-1837
མཆི	-1838
ད་དང་	-1839
སྙམ་	-1840
གཞུང་ལམ་	-1841
ཁང་དུ་	-1842
▁བྱང་ཆུབ་	-1843
བཙུགས་	-1844
གཤིས་	-1845
ཐུན་མོང་	-1846
མཐོ་རུ་	-1847
སི་ཐ	-1848
ཚད་གཞི་	-1849
ཕོངས་	-1850
▁ཚེ་	-1851
ཚུལ་བ	-1852
དམིགས་བས	-1853
བརྩམས་	-1854
སྲིད་གཞུང་	-1855
མངོན་འགྱུར་	-1856
སེར་	-1857
བཅའ་ཁྲིམས་	-1858
རྒྱུ་རེད།	-1859
བྱ་སྤྱོད་	-1860
བྱེད།	-1861
ང་གསུམ་	-1862
རྟག་	-1863
ཞེས་པའི་	-1864
ཡོད་ལ།	-1865
ཅུང་	-1866
ཐད་ནས་	-1867
ཚལ་	-1868
སོད་	-1869
བ་དང།	-1870
དགོས་པ་དང་།	-1871
ཞིག་ཏུ་	-1872
པེ་ཅིན་	-1873
ཀླུ་	-1874
རྒུ	-1875
འདི་ནི་	-1876
གནས།	-1877
མཐོའི་	-1878
▁ཉིན་གྱི་	-1879
▁ཕྱི་	-1880
▁བུ	-1881
དྨ	-1882
ང་ལ་	-1883
ད་སྤྱོད་	-1884
ལོངས་	-1885
ཞལ་	-1886
གཏན་འ	-1887
རེད་	-1888
མནའ་	-1889
དབུལ་ཕོངས་	-1890
ཁས་	-1891
▁ཆུ་	-1892
ཕ་རོལ་ཏུ་ཕྱིན་པ་	-1893
ཚོར་	-1894
དགོན་	-1895
ལྟའི་	-1896
ང་གིས་བ	-1897
གྲས་	-1898
བྱིན་	-1899
འཇིགས་	-1900
ཚང་འཛོམས་	-1901
སུ་བ	-1902
ཞིང་འབྲོག་	-1903
སྒོའི་	-1904
མཐུན་སྒྲིལ་	-1905
གླུ	-1906
རྒྱུགས་	-1907
▁ཡོང་ཁུངས།	-1908
དབང་པོ་	-1909
ཝེ	-1910
ཡོང་འབབ་	-1911
▁བདག་	-1912
བར་གྱི་	-1913
རྗེའི་	-1914
▁མི་རིགས་	-1915
མངོན་གསལ་	-1916
ཧི	-1917
མཚ	-1918
ངས	-1919
བླང་བྱ་	-1920
འཛུགས་སྐྱོང་	-1921
གཏམ་	-1922
བྱུང་བ	-1923
བདུན་	-1924
▁རྒྱལ་སྤྱིའི་	-1925
གནང་བ་རེད།	-1926
རིག་པ་	-1927
རིའི་	-1928
ཞུགས་པ་	-1929
ལ་སྤྱོད་	-1930
གང་ལེགས་	-1931
གཞི་རིམ་	-1932
བྱུང་བར་	-1933
ཧཱུ	-1934
སྤུས་ཚད་	-1935
ཅུའུ་	-1936
ཕུན་སུམ་	-1937
▁ན་	-1938
འགའ་	-1939
ལས་བྱེད་	-1940
རྒྱལ་པོ་	-1941
གྲོང་ཁྱེར་དང་	-1942
སུའུ་	-1943
གའི་	-1944
▁ཨོ	-1945
ཕྲེ	-1946
ལ་ཤུགས་སྣོན་	-1947
སྟོང་པ་ཉིད་	-1948
ཁྱོན་ཡོངས་ནས་	-1949
སྐུལ་འདེད་བ	-1950
▁མདུན་ཤོག	-1951
སྟོབས་ཤུགས་	-1952
སྨྲ་	-1953
མཛད།	-1954
ཆུང་གི་	-1955
▁གསར་	-1956
▁རོལ་	-1957
རོང་	-1958
མྱི	-1959
འགྲན་	-1960
ཀག་	-1961
ཤི་	-1962
ཧྥུའུ་	-1963
བཞིན་དུ་	-1964
ལ་མཇལ་འཕྲད་	-1965
ཆེན་མོ་	-1966
སྒྲགས།	-1967
བེ	-1968
ར་ན་	-1969
མཛོད་	-1970
མེ་ཏོག་	-1971
ཆེ་བ་	-1972
མཱ	-1973
སྒོམ་	-1974
ཅུས་	-1975
ཨང་	-1976
▁འོན་	-1977
གོ།	-1978
ཧྲིན་	-1979
མཛད་སྒོ་	-1980
ཞུགས།	-1981
བཞི	-1982
སྡུག་	-1983
སྔོ་	-1984
▁ཀྲུང་གུང་	-1985
ཡོ་རོ	-1986
སོ་སོ་	-1987
བསྡུ་	-1988
སྡོམ་	-1989
ཚོགས་ཆེན་གྱི་	-1990
ཡིན་པ་རེད།	-1991
ཆོས་ལུགས་	-1992
ངོ།	-1993
ཡང་ག	-1994
དོན་རྐྱེན་	-1995
ཏང་ནས་	-1996
▁ཞིན་	-1997
ཀར་	-1998
ཐོན་རྫས་	-1999
སྡེའི་	-2000
འདེབས་	-2001
ལྟ་ཞིབ་	-2002
གཙོ་གནད་	-2003
ཞི་ཅིན་ཕེན་གྱིས་	-2004
ཞུགས་པའི་	-2005
འགལ་	-2006
ས་པ་དང་	-2007
གྲོང་གསེབ་ཀྱི་	-2008
ཡིན་པ།	-2009
ནས	-2010
▁སྐད་	-2011
ནོར་སྲིད་	-2012
དེང་རབས་	-2013
གཏོང་དགོས།	-2014
མི་འ	-2015
ཤོས།	-2016
ནེ་	-2017
བཀོད་	-2018
ཐད་ཀྱི་	-2019
རྒྱན་	-2020
ཧྥེ	-2021
མཐའ་འཁྱོ	-2022
བར་བ	-2023
ལྗོངས།	-2024
▁ར་	-2025
རྣལ་འབྱོར་	-2026
སློབ་སྦྱོ	-2027
མདའ་	-2028
ལེན།	-2029
འགྲིམ་	-2030
ད་དུང་	-2031
གཅོད་	-2032
གཞིས་	-2033
ཉོན་མོ	-2034
བཙུ	-2035
ཇོ	-2036
གཙོ	-2037
བྱ་ཐབས་	-2038
ན་པོ་	-2039
ང་གཞོ	-2040
ལྟོ	-2041
པ་དང།	-2042
དུས།	-2043
འཇར་	-2044
བཅོས་སྒྱུར་	-2045
ཞིག་བ	-2046
ཀློག་	-2047
ཐོག་ཏུ་	-2048
▁ཟླ	-2049
ཤེས་རབ་ཀྱི་	-2050
མྱོང་	-2051
གསུང་	-2052
སྤོ་	-2053
གསར་འགོ	-2054
ཡོ་རོབ་	-2055
རྟེན་འབྲེལ་	-2056
ཚོགས།	-2057
▁ཝང་	-2058
གནང་བ།	-2059
བདུ	-2060
འཚེ་	-2061
▁སི་	-2062
ཁོ་ན་	-2063
▁འབྲེལ་	-2064
བྱེད་དགོས་པའི་	-2065
▁ལྗོངས་	-2066
འཕེལ་རྒྱས་སུ་	-2067
བཀོད་སྒྲིག་	-2068
མཆོད་	-2069
དམངས་ཆེན་	-2070
20	-2071
མྱི་	-2072
ལྟ་བུའི་	-2073
ཧུར་ཐག་	-2074
ཧེ་	-2075
གསེར་	-2076
▁གཙོ་ངོས།	-2077
༢༠༡	-2078
▁200	-2079
ལས་ཀྱི་	-2080
རྨང་གཞི་	-2081
ཉིད་དུ་	-2082
སྨྱ	-2083
བྱེད་ཤུགས་	-2084
གུ་	-2085
བཅི	-2086
བཀོ	-2087
ཁྲན་	-2088
དུག་	-2089
སྒོར་དུང་ཕྱུར་	-2090
▁དེ་དག་	-2091
འདེམས་	-2092
འཐབ་ཇུས་	-2093
སྒེ	-2094
འགྲོ	-2095
ཚང་མ་	-2096
ག་གཏོ	-2097
སྤྱོད་པ་	-2098
ལྷ་ས་གྲོང་ཁྱེར་	-2099
བར་དུ་	-2100
ཨོ་	-2101
ཡི་གེ་	-2102
ཀྲུང་གོ་དང་	-2103
ལྷི	-2104
སྲུང་སྐྱོ	-2105
ཕྲ་	-2106
▁རང་སྐྱོང་ལྗོངས་	-2107
▁ཅེས་	-2108
སྣོན་	-2109
ལས་ཀ་	-2110
སྲིད་གྲོས་	-2111
ཡོང་བ་	-2112
སྒོར་དུང་ཕྱུར	-2113
ཞིག་ཡིན་	-2114
གཞག་	-2115
ནས་ལོ་	-2116
ཅིའི་	-2117
ཧྲིལ་	-2118
ཁ་གསབ་	-2119
རིག་གནས།	-2120
འགྲེལ་	-2121
ཟློས།	-2122
ཁང་དང་	-2123
▁ཀུན་	-2124
ལྟར་བ	-2125
ང་གཉིས་	-2126
ཕྱོགས་བསྡུས་	-2127
གསུང་བཤད་	-2128
མཐུན་པའི་	-2129
རིན་པོ་	-2130
སོ་སོར་	-2131
▁ཞེས་པ་	-2132
▁ཁོ་	-2133
ངོ་སྤྲོད་	-2134
རྣམ་པར་དག་	-2135
ཞིང་ཆེན་ཏང་ཨུའི་	-2136
ང་བོད་	-2137
ལེགས་སུ་	-2138
▁མཛ	-2139
དཔྱི	-2140
ལ་མི་	-2141
ཆ་རྐྱེན་	-2142
མུའུ་	-2143
ཁུ་	-2144
▁རྒྱལ་ཁབ་ཀྱི་	-2145
སྤྱད་	-2146
▁2017	-2147
མཁར་	-2148
སངས་རྒྱས་ཀྱི་	-2149
ལ་ག	-2150
ཕི	-2151
▁ལ	-2152
ཕན་འབྲས་	-2153
གསར་འགོད་	-2154
འཁྲབ་	-2155
ད་པ་དང་།	-2156
འཕྲུལ་	-2157
མཐའ་འཁྱོངས་	-2158
ཀྲེ	-2159
སྡེ་ཚན་	-2160
▁མང་	-2161
རྒྱང་སྒྲོ	-2162
ལས་འད	-2163
▁༡	-2164
གླུ་	-2165
ང་ཚོའི་	-2166
སོད་ན	-2167
གསུམ་པ་	-2168
དེ་ལྟར་	-2169
ཧྥ་	-2170
བཀའ་	-2171
དངུལ་བ	-2172
གསལ་བ	-2173
ལྡོག་	-2174
ཆེན་མོའི་	-2175
ལིས་ཁི་ཆང་གིས་	-2176
རྐྱེན་ལམ་དུ་	-2177
བསྐྲུན་	-2178
རིང་།	-2179
སོད་ནམས་	-2180
གནས་བ	-2181
ཆེད།	-2182
▁15	-2183
ཝེ་	-2184
བཅོལ་	-2185
སྩ	-2186
བྱས་པ་དང་	-2187
ཁྲལ་	-2188
▁ང་	-2189
དད་	-2190
▁སྔོན་	-2191
སྐབས་སུ་	-2192
ལས་གཞི་	-2193
གང་ཡིན་པ་	-2194
རྐྱེན་ལམ་དུ་ཤོ	-2195
གྱེ	-2196
འཛིན་པ་	-2197
ངོས་འཛིན་	-2198
འཛུགས་སྐྲུ	-2199
དམིགས་བསལ་	-2200
བཏང་ནས་	-2201
ལས་ཀའི་	-2202
000	-2203
གཏན་འབེབས་	-2204
གཞི་རྩའི་	-2205
བྱ་དགའ་	-2206
པར་བྱའོ།	-2207
ཐེན་	-2208
▁གཉི	-2209
རྩལ་འ	-2210
ཡང་མི་	-2211
ས་བླ	-2212
ར་འགྱུར།	-2213
ངས་ནས་	-2214
སྲོལ་རྒྱུན་	-2215
བྱ་སྟེ།	-2216
རྙིང་	-2217
དང་ལྡན་པ་	-2218
གནས་པའི་	-2219
ཨང་དང་	-2220
བ་པ་	-2221
ཧྥེ་	-2222
ཤུ་	-2223
༠༠	-2224
ཤད་རྒྱུར།	-2225
གུང་ཁྲན་	-2226
ཧུའུ་	-2227
གཏོང་བ་དང་	-2228
ངེ་	-2229
རིག་པའི་	-2230
གློག་འཕྲིན་	-2231
ཀྲ་ཤིས་	-2232
གཏམ་བ	-2233
ནུས་ཤུགས་	-2234
སེ་	-2235
མེ་རི་ཁའི་	-2236
ཡཱའི་	-2237
▁ཆེད་སྒྲིག	-2238
སྒོར་ཁྲི་	-2239
ཟུང་འབྲེལ་	-2240
▁གཅིག་	-2241
ཐམས་ཅད་ཀྱི་	-2242
མཱ་	-2243
ལུགས།	-2244
ཚོགས་ཀྱིས་	-2245
མི་དམངས་འཐུས་	-2246
མཛུབ་སྟོན་	-2247
ཕྱོགས་སུ་	-2248
ཏང་།	-2249
པའོ་	-2250
འབད་	-2251
རྒྱལ་ཡོངས་ཀྱི་	-2252
དགྲ་	-2253
སྟན།	-2254
ཞུས་	-2255
ཆི་	-2256
སྲིད་འཛིན་	-2257
དྭ	-2258
སྐྱེ་བ་	-2259
▁འཕ	-2260
འབྲུ་	-2261
གཏོར་	-2262
འདོན་སྤེལ་	-2263
ཏན་ཏི	-2264
གཉིས་པ་	-2265
ལ་ནི་	-2266
མ་ཡིན་པ་	-2267
བྱའི་	-2268
འཚམས་འདྲི་	-2269
ཉིན།	-2270
གདན་	-2271
▁དབྱི་	-2272
དང་མི་	-2273
རྒྱད་	-2274
▁གཞི་	-2275
བཏོན་	-2276
ཨུ་ཡོ	-2277
ལས་དོན་ལ་	-2278
གྱོད་	-2279
ཕུགས་	-2280
ལྕགས་ལམ་	-2281
ཕྱོགས་ཀྱིས་	-2282
ཅན།	-2283
རྟོག་པ་	-2284
རམ་	-2285
▁རྣམ་པར་	-2286
གནས་པ་	-2287
ཧི་	-2288
ཏིང་ངེ་	-2289
▁རི་	-2290
བྱས་ཤིང་།	-2291
དཔྱོ	-2292
ཀྲུང་ཧྭ་	-2293
▁ལོ	-2294
སྲོལ།	-2295
གསར་སྤེལ་	-2296
ཆོ་	-2297
ཡོད་པས་	-2298
མནའ་འབྲེལ་	-2299
དཔེ་སྟོན་	-2300
ལུས་རྩལ་	-2301
སྐྱེལ་	-2302
ཤུལ་	-2303
ཁྱིམ་ཚང་	-2304
དུས་བ	-2305
ལ་ཤུགས་	-2306
དགུན་	-2307
▁སངས་རྒྱས་	-2308
དབང་བ	-2309
ང་བཅས་	-2310
▁2018	-2311
ཐེངས་འདིའི་	-2312
ཉིད་ཀྱིས་	-2313
འབྱོར་འབྲིང་	-2314
དཔྱིད་	-2315
ཆད་མེད་	-2316
གྲངས།	-2317
ལ་འབྱོ	-2318
▁ཟིན་	-2319
ང་བརྡ	-2320
མ་ཡིན་ནོ།	-2321
འབད་བ	-2322
སྒྲིག་འཛུགས་	-2323
ཐུབ་པའི་	-2324
རྔ་	-2325
གསོ།	-2326
མཛའ་	-2327
ནུ་	-2328
▁ནང་	-2329
དྲེན་	-2330
འདྲེན་	-2331
ཀྲོའུ་	-2332
ཁུལ་དུ་	-2333
ལ་ཡང་	-2334
གྲོས་ཀྱི་	-2335
དམས་	-2336
མོར་	-2337
མི་ཆོ	-2338
རྗོད་པ་	-2339
ཡོད་ཟེར།	-2340
ཟད་	-2341
ཧོ་	-2342
ན་བསྡུར་	-2343
འགྱུར།	-2344
བདེ	-2345
གཏད་	-2346
འགྱུར་རོ།	-2347
གསོལ་	-2348
སྤེལ་བའི་	-2349
སྟོང་བ	-2350
སྣུ	-2351
ཏང་ཡོན་	-2352
གྲན་	-2353
དག་ག	-2354
གྲོད་	-2355
ཕབ་ལེན།	-2356
ང་བུ	-2357
དུས་ཚོད་	-2358
གོ་རིམ་	-2359
ན་ཆེན་	-2360
སྣང་བ་	-2361
ཚུལ།	-2362
ཡོང་བའི་	-2363
གཅིག་གི་	-2364
▁གཉིས་	-2365
ཞི་ཅིན་ཕིང་གི་	-2366
དཀའ་ངལ་	-2367
རིན་ཆེན་	-2368
མི་རིགས་ཀྱི་	-2369
རན་	-2370
ཕྱེ་	-2371
འཆར་འགོད་	-2372
བའི་ལོ་	-2373
▁རྒྱུན་	-2374
པོར་བ	-2375
▁ཨོཾ	-2376
ནས་བཟུང་	-2377
རླུང་འཕྲིན་	-2378
པི	-2379
སྔོན།	-2380
འཆར་གཞི་	-2381
ཁྱེད་	-2382
ཀྲི་	-2383
འཆམ་	-2384
ཟླ་བ་	-2385
ར་འདེ	-2386
▁ཨོཾ་	-2387
ངས་བ	-2388
པཱ	-2389
བྱས་རྗེས་	-2390
ཁྱུ	-2391
གས་པ་དང་	-2392
ཐེག་	-2393
གཏན་འཁེལ་	-2394
ར་བུ་	-2395
བོད་ཀྱི་དྲ་བ།	-2396
སྦྱིན་	-2397
ཁག་ག	-2398
ཕྱག་རྒྱ་	-2399
སྤེལ་བ།	-2400
▁འཁོར་	-2401
འགན་འཁུར་	-2402
ལྗོངས་ཀྱི་	-2403
བཅའ་སྡོད་	-2404
བཅོས་སྐྱོང་	-2405
རྒྱུག་	-2406
ཟམ་	-2407
མགོ་ཁྲིད་	-2408
ཟོག་	-2409
སྦྱོར་བ་	-2410
རྗེས།	-2411
གསར་བ	-2412
ཞིག་རེད།	-2413
ཧྲེ	-2414
མཐུན་སྦྱོར་	-2415
ལ་ཞུགས་	-2416
ངོ་རྒོལ་	-2417
ས་དང་	-2418
ལའི་	-2419
གཞིར་བ	-2420
ཤུགས་ཆེན་	-2421
པདྨ	-2422
ཐུག་	-2423
སློབ་མའི་	-2424
རྒྱའི་	-2425
འགྲོ་བ་	-2426
སྦྱར་	-2427
མི་སྣའི་	-2428
ཞིག་གིས་	-2429
གནའ་	-2430
མ་གྱི་	-2431
ཆད་མེད་པར་	-2432
▁རྒྱུ་	-2433
▁དེ	-2434
▁འབྲེལ་ཡོད་	-2435
སྔ་དྲོ	-2436
དགོངས་པ་	-2437
ཡོན་ཏན་	-2438
ས་ཚིགས་	-2439
གློག་འཕྲིན་ལྟར།	-2440
ཐོབ་པ་	-2441
དབྱར་	-2442
བྱ་རྒྱུར་	-2443
ལྗང་	-2444
ཟབ་མོ་	-2445
ཞུ་བའི་	-2446
ཚོད་འཛིན་	-2447
ཐིག་	-2448
▁ཟི	-2449
ང་བདེ་	-2450
དུད་ཚང་	-2451
པོ་དང་	-2452
ཚོའི་	-2453
བཅས་ལ་	-2454
འབོད་	-2455
འགྲེམ་	-2456
ར་བཞིན་	-2457
ཀྲིན་	-2458
སྤྲུ	-2459
▁བར་	-2460
ཡོད་ཅེས་	-2461
ལས་བྱེད་པ་	-2462
སྙན་ཞུ་	-2463
▁2016	-2464
བྷ	-2465
འབྱུང་བ་	-2466
དཔལ་འབྱོ	-2467
▁རིག་གནས།	-2468
གནོད་འཚེ་	-2469
མུ་མཐུད་དུ་	-2470
ལྟུ	-2471
ཉེ་བར་	-2472
ལ་དུ་	-2473
ཕྲག་	-2474
བཅད་	-2475
འགྲིམ་འགྲུལ་	-2476
བའོ།	-2477
འབྲེལ་བའི་	-2478
སྒྲུབས་	-2479
སྟན་པའི་	-2480
དབྱིན་	-2481
བཅོས་བ	-2482
ཐོབ་པའི་	-2483
ལཱ	-2484
ཉེན་རྟོག་	-2485
རྫུ	-2486
བཅོ་བརྒྱ	-2487
▁དེ་ཡང་	-2488
རྨོ	-2489
སུ།	-2490
▁ཙམ་	-2491
ཚབས་	-2492
ཆ་སྙོམས་	-2493
བུད་མེད་	-2494
མཛོད།	-2495
རང་བྱུང་	-2496
གཙོ་བོའི་	-2497
▁སྤེལ་	-2498
དང་མཉམ་དུ་	-2499
ཕུ་	-2500
རིག	-2501
བསྒྲུབ་	-2502
རྩ་འཛུགས་ཀྱི་	-2503
ཡོད་པས།	-2504
ཁུལ།	-2505
དྲིལ་	-2506
ཕུའུ་	-2507
ཏུང་	-2508
ཡོད་པ།	-2509
ཡོད་ཅིང་།	-2510
གསར་འགོད་པས་	-2511
སྨིན་	-2512
རྫོགས་པའི་	-2513
མ་པའི་	-2514
སྲིད་གྲོས་ཀྱི་	-2515
གཉེ	-2516
▁མྱ	-2517
སྡུས་	-2518
འཕྲོད་བསྟེན་	-2519
ཏང་ཨུད་ཀྱི་	-2520
▁ལྷོ་	-2521
འགྱུ	-2522
བརྒྱུ	-2523
དམའ་	-2524
ལྷའི་	-2525
ཚད་ལྡན་	-2526
ང་གོ་	-2527
གྲོས་ཞིབ་	-2528
དམག་དོན་	-2529
འགྱུར་བ་	-2530
ཉིན་གྱི་	-2531
བོན་	-2532
དགེ་སློང་	-2533
འདུག་	-2534
ཐི་	-2535
མང་ཚོགས་ལ་	-2536
སྟོན་པ་	-2537
▁ཤིན་	-2538
སྐྱེལ་འ	-2539
བ་རྒོལ་	-2540
ཡོད་པ་དང་	-2541
སྡུག་བསྔལ་	-2542
དྷ	-2543
ལྟས་	-2544
ཕྱེད་	-2545
འདོམས་	-2546
སྡི	-2547
འཕུ	-2548
དོན་དུ་	-2549
ཅན་དུ་	-2550
ང་གན	-2551
ཚེ།	-2552
དག་ལ་	-2553
ཆོག་མཆ	-2554
དགེ་རྒན་	-2555
གཡོ	-2556
འཇིག་རྟེ	-2557
རིང་གི་	-2558
ཁྲའོ་	-2559
མཚོ།	-2560
གཏེ	-2561
ཎ་	-2562
ཙེ	-2563
ཏཱ	-2564
རང་སྐྱོང་ཁུལ་	-2565
འབྱེད་	-2566
ཝ་	-2567
སྤྱི་བསྒྲགས་	-2568
▁བོད་ལྗོངས་ཀྱི་	-2569
འབད་བརྩོན་	-2570
ཨུ་ཡོན།	-2571
ལ་མ་	-2572
ངེས་པར་དུ་	-2573
▁ང་ཚོས་	-2574
པེ་ཅིང་	-2575
འབུལ་	-2576
ཀྱང་བ	-2577
བསུ་	-2578
▁སེམས་ཅན་	-2579
མ་ཡིན་པའི་	-2580
སེམས་ཀྱི་	-2581
ཉོ་ཚོང་	-2582
ཙི	-2583
གཅིག	-2584
པཱ་	-2585
བཅུ་དགུ་པའི་	-2586
གཏོང་།	-2587
སྟེང་དུ་	-2588
▁དངོས་	-2589
ཆེད་ལས་	-2590
ཤེས།	-2591
དྲག་ཆས་	-2592
རྒྱུད་ཀྱི་	-2593
གཟུ	-2594
▁རབ་	-2595
ཉིན་རེའི་	-2596
མེས་	-2597
ཁྱད་ལྡན་	-2598
མདོག་	-2599
ཀི	-2600
པུའི་	-2601
▁ཀྲུང་གོ་དང་	-2602
ད་དུ་	-2603
ངལ་རྩོ	-2604
ངུ	-2605
གསར་བའི་	-2606
གྲོང་ཚོར་	-2607
མན་	-2608
གཏོང་བར་	-2609
བྱིས་པ་	-2610
ཀོང་	-2611
རྒྱལ་ཁ་	-2612
གན་	-2613
འགོ་ཚུགས་	-2614
མི་འདྲ་	-2615
མྱ་	-2616
▁ཁོང་གིས་	-2617
དེ་བཞིན་གཤེགས་པ་	-2618
ལ་ཞིབ་	-2619
ཆུས་	-2620
དོང་	-2621
གསང་	-2622
ལོ།	-2623
▁ཡིན་	-2624
ཞི་བདེ་	-2625
གཡུ	-2626
རྒྱུན་ཆད་མེད་པར་	-2627
▁»	-2628
ཡུལ་གྱི་	-2629
▁ལོའི་ཟླ་	-2630
ར་འགྲོ་	-2631
མི་བ	-2632
▁དེ་ལས་	-2633
ཁྱད་ཆོས་ཀྱི་	-2634
ཏོན་	-2635
▁ལྷ་ས་གྲོང་ཁྱེར་	-2636
ཧྲན་	-2637
འཇུག་པ་	-2638
གཉིས་སུ་	-2639
ཧྥ་རན་	-2640
ཏིང་ངེ་འཛིན་	-2641
ན།།	-2642
སྒྲིག་གཞི་	-2643
▁མཁའ་	-2644
ཡཱ་	-2645
ན་མ་	-2646
གནས་བབ་	-2647
ཁར་	-2648
གྲོང་ཁྱེ	-2649
ནན་བ	-2650
ཞིང་བ	-2651
འདྲ	-2652
ཁྱིམ་ཚ	-2653
འདིས་	-2654
▁དང་།	-2655
རྨས་	-2656
སྐབས།	-2657
ཕོག་	-2658
▁ཀྲང་	-2659
ཚོགས་པས་	-2660
གཅོ	-2661
▁གཟུགས་	-2662
བྱེད་དོ།	-2663
ཉི་ཤུ་	-2664
བརྡ་	-2665
▁ཏང་གི་	-2666
ཁྲོད་ཀྱི་	-2667
བཅས་པ་	-2668
གྲོས་གཞི་	-2669
ལམ་གྱི་	-2670
ནམ་མཁའ་	-2671
ཡུན་རིང་	-2672
ཡུལ་དུ་	-2673
ཀོན་	-2674
བྱས་ན་	-2675
རྒལ་	-2676
ནང་ཞུགས་	-2677
ཡོང་བར་	-2678
ཁག་དང་	-2679
བཅིངས་	-2680
ལས་དོན་གྱི་	-2681
གཉེན་	-2682
མཐོར་	-2683
དེ་གའི་	-2684
ཞང་	-2685
ཡིན་པས།	-2686
ཅེ་	-2687
འུ།	-2688
དམིགས་ཚད་	-2689
▁ལིས་ཁི་ཆང་གིས་	-2690
མཚོའི་	-2691
མཐར་ཕྱིན་	-2692
ཞིག་གི་	-2693
དྲོད་	-2694
▁དུ་	-2695
བསྐྱེད་	-2696
ང་བ་རེད།	-2697
ཀྲང་གཞོ	-2698
ལ་མཇལ་འཕྲད་གནང་།	-2699
གངས་	-2700
▁དེ་བཞིན་དུ་	-2701
གསུམ་དུ་	-2702
ཏུའུ་	-2703
སྟུན་	-2704
ལིག་	-2705
བླངས་	-2706
འཇམ་	-2707
བྱེད་མཁན་	-2708
▁རིག་གནས་	-2709
ར་འདེགས་	-2710
རྒྱ་ཆེའི་	-2711
རྒྱུས་ལོན་	-2712
སྒྲིག་བཀོད་	-2713
སྔའི་	-2714
རྦ	-2715
ཐུན་	-2716
དམག་དཔུ	-2717
ཞེས་པ་ནི་	-2718
ཡོད་པར་	-2719
ནན་ཏན་	-2720
ཟུར་	-2721
བྱ་གཞག་	-2722
▁13	-2723
▁«	-2724
ཡིད་ཆེས་	-2725
གཟབ་	-2726
མགོ	-2727
ཚེས་བཅུ་	-2728
▁རོལ་མོ།	-2729
གོ་སྐབས་	-2730
རྩལ།	-2731
གཞི་རྙི	-2732
དཔག་	-2733
གཏིང་ཟབ་ཏུ་	-2734
གྲོང་ཁྱེར་གྱིས་	-2735
ལ་དམིགས་	-2736
སྒྲིག་ཆས་	-2737
བྱ་དགོས།	-2738
ཅ་	-2739
▁ཀླུ་	-2740
རྩ་བ་	-2741
རྗེ་རེས་	-2742
ང་གིས	-2743
གཞི་རྙིང་བ།	-2744
ཉིན་བ	-2745
▁ཚོགས་	-2746
ལྷིང་	-2747
སློབ་སྦྱོང་དང་	-2748
དབྱིངས་	-2749
མྱ་ངན་	-2750
ཐོག	-2751
ལེགས་བཅོས་	-2752
རྒྱ་མཚོ་	-2753
▁ས་གནས་	-2754
གཏོང་དགོས་	-2755
མཁོ་འདོན་	-2756
བསྣ	-2757
གྲོས་བ	-2758
▁གཞིས་	-2759
ལ་འགག་	-2760
ཡོམ་	-2761
▁འོན་ཀྱང་	-2762
དམིགས་པ་	-2763
▁མངོ	-2764
རྒྱས་བ	-2765
ཤར་གཏོང་	-2766
གཅེས་	-2767
མི་དམངས་ཀྱི་	-2768
▁དཔེ	-2769
རྟག་ཏུ་	-2770
གསལ།	-2771
གསོག་	-2772
མཁས་པ་	-2773
དབུལ་སྒྲོ	-2774
▁2015	-2775
ཉིན་རེའི་ཚགས་	-2776
རེ་རེ་	-2777
▁ཐད་	-2778
▁ཐོག་	-2779
བསམ་བློ་	-2780
▁ས	-2781
བྲི	-2782
ཡིས།	-2783
གནད།	-2784
གཤེགས་	-2785
ད་པ་དང།	-2786
ནུས་ལྡན་	-2787
སྤོས་	-2788
ནི་བ	-2789
འཛམ་གླིང་གི་	-2790
གཅིག་པའི་	-2791
བོད་ཡིག་	-2792
▁རིགས་	-2793
▁ཇི་ལྟར་	-2794
▁ཤེས་	-2795
▁རྫོང་	-2796
དཔྱོད་	-2797
སྐྱ་	-2798
སྤྱོད་པའི་	-2799
འཁྲུག་	-2800
དུས་སུ་	-2801
▁མུ	-2802
གཟེ	-2803
ཁྱབ་གད	-2804
ཐོག་བ	-2805
བཞིའི་	-2806
མཐོང་ཆེན་	-2807
ཞིག་ཡིན།	-2808
ལམ།	-2809
▁30	-2810
▁མཚན་	-2811
འཐུས་ཚང་དུ་	-2812
སྒྲོག་འགྲེལ་	-2813
གླེང་སྟེགས་	-2814
▁དེ་བས་	-2815
▁མིག་སྔར་	-2816
དྲུང་	-2817
▁ལུས་	-2818
ག་པ་དང་།	-2819
ལ་དང་	-2820
སྡུད་	-2821
ཁང་ག	-2822
བུའི་	-2823
བདག་ཉིད་	-2824
གེགས་	-2825
ཚོགས་འདུར་	-2826
བྱེད་ཤུགས་ཆེ་རུ་	-2827
ཁྲོ་	-2828
ཧྲི་	-2829
དམིགས་འབེ	-2830
འཕེལ་རྒྱས་དང་	-2831
▁18	-2832
ཤེས་བ	-2833
གི	-2834
སྨོས་	-2835
▁རྨ་	-2836
འཕེལ་རྒྱས་ལ་	-2837
སྦྱོང་བརྡ	-2838
ས་ཆ་	-2839
▁དམངས་སྲོལ།	-2840
ཨུ་ལྷ	-2841
སྐྱེས་པ་	-2842
ཆབས་	-2843
སློབ་གྲྭའི་	-2844
ཞེས་བྱ་	-2845
▁༠	-2846
གྲོང་མི་	-2847
ཐེར་	-2848
ཆབ་མདོ་	-2849
ཡིན་པར་	-2850
ན་ནི་	-2851
དབང་གིས་	-2852
ཚོགས་པ་དང་	-2853
སྒྱུར།	-2854
མཐོར་འདེགས་	-2855
སྤྱི་ཚོགས་ཀྱི་	-2856
སི་རི་	-2857
བཟང་པོ་	-2858
▁མཉམ་འབྲེལ་	-2859
ངའི་	-2860
ཚོང་དོན་	-2861
པའམ་	-2862
ཡོད་ཅེས་བ	-2863
▁ཞེས་པའི་	-2864
དེ་ལས་	-2865
▁ཡིག་	-2866
ཚུལ་ཁྲིམས་	-2867
སྒྲུབ་པའི་	-2868
ཡོད	-2869
▁ཨུ་རུ་	-2870
བསྐྱར་	-2871
ནང་།	-2872
སྒྲུབ་པ་	-2873
མཛུབ་ཁྲིད་	-2874
ཡང་ན་	-2875
ཤུལ་བ	-2876
གཅིག་བ	-2877
གཞིར་	-2878
གྲོ་གླེང་	-2879
ཁ་ཕྱོགས་	-2880
ཡུན་རི	-2881
དབང་ཆ་	-2882
ཅིའི་ཕྱིར་	-2883
ཚོན་	-2884
བཞག་	-2885
སྲ་	-2886
སྙིང་སྟོབས་	-2887
ཁས་ལེན་	-2888
ཧཱུཾ	-2889
ནན་གྱིས་བ	-2890
ཁྱབ་བསྒྲགས་	-2891
དར་རྒྱས་	-2892
ཚོགས་འདུ་ཐེངས་	-2893
ཁ་གཏད་	-2894
སྨྱན་	-2895
གྱིས།	-2896
ཕྱག་འཚ	-2897
རིན་ཐང་	-2898
▁-	-2899
ཐུབ།	-2900
▁ཅི་	-2901
གཏེར་	-2902
བྱ་རྒྱུའི་	-2903
ཀུར་	-2904
ཟློས་	-2905
མ་ཡིན་ཏེ།	-2906
▁༢༠༡	-2907
བྱུང་བ།	-2908
སྤེལ་བ་	-2909
དོན་དངོས་	-2910
▁16	-2911
སྐུར་	-2912
-0	-2913
བཟའ་	-2914
ནན་པོ་	-2915
རབ་དང་	-2916
མཐོ་བའི་	-2917
འདི་དག་	-2918
དུས་ཀྱི་	-2919
བརྙ	-2920
ཐ་སྙ	-2921
ཡིན་ཞིང་།	-2922
ལེགས་སྒྲིག་	-2923
ཅེས་པའི་	-2924
འཕོ	-2925
མངོན་གསལ་དོད་	-2926
སྤེལ་བ	-2927
རྒྱུད་གཅིག་	-2928
རྣམས་ནི་	-2929
བྱུང་ཡོད།	-2930
འགྲན་བསྡུར་	-2931
སླབ་	-2932
▁བྲ	-2933
རྒྱུན་མཐུད་	-2934
▁17	-2935
ཕུང་པོ་	-2936
ཚང་མས་	-2937
ར་བ་དང་།	-2938
སྒྲིག་ཁྲིམས་	-2939
ནན་བཤད་	-2940
ཡིན་ནོ་	-2941
ཆབ་སྲིད་ཀྱི་	-2942
རྗོད་པར་	-2943
རྫ་	-2944
རིམ་བཞིན་	-2945
ག་གིས་བ	-2946
དམངས་འཐུས་	-2947
ཤུགས་སྣོན་	-2948
▁ཚ་	-2949
▁ཞི་ཅིན་ཕིང་གིས་	-2950
ལུའུ་	-2951
ཅིན་ཕི	-2952
བྱེ་བྲ	-2953
ཧཱ་	-2954
སྨི་	-2955
▁རྣམ་པ་	-2956
▁ཨེ	-2957
གཙོ་བོར་	-2958
གཞན་དུ་	-2959
ལེགས་པར་	-2960
འདོད་པ་	-2961
ནོད་	-2962
སྨོན་	-2963
ལེའུ་	-2964
འདམ་	-2965
བཞུགས་མོལ་	-2966
▁ཕ	-2967
ཐོགས་	-2968
ཡིས་བ	-2969
▁ཁྱོད་	-2970
སྨྲས་པ།	-2971
བཅོས་བསྒྱུར་	-2972
རུ་ཁག་	-2973
ཁྲོད་དུ་	-2974
མེ་ལོ	-2975
ལཱ་	-2976
ལ་བླ	-2977
ཆེན།	-2978
ཆུ་ཚོད་	-2979
ཆེད་དུ་	-2980
ཕྱི་དྲོ	-2981
ལྷག་པར་	-2982
ལག་ལེ	-2983
ཡག་	-2984
ཀྲུང་དབྱང་དང་	-2985
བྱེད་རྒྱུ་རེད།	-2986
ཆགས་པ་	-2987
▁འདུ་	-2988
མངགས་	-2989
སྤེལ་རེས་	-2990
▁ཡུལ་སྐོར་	-2991
སྒོར་ཁྲི	-2992
ཁྲིད་སྟོན་	-2993
▁བློ་མཐུན་	-2994
▁14	-2995
ཐུར་	-2996
གནང་བའི་	-2997
ལྗོངས་ཡོངས་ཀྱི་	-2998
སྟག་	-2999
པེ་ཅི	-3000
མཐའ་མཚམས་	-3001
ཡང་།	-3002
རྒྱུད་གཅིག་ལམ་	-3003
ན་བརྒྱབ་	-3004
དེ་འཇགས་	-3005
ཐོས་གནད།	-3006
༨༩	-3007
མ་ལ་	-3008
བཏོན།	-3009
ཀྱང་།	-3010
ཐོབ་པར་	-3011
དང་མཐུན་པའི་	-3012
བསྐྱེ	-3013
འཐུས་ཚབ་	-3014
འགན་འཁུ	-3015
ཟང་པོ་	-3016
སྐོ་	-3017
དར་སྤེལ་	-3018
ར་བ་དང་	-3019
སྩལ་	-3020
གོམས་	-3021
བསྐྲུ	-3022
ཞིས་ཅིན་ཕི	-3023
གྲུབ་པའི་	-3024
གྲོས་བསྡུར་	-3025
▁ཇི་	-3026
བརྟག་	-3027
.5	-3028
ཀྲུའུ་རེ	-3029
རྩ་བའི་	-3030
ངས་བསྟོད་	-3031
མོད།	-3032
འདི་ལ་	-3033
སྨད་	-3034
▁གློག་བརྙན་	-3035
མགྱོགས་སུ་	-3036
ལའང་	-3037
སྤྲི	-3038
མཉམ་བ	-3039
མི་རིགས་ཁག་གི་	-3040
བྱའོ་	-3041
ཐབས་ལམ་	-3042
དགོས་མཁོ་	-3043
ཐོ་འགོད་	-3044
▁སྡེ་	-3045
རྗི	-3046
ང་གནས་	-3047
སྐྱེལ་འདྲེན་	-3048
▁ཕབ་ལེན།	-3049
གཏུགས་	-3050
དམྱ	-3051
ཡོད་རྒུ	-3052
སྤྱི་བདེ་	-3053
ཤེས་པའི་	-3054
ར་འགྱུར་རོ།	-3055
རྒྱུས་ཀྱི་	-3056
ཙཱ	-3057
མཁན་གྱི་	-3058
རང་ཉིད་ཀྱི་	-3059
འཕུར་	-3060
པེ་ཅིན་ནས་	-3061
སེམས་ད	-3062
དྲག་ཏུ་	-3063
▁གནད་	-3064
འཁོར་ལོ་	-3065
འབར་	-3066
▁ཨེ་	-3067
བཤ	-3068
རྩོན་ལེན་	-3069
རག་	-3070
འགྲམ་	-3071
གྱུར་པའི་	-3072
གྲུབ་པ་	-3073
▁དཔལ་འབྱོར་	-3074
རང་ཉིད་	-3075
རྨི	-3076
གནས་སྐོར་	-3077
ཞིག་ལ་	-3078
▁གནམ་	-3079
▁གླུ	-3080
རྩེད་	-3081
▁སྤྱི་ཁྱབ་	-3082
སྤྱན་	-3083
ཕྱིའི་	-3084
ཚད་ཡོད་	-3085
མཐོང་བ་	-3086
སྦྱོང་བརྡར་	-3087
མི་གྲངས་	-3088
གོག་	-3089
ཇུས་བ	-3090
ཤེས་ཀྱི་	-3091
འཛིན་པའི་	-3092
བོད་སྐྱོར་	-3093
▁ཡུས་	-3094
ཕྲན་	-3095
གསུངས་སོ།	-3096
ཛྲ	-3097
▁དེས་ན་	-3098
▁བླ་	-3099
ཙུག་	-3100
ཤམ་	-3101
ཤེ་	-3102
ཐེག་པ་	-3103
ཧའེ་	-3104
སྙིང་པོ་	-3105
པུ་	-3106
ལ་ནས་	-3107
དམ་པ་	-3108
ལྡེ	-3109
དང་ལྡན་	-3110
▁2014	-3111
གསོ་སྐྱོང་	-3112
ཉོན་མོངས་པ་	-3113
▁ཉི་	-3114
མེད་དོ།	-3115
དོགས་	-3116
▁ཀན་	-3117
ཤཱ	-3118
གྲ་སྒྲིག་	-3119
ལས་ཁུངས་ཀྱི་	-3120
སློབ་གྲྭ	-3121
▁ཀློག་	-3122
ཆེན་པོས་	-3123
རྒྱལ་ཚོགས་ཀྱི་	-3124
▁གླུ་	-3125
མགྲོན་	-3126
ཧྥེ་རི་	-3127
▁༦	-3128
ཅེས་བྱ་བ་	-3129
ཁོངས་གཏོགས་	-3130
མིས་	-3131
སྒྱུར་བ	-3132
▁མཐ	-3133
ཁོང་	-3134
ཐ་ད	-3135
ཐམས་ཅད་མཁྱེ	-3136
ངོ་བོ་ཉིད་	-3137
ཇ་	-3138
▁ད་དུང་	-3139
ནཱ	-3140
ན་ཡང་	-3141
ཁང་བ	-3142
སེམས་དཔའ་ཆེན་པོ་	-3143
བསྟན་པ་	-3144
ཏན་ཏིག་	-3145
ང་ཚོར་	-3146
▁ལམ་	-3147
ས་མ་	-3148
ཆོས་བ	-3149
སྤྱི་ལེ་	-3150
བཅས་ཀྱིས་	-3151
ནང་བསྟན་	-3152
▁སྐྱེ་	-3153
གཏུག་	-3154
བྱས་པར་གཞིགས་ན།	-3155
▁ཤེས་རྟོགས་	-3156
དྲུག་པའི་	-3157
ཞིང་ཆེན་གྱིས་	-3158
སྤྱད་དེ་	-3159
དང་བྲ	-3160
▁སྐུ་	-3161
▁གཞན་ཡང་	-3162
དབུལ་པོ་	-3163
ཁྲག་	-3164
ནས་བཟུ	-3165
གབརྙན་	-3166
▁བཟོ་	-3167
ཡིག་ཆ་	-3168
ཧྲང་	-3169
སྙིང་ག	-3170
ལངས་	-3171
▁ཚེས	-3172
ཆག་	-3173
བྱས་པས་	-3174
ད་པ།	-3175
དཔལ་ཡོན་	-3176
▁གཞུང་	-3177
ཞབས་འདེགས་	-3178
རྡེ	-3179
ཨུ་ཡོན་ལྷན་ཁང་	-3180
བརྩ	-3181
རྒྱུན་ལས་ཨུ་ཡོན།	-3182
གཞུང་ལུགས་	-3183
ང་བུ་	-3184
བླག་	-3185
ཐང་གི་	-3186
བདེ་བ་	-3187
▁མཐོ་	-3188
ཡིད་ལ་	-3189
ཧཱུཾ་	-3190
ལྡན་གྱི་	-3191
ལ་འཚམས་འདྲི་	-3192
དབྱི་སི་	-3193
བྱུང་སྟེ་	-3194
ཀྲང་གཞོན་པ་	-3195
སྐྱོང་གི་	-3196
ཚོད་ལྟ་	-3197
དུས་མཚུངས་	-3198
ཕོ་བྲ	-3199
རྩོམ་རིག་	-3200
ཞའོ་	-3201
ཉེར་བ	-3202
ང་གིས།	-3203
ཆད་པར་	-3204
འགན་ཁུར་	-3205
བྱིས་པའི་	-3206
ནའང་	-3207
བར་འ	-3208
▁འཛམ་གླིང་	-3209
ས་ཁུལ་དུ་	-3210
ཁེ་ཕན་	-3211
རླབས་ཆེན་	-3212
སོ་སོས་	-3213
དབུལ་སྒྲོལ་	-3214
▁འགྲོ་	-3215
འདྲི	-3216
ལེགས་འགྲུབ་	-3217
ལྷན་ཅིག་	-3218
སྐྱིད།	-3219
འཆི	-3220
འདི་ཉིད་	-3221
དེ་དང་	-3222
ང་གེ	-3223
ལོངས་སྤྱོད་	-3224
ས་ཁོངས་	-3225
ཧྲུའུ་ཅི	-3226
ཧྲིན་གྱིས་	-3227
ཚེས་ཉེར་	-3228
ཅུས་ཀྱི་	-3229
ནང་གས	-3230
ཀུན་ཏུ་	-3231
རོགས་རམ་	-3232
▁ཐེངས་འདིའི་	-3233
དགའ་བསུ་	-3234
▁མེ་	-3235
སྐབས་ཀྱི་	-3236
འཕྲིན་ཡིག་	-3237
སྒྲོན་	-3238
▁སྤེལ་དུས།	-3239
▁ནི་	-3240
ལྐ	-3241
ཁྲེང་	-3242
ཁྱད་ཆོས་ལྡན་པའི་	-3243
ང་གཅིག་	-3244
གཉིས་བ	-3245
▁ཀློག་གྲངས།	-3246
▁རང་གི་	-3247
རིན་པོ་ཆེ་	-3248
སེམས་དཔའི་	-3249
གཉིས་པོའི་	-3250
རྩེའི་	-3251
ཡིག	-3252
▁མཐའ་	-3253
ལྷག་བ	-3254
སླར་གསོ་	-3255
▁འདིར་	-3256
ལེགས་སྐྱེས་	-3257
ཉ་	-3258
ཀི་	-3259
ཇོ་	-3260
ཙུང་ཐུ	-3261
འོས་འགན་	-3262
ཟབ་ཏུ་	-3263
ལས་གནས་	-3264
ཏཱ་	-3265
སྲས་	-3266
རྣམ་པའི་	-3267
རྒྱུ་དང་	-3268
▁གསར་འགོད་པས་	-3269
བྱེ་བ་	-3270
▁གསུམ་	-3271
གདུ	-3272
ཕྱིར་འ	-3273
པུའུ་ཀྲང་	-3274
ཕན་པ་	-3275
རྟོགས་པ་	-3276
གསོན་	-3277
མེད་པས་	-3278
ཕྲུ་	-3279
ནན་མོ་	-3280
བཞ	-3281
བསྡུས་པ།	-3282
གོམ་	-3283
གྲོང་རྡལ་གྱི་	-3284
▁གསོ་	-3285
གསར་འགོད་པར་	-3286
གྱི།	-3287
བསྒྱུར་	-3288
ཀྱིས	-3289
ཁྲིའི་	-3290
▁པར་མཛོད།	-3291
རྒྱུར་སྐུལ་འདེད་	-3292
གནད་དོན་ཐག་གཅོད་	-3293
ཡང་དག་པའི་	-3294
དོན་ཏོ།	-3295
སྡོད་ཁང་	-3296
▁25	-3297
དུས་རབས་གསར་པའི་	-3298
ལ་བ་དང་	-3299
ཅེས་པ་	-3300
དྲིན་	-3301
བཅུག་	-3302
སྐྱབས་	-3303
མཐོང་།	-3304
ཅུའུ་ཡི་	-3305
ཡོངས་ལ་	-3306
འཐུས་སྒོ་	-3307
འཇར་པ	-3308
བཅུ་གཉིས་	-3309
▁ཁུལ་	-3310
འོང་	-3311
▁ཉེ་བའི་ལོ་	-3312
▁འཇིག་རྟེན་	-3313
ངས་པར་	-3314
▁བུ་	-3315
▁21	-3316
མེད་ན་	-3317
▁དཔེ་	-3318
བོད་ལྗོངས་ཀྱི་	-3319
ནོར་བུ་	-3320
ཏང་བ།	-3321
▁དྲ་	-3322
སོང་།	-3323
སྐད་བ	-3324
བྱུང་བར་གཞིགས་ན།	-3325
ཕྱུག་འགྱུར་	-3326
གནམ་གྲུ་	-3327
དྲང་	-3328
ཕྱི་འབྲེལ་	-3329
ཀྱིས།	-3330
རྩ་དོན་	-3331
ཙུའུ་	-3332
མགྱོགས་མྱུར་	-3333
རྩལ་འགྲན་	-3334
ཅིག	-3335
ཕྱིར་བ	-3336
ངལ་རྩོལ་	-3337
འཛིན་གྲྭ་	-3338
▁དེའི་ཕྱིར་	-3339
བསྡོམས་	-3340
བློའི་	-3341
བ་ནི་	-3342
▁ཝུའུ་	-3343
སྒྲུབ་པར་	-3344
ཁེ་ལས་ཀྱི་	-3345
རྫོང་དུ་	-3346
འཛུགས་སྐྲུན་གྱི་	-3347
འགོ་ཚུ	-3348
▁ཐད་གཏོང་།	-3349
ཨ་མེ་རི་ཁའི་	-3350
▁ཚ	-3351
▁རྒྱང་སྒྲོ	-3352
འཛེ	-3353
གཟི་	-3354
འབའ་	-3355
བྱེད་སྟངས་	-3356
ཀྱང།	-3357
དགེ་བའི་	-3358
ཡིན་ཞེས་	-3359
བྲོ	-3360
རྡོ་རྗེའི་	-3361
དབུལ་སྒྲོལ་འགག་	-3362
▁ར	-3363
མདོར་བ	-3364
ཨན་	-3365
དྲིལ་སྒྲོག་	-3366
གྲུའི་	-3367
དབང་དུ་	-3368
ཆར།	-3369
གྱིས	-3370
ཏང་ཨུ་	-3371
ཙང་	-3372
ཛ་	-3373
སྲོག་ཆགས་	-3374
ལེགས་པོ་	-3375
ཀུང་སི	-3376
ཚོར་བ་	-3377
ང་བ་དང།	-3378
ཡོད་དེ།	-3379
རིགས	-3380
དགོང་	-3381
རྙན་འཕྲིན་	-3382
དང་པོར་	-3383
▁བཅས་	-3384
ལས་བྱེད་པ་དང་	-3385
ཐོབ།	-3386
ཡིན	-3387
མཛེས་ལྗོངས་	-3388
▁བཞི་	-3389
སླར་ཡང་	-3390
དམིགས་འབེན་	-3391
ལིན་	-3392
གསར་སྐྲུན་	-3393
གལ་ཆེའི་	-3394
ལྐོ	-3395
བཙོ	-3396
▁མཛེ	-3397
ཕུལ་བྱུང་	-3398
དོག་	-3399
གཏོང་རྒྱུའི་	-3400
བྱེད་སྒོ་སྤེལ་	-3401
འཇོག་པ།	-3402
རིག་གནས་ཀྱི་	-3403
ལས་ཁུངས་ཀྱིས་	-3404
སྡུས།	-3405
སྲིད།	-3406
ཞི།	-3407
ཚབས་ཆེན་	-3408
ལས་བྱེད་པའི་	-3409
ཁྲོམ་རའི་	-3410
ཚོད་ལྟའི་	-3411
བརྙན།	-3412
གཤེགས་པའི་	-3413
ཏང་སྟེ་	-3414
དབྱེ	-3415
ཅུན་	-3416
▁དགེ་སློང་	-3417
འོག་ཏུ་	-3418
འདི་སྐད་	-3419
ཞིང།	-3420
སྦྲག་	-3421
རིམ་ཁག་	-3422
▁དང་པོ་	-3423
ཡོངས་བསྒྲགས་	-3424
བྱས་ཡོད་པ་རེད།	-3425
སྭ	-3426
ཅིང།	-3427
གོང་དུ་	-3428
ཝང་གོ་	-3429
རྣ་	-3430
རྟེན་གཞི་	-3431
ས་ཏེ་	-3432
རྩད་	-3433
ཎ་ཆེན་	-3434
སྒེར་	-3435
▁[	-3436
མངོན་སུམ་	-3437
གསུངས།	-3438
ཞིབ་འཇུ	-3439
རྫོགས་པར་	-3440
ཤེས་པར་	-3441
ཞེས་བྱའོ།	-3442
འཇིག་རྟེན་གྱི་	-3443
འགྲོ་བའི་	-3444
པུས་	-3445
འཛིན་གྱི་	-3446
པདྨ་	-3447
གཡོ་	-3448
མང་ཚོགས་ཀྱིས་	-3449
ལ་འགོ་	-3450
ཀའ་སྩལ་	-3451
སུམ་ཅུ་	-3452
ཊ་	-3453
འཐུས་མིའི་	-3454
.1	-3455
▁དང	-3456
མི་རུ	-3457
▁ཕ་	-3458
ཁོ་ན	-3459
འབྲོག་པའི་	-3460
བྱེད་དགོས་པ་	-3461
▁ཡིད་	-3462
▁གློག་རྡུལ་	-3463
ཛྲ་	-3464
ན་པ་རེད།	-3465
དཔེ་སྐྲུན་	-3466
▁རིག་	-3467
དེ་ཡང་	-3468
ཆོག་མཆན་	-3469
ས་པ་དང་།	-3470
ལྷག་པའི་	-3471
ལྷོ་ཁུལ་	-3472
མ་ཡིན།	-3473
ལུས་ཀྱི་	-3474
▁དཔལ་འབྱོ	-3475
གཞན་གྱི་	-3476
འཕྲལ་	-3477
ཆེ་ཤོས་	-3478
ཐུན་མོང་གི་	-3479
རྗིད་	-3480
▁ངས་	-3481
སློབ་ཁྲིད་	-3482
▁གླི	-3483
ང་བཞིན་	-3484
ཚན་ཆུ	-3485
ལས་གྲྭ་	-3486
ཡང།	-3487
སྤྲུལ་	-3488
གསུང་བཤད་གལ་ཆེན་	-3489
ཁོང་དུ་	-3490
▁ད་ལོའི་	-3491
མི་དང་	-3492
.2	-3493
བསྡུར་	-3494
བཅུ་གསུམ་	-3495
▁རྣམ་	-3496
གི་	-3497
▁ཁམས་	-3498
ཧུར་ཐ	-3499
སྟོང་པ་	-3500
ནང་གསར་འགྱུར།	-3501
གྲངས	-3502
ན་བུ	-3503
201	-3504
གས་པ་དང་།	-3505
ཁག་བ	-3506
▁ཏང་གི་ཚོགས་ཆེན་	-3507
སྔོན་འགོག་	-3508
ཕལ་	-3509
འབྲོག་པ་	-3510
ཡོ་རོབ་གླིང་	-3511
ཐོག་མ་	-3512
▁པ་	-3513
▁སྐྱེ་ཁམས་	-3514
ལ་གནས་	-3515
-1	-3516
སྔོན་ཐོན་	-3517
སོང་ནས་	-3518
▁སོགས་	-3519
༡༠	-3520
ལ་བློ	-3521
ཁ་པར་	-3522
བཅར་འ	-3523
ཐོག་མར་	-3524
གཙོའི་	-3525
པར་འགྱུར་རོ།	-3526
ཆེར་བ	-3527
ཕྱི་རོལ་	-3528
ཇེ་དྲག་ཏུ་	-3529
ཁང་ནས་	-3530
ཁང་ལ་	-3531
ཉར་	-3532
ན་བྲ	-3533
ཀྲུའུ་རེན་	-3534
ན་པ་དང།	-3535
སྟུད་	-3536
▁བའི་	-3537
▁ཡང་ན་	-3538
གཞོན་པ།	-3539
ཤེས་བྱ་	-3540
མང་བའི་	-3541
གླ་	-3542
སྲིང་	-3543
དང་ལེན་	-3544
གསུངས་པ་རེད།	-3545
རང་ལྗོངས་ཀྱི་	-3546
སོག་	-3547
ཀྱང་ག	-3548
▁ལི་	-3549
▁འཕར་	-3550
བྱེད་ཚད་	-3551
སྒམ།	-3552
ཐོག་ག	-3553
དངུལ་བུ	-3554
བྱེད་སྐབས་	-3555
དབུལ་ཐར་	-3556
གཏམ་བཤད་	-3557
▁གསར་ཤོས།	-3558
བྱེད་སྒོའི་	-3559
▁ས་གནས།	-3560
བོ།	-3561
▁མགོ་	-3562
སྟབས་བདེ་	-3563
ཅན་དང་	-3564
སྐུལ་མ་	-3565
▁རབ་འབྱོར་	-3566
ནཡོད།	-3567
ན་སྤེལ།	-3568
▁པར་གཞི་རྙིང་བ།	-3569
▁འབྲེལ་ཡོད།	-3570
འཕོ་	-3571
མེད་ཀྱི་	-3572
▁དཔྱད་མཆནཡོད།	-3573
▁དཔྱད་མཆན་སྤེལ།	-3574
ཐོབ་པ།	-3575
▁ཞེས་བྱ་བ་	-3576
སྤྱི་བསྒྲགས་ཨ	-3577
ཡིན་ཟེར།	-3578
རྐོ	-3579
སྐྱུ	-3580
རྣམ་པར་ཤེས་པ་	-3581
ལ་འདེབས་	-3582
.7	-3583
གྲངས་ཉུང་	-3584
འཆད་	-3585
▁ཚ་ཤོས།	-3586
▁སི་ཁྲོན་	-3587
ཏང་དང་	-3588
སྐྱོར།	-3589
འདབ་	-3590
▁དཔྱད་མཆན།	-3591
རྒྱལ།	-3592
ཀྲུང་གོས་	-3593
ཟླའི་	-3594
ཡིན་པ་དང་	-3595
བྱད་	-3596
མི་སྣས་	-3597
གྲེམ་	-3598
ཁང་གི་ཙུང་ལི་	-3599
རགས་	-3600
ལྟ་སྐུལ་དོ་དམ་	-3601
ཐོག་གི་	-3602
▁དེར་	-3603
མས་པ་	-3604
ཕྱག་འཚལ་	-3605
▁དུས་རབས་	-3606
▁ཚོང་	-3607
▁བོད་ལྗོངས་ཀྱིས་	-3608
ཁྲིམས་འཛིན་	-3609
ཁྲ་	-3610
བཅུའི་	-3611
བྱེད་དགོས་པ་དང་།	-3612
བོས་	-3613
▁མང་ཚོགས་	-3614
▁སྒྲ་	-3615
བཅིངས་འགྲོ	-3616
གཅིག་དང་	-3617
ཉི་མ་	-3618
▁2019	-3619
བྱེད་དུ་	-3620
▁དེ་ཉིད་	-3621
ཚུར་	-3622
ཕྲུག་	-3623
ཙཱ་	-3624
དག་ནི་	-3625
ཡིག་གི་	-3626
ཁྲེགས་	-3627
ཡོད་རྒུས་	-3628
གནས་ཚུལ་ལ་	-3629
མཛེས་སྡུག་	-3630
མགྲི	-3631
ཁག་ཐེག་	-3632
▁དེ་དང་	-3633
ཟི་ལིང་	-3634
སྐོང་	-3635
རྒྱ་དང་	-3636
▁རྒྱང་སྒྲོགབརྙན་	-3637
▁གློག་བརྙན་ཟློས།	-3638
དྲ་བརྙན།	-3639
ཁང	-3640
དངུལ་རྩའི་	-3641
མཇུག་བ	-3642
ལ་ཆེན་	-3643
ཚོགས་ཁང་	-3644
▁ཞེས་བ	-3645
སྤྱི་པའི་	-3646
ལག་ལེན་བ	-3647
མཐའི་	-3648
མ་མཆི	-3649
ཐཱ	-3650
▁དཀར་	-3651
གྲང་	-3652
བརྟན་པོ་	-3653
མཐའ་གཅིག་ཏུ་	-3654
སྡེབ་	-3655
བཅོ་བརྒྱད་པའི་	-3656
ལོ་གསར་	-3657
པུའུ་ཡི་	-3658
སྐུལ་སྤེལ་	-3659
རྣམས་དང།	-3660
བརྩམས།	-3661
སྤྱི་མཐུན་	-3662
བྱེད་དགོས་ཟེར།	-3663
ཟིན་པའི་	-3664
ནུས་པ་འདོན་སྤེལ་	-3665
གཞུང་ལས་	-3666
▁ཉེ་ཆར།	-3667
རང་རྒྱལ་གྱི་	-3668
དྲིས་	-3669
ངེས་པ་	-3670
▁དགའ་	-3671
▁ཚན་	-3672
ཉེན་ཁ་	-3673
ལ།།	-3674
ཧཱུྃ	-3675
དབྱིང་	-3676
▁སྐད་འཇོག་པ།	-3677
སྔར་བཞིན་	-3678
ཨ་ཧྥེ་རི་	-3679
ཐོན་པའི་	-3680
ཡུན་ནན་	-3681
དགེ་འོས་	-3682
▁རྒྱལ་ཡོངས་ཀྱི་	-3683
གཅིག་ལ་	-3684
▁ཞིང་ལས་	-3685
རྗོད།	-3686
▁གློག་འཕྲིན་ཡིག་	-3687
▁ཚན་རིག་	-3688
ཉེས་པ་	-3689
▁སྨན་	-3690
ཐོག་མའི་	-3691
དངོས་འབེབས་	-3692
ཀེ	-3693
བརྗོད་དོན་	-3694
དུམ་	-3695
ཅིག།	-3696
ལེགས་གྲུབ་	-3697
མི་འགྱུར་	-3698
སྔ་མ་	-3699
འཁོར་བ	-3700
དབུལ་པོའི་	-3701
ཡིག་ག	-3702
ཀའོ་	-3703
འཚམ་	-3704
བདེ་ཐང་	-3705
ལོ་རྒྱུས་ཀྱི་	-3706
ལྟར་འ	-3707
བརྩེ་	-3708
བརྒྱུད།	-3709
.4	-3710
བྱ་རྒྱུ་རེད།	-3711
▁པར་རིས་	-3712
ལགས།	-3713
ཁོངས་སུ་	-3714
▁བརྒྱུད་	-3715
▁གཉིས་པ་	-3716
སྐུལ་བ	-3717
▁མུ་	-3718
ཁ་ཤས་	-3719
དོན་གྱི་	-3720
པད་	-3721
ཁྱབ་ཁོངས་ཀྱི་	-3722
རོགས་སྐྱོབ་	-3723
ར་བརྟེན་	-3724
ཆར་འགོད་	-3725
ཀུན་ནས་	-3726
བཏང་སྟེ་	-3727
སོ།།	-3728
འགའི་	-3729
སྐད་ཡིག་	-3730
▁གནས་སྐོར།	-3731
བདེ་སྐྱིད་	-3732
གནས་སྐབས་	-3733
ཤེས་ལྡན་	-3734
▁བརྙན་ཟློས།	-3735
མས་པའི་	-3736
བཙ	-3737
▁26	-3738
ན་བདེ་	-3739
ན་དུ་	-3740
ཤུལ་བཞག་	-3741
དང་བཅས་	-3742
▁ཡན་	-3743
ག་པ་དང།	-3744
མི་ཆོག	-3745
▁0	-3746
ངུ་	-3747
གཟེངས་བསྟོད་	-3748
སྣུམ་	-3749
མཁྲེགས་	-3750
▁གྲོས་ཚོགས་	-3751
པུའུ་ཡིས་	-3752
རིམས་	-3753
ཡི།	-3754
འབྲེལ་འ	-3755
▁2013	-3756
སེང་གེ	-3757
ཝང་ཅན་	-3758
བེད་	-3759
པར་གྱུར་	-3760
བཤེས་	-3761
ལོ་ངོ་	-3762
མྱེད་	-3763
ཙི་	-3764
འཐུས་སྒོ་ཚང་དུ་	-3765
ཀྲུའུ་ཞི་གཞོན་པ་	-3766
ཞེས་བྱ་བར་	-3767
ལ་འཇུ	-3768
འཐུང་	-3769
མཚོ་སྔོན་གྱི་	-3770
ངང་བ	-3771
▁ལྔ་	-3772
སྦྲ་	-3773
ཤུགས་རྐྱེན་	-3774
ལས་འཛིན་	-3775
ཆ་ནས་	-3776
འདྲེས་	-3777
གཟའ་	-3778
དེ་བཞིན་དུ་	-3779
ད་ནས་	-3780
ཐམས་ཅད་མཁྱེན་པ་	-3781
ཟོས་	-3782
འགན་བཅོལ་	-3783
ར་བླ	-3784
▁དཔལ་འབྱོར།	-3785
ལྷག་ཙམ་	-3786
མི་དམངས་ཚོགས་ཁང་	-3787
▁རྩོམ་པ་	-3788
བུ་མོ་	-3789
▁རེ	-3790
ལྟེ་བའི་	-3791
ན་བཀོད་	-3792
ཉིས་སྟོང་བ	-3793
ན་བླ	-3794
ན་བར་	-3795
བརྒྱབ་	-3796
ཇུས་ཀྱི་	-3797
གདོང་	-3798
འཁོར་གྱི་	-3799
རལ་	-3800
ཨུ་ལྷན་གྱི་	-3801
ལས་འདས་པ་	-3802
གྲོལ་	-3803
▁གང་གི་	-3804
སྤོར་	-3805
དམ་པའི་	-3806
▁ཚད་	-3807
པ་ནི་	-3808
▁ཧན་	-3809
ཐལ་	-3810
ལས་རིགས་ཀྱི་	-3811
ལས་བྱུང་བའི་	-3812
བརྟན་དུ་	-3813
སོགས་ལ་	-3814
གསོ་རིག་	-3815
རྒྱལ་མཚན་	-3816
ཚན་ཆུང་གི་	-3817
དགེ་འདུན་	-3818
འབད་འཐབ་	-3819
ཟང་བོ་	-3820
སྨྲས་	-3821
གས་ཀྱི་	-3822
སྒོར	-3823
མྱུར་དུ་	-3824
དོད་པའི་	-3825
ཞིབ་དཔྱོད་	-3826
▁གྲོང་ཁྱེར་	-3827
ཡིག་བ	-3828
མ་འོ	-3829
བརྙེ	-3830
▁ཡ	-3831
འཕྲིན་བ	-3832
དགའ་ཞེ	-3833
ཉུང་དུ་	-3834
བ་ལ་	-3835
ཕུན་སུམ་ཚོགས་	-3836
ཁྲིད་པའི་	-3837
རྡུང་	-3838
དྲག་པོ་	-3839
སྤུན་	-3840
རུས་	-3841
ཞིག་ཀྱང་	-3842
.3	-3843
སྐད་རླུང་འཕྲིན།	-3844
ཙེ་	-3845
སྐྱོད་པའི་	-3846
རིགས།	-3847
བྱམས་པ་	-3848
སྒོ་འབྱེད་	-3849
སྐམ་	-3850
གནས་སུ་	-3851
ལྐོག་	-3852
མའོ་	-3853
ན་འགྲུ	-3854
▁འདི་ལྟར་	-3855
གཏོང་བ་བཅས་	-3856
སཱ	-3857
ངོ་མཚ	-3858
མཉམ་བསྒྲགས།	-3859
བློ་མཐུན་	-3860
རས་	-3861
ཚོང་ག	-3862
སྒྲིག་སྲོལ་	-3863
ལ་འགྱུར་	-3864
▁>	-3865
▁ཞི་	-3866
རོང་འབྲོག་	-3867
སྣང་ཆེན་	-3868
ལྕེ	-3869
དང་ག	-3870
ཚང་མར་	-3871
ཁང་པ་	-3872
མིན་པའི་	-3873
སམ།	-3874
ལྟ་སྟེ།	-3875
སྙམ་དུ་	-3876
ཀུན་གྱི་	-3877
ནུས་པའི་	-3878
དང་འབྲེལ་	-3879
ཆང་	-3880
ག་བརྙན་འཕྲིན་	-3881
གསུམ།	-3882
ལས་བཟོ་	-3883
.8	-3884
མཁྱེན་	-3885
དཔང་	-3886
སྙིགས་	-3887
.6	-3888
སྔོན་དུ་	-3889
▁གུ	-3890
▁ལོའི་ཟླ	-3891
▁འོ་	-3892
སི་ཐན་གྱི་	-3893
འཚེ	-3894
གཉིས་ལ་	-3895
▁གཞ	-3896
▁གསར་འགྱུར་	-3897
གོང་གི་	-3898
རྐྱང་	-3899
མཆེད་	-3900
ག་ཆུ་	-3901
རྨི་	-3902
▁འཐུས་	-3903
འོད་ཟེར་	-3904
▁ལིག་	-3905
འཕྲོ་	-3906
དམིགས་ཡུལ་	-3907
བདུན་པའི་	-3908
ཞུས།	-3909
ཕྲུ་གུ་	-3910
▁༢	-3911
ཀུ་	-3912
ང་ཚོ་	-3913
ཆེ།	-3914
བརྡ	-3915
རྒྱ་ཁྱོན་	-3916
ན་བཟོ་	-3917
བསྣན་	-3918
ན་བཞིན་	-3919
སྣེ་ལེན་	-3920
རྐྱེན་གྱིས་	-3921
ལྡན།	-3922
མཉམ་འབྲེལ་ལྷན་	-3923
བྱུང་ནས་	-3924
བོད་ལྗོངས།	-3925
ག་གེ	-3926
▁བྱ་	-3927
སྙིང་རྗེ་	-3928
དགེ་རྒ	-3929
ཆབ་སྲིད་ཅུའུ་ཡི་	-3930
རྒྱུ་དང་།	-3931
སྒོམ་པ་	-3932
ཚོགས་འདུའི་ཐོག་	-3933
ཆོ་ག་	-3934
▁བྱང་	-3935
སྐྱེས་པའི་	-3936
དངོས་གྲུབ་	-3937
▁རྒྱུད་གཅིག་ལམ་	-3938
ནིང་	-3939
ངས་ཀྱི་	-3940
བཙན་	-3941
གཞི་ཁྱོན་	-3942
.9	-3943
རྒྱུན་འཛིན་	-3944
ཟག་	-3945
མིན།	-3946
དབྱང་	-3947
དམག་དཔུང་	-3948
འཇོན་	-3949
ང་གསུ	-3950
ཟི་ལིང་ནས་	-3951
▁གླིང་	-3952
ངོས་ནས་	-3953
གཉིས།	-3954
འགྲེམས་སྟོན་	-3955
ཐད་ལ་	-3956
▁100	-3957
ང་གཞུང་	-3958
བག་	-3959
འཁོད་	-3960
▁ཕན་	-3961
སྡེ་བའི་	-3962
ཐག་བཅ	-3963
རྙེད་	-3964
སང་	-3965
ཉིང་ཁྲི་	-3966
གུར་	-3967
མེད་དུ་	-3968
འཕེལ་རིམ་	-3969
སྐྱེས་བུ་	-3970
བཀག་	-3971
ལས་ཁུངས།	-3972
སྟེང་གི་	-3973
▁མདོ་	-3974
▁ཀྲུང་ཧྭ་	-3975
▁གཞི་རིམ་	-3976
ཀྱི།	-3977
སྡེ་ཁག་	-3978
▁ཀླུ་མོ་	-3979
ས་ཡ་	-3980
བླག་ངང་	-3981
ལས་ཀྱང་	-3982
ལ་ངོ་རྒོལ་	-3983
▁སྤྱོད་	-3984
མགོ་འཛིན་	-3985
འཆི་	-3986
ནས་བཟུང་།	-3987
▁མཛེས་	-3988
ཡོངས་སུ་དག་	-3989
སི་ཐན་	-3990
ག་གཏོང་	-3991
ཐ་སྙད་	-3992
ལིའུ་	-3993
▁24	-3994
བྱེད་ཀྱི་ཡོད།	-3995
ཀྱུ	-3996
རིག་གི་	-3997
བྱར་	-3998
གྲོང་ཁྱེར་དུ་	-3999
བྱ་བར་རྟོག་ཞིབ་	-4000
▁22	-4001
ལྔ་ཚན་	-4002
བཅོས་ཀྱི་	-4003
སྭཱ	-4004
ཕྱིས་	-4005
གསུམ	-4006
བྱུང་བ་དང་།	-4007
ཆིང་	-4008
ཤོས་ཀྱི་	-4009
དེ་དག་གི་	-4010
ཝུན་	-4011
རྗེས་ཀྱི་	-4012
ག་གླ	-4013
▁ཉིན་གྱི་སྔ་དྲོ	-4014
དམ།	-4015
སྤྱོད་ཀྱི་	-4016
མ་འཇོག་	-4017
▁བདེ་ཆེན་	-4018
ཞུགས་མོལ་	-4019
དང་ཞིང་ཆེན་	-4020
▁རིམ་པ་	-4021
རྒྱལ་ཚོགས་	-4022
ཅུས་ཀྱིས་	-4023
འཇབ་རྒོལ་	-4024
▁23	-4025
སྲིད་པ་	-4026
ཅུང་ཟད་	-4027
རྐྱེན་ལམ་དུ་ཤོར།	-4028
▁སྙན་	-4029
ག་གཉིས་	-4030
དེན་	-4031
ང་གླ	-4032
རྟག་དཔྱད་	-4033
▁ཞིག་	-4034
ལོའི་ཟླ་	-4035
འགྲོ་བར་	-4036
▁རེ་	-4037
གཞོན་ནུ་	-4038
ཏང་ཀྲུང་དབྱང་གི་	-4039
མཚོ་སྔོན།	-4040
ཟི་ལིང་དུ་	-4041
དྲ་བ་	-4042
ང་བླ	-4043
སྡེ་ཁག་གིས་	-4044
ཡོད།།	-4045
ཀྲིན་ཧྲིན་གྱིས་	-4046
ལྕི	-4047
རྒྱ་མཚོའི་	-4048
ཀོལ་སྤྱོད་	-4049
གཙུག་	-4050
ལྷོའི་	-4051
པའམ།	-4052
རུལ་	-4053
▁གཞིས་རྩེ་	-4054
༨༩༡	-4055
ཨུའི་	-4056
མར་བ	-4057
ཆད་པ་	-4058
མདུན་དུ་	-4059
སྐར་མ་	-4060
འདོད་པའི་	-4061
མཆོག་གི་	-4062
དྲུག་པ་	-4063
བཟང་བོ་	-4064
ཐུག་འཕྲད་	-4065
▁དབང་	-4066
▁༠༨༩༡	-4067
རྐུ	-4068
ཇེ་མཐོར་	-4069
ལྷ་མོ་	-4070
ཀུང་སི་	-4071
ཚར་	-4072
སླ་	-4073
ཚོགས་ཆུ	-4074
དང་ཟུང་འབྲེལ་	-4075
དོ་སྣང་	-4076
▁ད་ལྟ་	-4077
▁ནམ་	-4078
ངར་	-4079
ཐོབ་ཐང་	-4080
འཁྲབ་སྟོན་	-4081
པར་དབང་	-4082
ཚུད་	-4083
▁>>	-4084
དང་དེ་བཞིན་	-4085
ཟེར་བ་	-4086
ལས་མི་	-4087
དབྱིབས་	-4088
འཇིགས་སྐུལ་	-4089
ས་བོན་	-4090
▁དཔལ་	-4091
ཞོ་	-4092
སློབ་གསོ	-4093
ཡེ་ཤེས་ཀྱི་	-4094
སྒྲུང་	-4095
▁ནུབ་	-4096
ཚན་པ་	-4097
ནི་མི་	-4098
▁ཉིང་	-4099
དང་པོས་	-4100
ན༷	-4101
བ་ཀྱི་	-4102
འཚོལ་ཞིབ་	-4103
བརྟན་ལྷིང་	-4104
འགོད།	-4105
▁ཀླུ་མོ་མཚོ།	-4106
ངས་ཏེ་	-4107
ཁོང་དུ་ཆུ	-4108
▁ལྷག་པར་	-4109
སྦྱོར།	-4110
▁མི	-4111
▁28	-4112
▁བའི་ཚེས	-4113
རྟག་པ་	-4114
ཧྲིལ་པོའི་	-4115
སྭཱ་	-4116
ཚོགས	-4117
དམངས་ཀྱི་	-4118
ལ་སོགས་པས་	-4119
ལུག་	-4120
ཡིན་ན་	-4121
ཕྱོགས་ནས་	-4122
▁གངས་	-4123
▁དྲི་	-4124
▁31	-4125
ང་གཉི	-4126
བརྗིད་	-4127
བར་གསུམ་དུ་	-4128
ལྷོ་ཁ་	-4129
པར་བྱེད་པ་	-4130
ཆོས་ཉིད་	-4131
ཁྲིམས།	-4132
ད་ལྟའི་	-4133
རྩོན་འགྲུ	-4134
སྙོམས་པར་	-4135
ཉིད།	-4136
སྟུད་མར་	-4137
▁50	-4138
ཡིན་ཞེས་བ	-4139
བཞི་དང་	-4140
སྐལ་བ	-4141
འདི་ལྟར་	-4142
སྐྱོ་	-4143
▁ཐོན་ལས་	-4144
ཨུད་ཀྱི་	-4145
ཀཱ	-4146
ངས་པ།	-4147
▁འདོད་	-4148
ས་པ་དང།	-4149
གནམ་གཤིས་	-4150
བཅར་འདྲི་	-4151
▁སྒོ་	-4152
འགྱུར་ལྡོག་	-4153
▁ཐམས་ཅད་	-4154
དྲན་པ་	-4155
ནཱ་	-4156
▁དཔེར་ན་	-4157
ཡིག་ཚགས་	-4158
ཁོག་	-4159
ཨུ་ལྷན་	-4160
དབེ	-4161
ཨཱ	-4162
ཀུན་སྤྱོད་	-4163
སྟུན་ནས་	-4164
སྒང་	-4165
དཀྱིལ་	-4166
གློག་བརྙན་	-4167
ཉི་ཟླ་	-4168
དབུགས་	-4169
འགན་ཁུ	-4170
ཤམས་	-4171
སྐོར་ཞིབ་	-4172
ཧཱུྃ་	-4173
▁བདེ་འཇགས་	-4174
པའང་	-4175
རྩ་ཁྲིམས་	-4176
ཇུས་གཞི་	-4177
གཞིར་བཟུ	-4178
ཨེ་ཤ་	-4179
▁བརྗོད་	-4180
སླད་	-4181
འཐུ	-4182
ཡང་བསྐྱར་	-4183
ཏང་གིས་	-4184
ཚད	-4185
ལིང་	-4186
དམ་པོར་	-4187
མི་ཐེངས་	-4188
ར་ན།	-4189
ཞོན་	-4190
རྫོང་དང་	-4191
▁ཨ་མེ་རི་ཁའི་	-4192
ཧྲུའུ་ཅི།	-4193
འགལ་བ་	-4194
རྒྱུན་གྱི་	-4195
མི་ཆད་པར་	-4196
བཅོས་སྒྲིག་	-4197
ནང་ནས་	-4198
ཨ་མེ་རི་	-4199
ལ་བདག་	-4200
▁ཧྥ་རན་	-4201
སོགས་ཀྱིས་	-4202
སྦྱིན་པ་	-4203
བཅས་བ	-4204
བྱིན་གྱིས་བ	-4205
▁བསྟན་	-4206
གྲོས་འཆམ་	-4207
ལན་གྱི་	-4208
བཙུན་	-4209
▁ཆོས་ཀྱི་	-4210
རྫས་ཀྱི་	-4211
▁བྱེད་	-4212
འོག	-4213
དུས་སྐབས་	-4214
▁དངོས་པོ་	-4215
མ་བྱས་	-4216
ས་ཁུལ་གྱིས་	-4217
གཡ	-4218
དབར་	-4219
ཁྱིམ་བ	-4220
སྐུལ་འདེད་བཏང་	-4221
ཕམ་	-4222
ཁྲིད་ཀྱི་	-4223
འབོད་སྐུལ་བ	-4224
ཆབས་ཅིག་	-4225
ཅོ་	-4226
བཟོས་	-4227
ཀའ་སྩལ་པ།	-4228
ལས	-4229
གསུངས་ཏེ།	-4230
མ་ཐ	-4231
ལས་བྱེད་པས་	-4232
ལྟ་བུར་	-4233
མང་པོའི་	-4234
གང་ཡང་	-4235
ཅིའི་ཕྱིར་ཞེ་ན།	-4236
ལོས་	-4237
མ༷	-4238
དུ་མ་	-4239
བ་པའི་	-4240
▁ཤ་	-4241
ཅིག་བ	-4242
ལྷོ་བོད་རིགས་	-4243
ཙམ་གྱིས་	-4244
འ།	-4245
▁སུ་	-4246
སྡེ་བ་	-4247
ལྷ་སའི་	-4248
གཉིས་དང་	-4249
ང་གསར་འགྱུར་	-4250
▁40	-4251
▁གནོད་	-4252
▁འཐབ་	-4253
རང་འགུལ་	-4254
མི་འབོར་	-4255
ཡིད་ཀྱི་	-4256
ང་གཏོ	-4257
ཇེ་ཆེར་	-4258
གྲུབ་ཆ་	-4259
ཀྲུང་དབྱང་གིས་	-4260
▁ཁོས་	-4261
ཇི་ལྟ་བ་	-4262
སྤེལ་བར་	-4263
ཐམས་ཅད་ལ་	-4264
མཛད་པ་	-4265
སྤུ་	-4266
བཏང་ནས།	-4267
དམ་ཚིག་	-4268
སྨྲ་བ་	-4269
འགྱུར་ལྡོ	-4270
ནགས་ཚལ་	-4271
ལིའི་	-4272
▁ཤ	-4273
རྟན་པོ་	-4274
ཁྱབ་གདལ་	-4275
ཚོགས་ཆེན་ཐེངས་	-4276
གཅིག་སྡུད་	-4277
བརྒྱུད་རིམ་	-4278
ཁྱབ་སྒྲོག་	-4279
ལྕི་	-4280
ཏུན་	-4281
འཁུར་	-4282
གླང་	-4283
▁འཚོ་	-4284
དབྱེ་ཞིབ་	-4285
སློབ་གླི	-4286
འགྲེམ་སྟོན་	-4287
དཀར་པོ་	-4288
འཛུགས་སྐྲུན་དང་	-4289
ས།།	-4290
ལ་འགྲོ་	-4291
ཁྲའོ་ཞ	-4292
དཔྱད་ཞིབ་	-4293
མ་ཟེ	-4294
གནོད་པ་	-4295
དབུ་བརྙེ	-4296
ཁོ་རེ་	-4297
སིལ་	-4298
ལག་ཁྱེར་	-4299
ལས་ཀར་	-4300
ཡར་སྐུལ་	-4301
རྒྱུན་ཨུ་	-4302
ཞུས་པ་	-4303
སྔགས་ཀྱི་	-4304
ཁྲུ་	-4305
འཚམས་	-4306
ར་ནས་	-4307
འབྲུ་རིགས་	-4308
གས་ནས་	-4309
མཐུན་པ་	-4310
གསུམ་དང་	-4311
མགྲིན་	-4312
སློབ་གསོ་ལག་ལེན་	-4313
བྱ་རྒྱུ་དེ་	-4314
བྱ་ཡུལ་	-4315
ཁོང་གིས་	-4316
མེད་པ་དང།	-4317
ཀུན་དུ་	-4318
ཏང་ཨུད་	-4319
ཚྭ	-4320
ཕྱུགས་ལས་	-4321
གཟབ་རྒྱས་	-4322
ཉུང་མཐར་	-4323
ས་མཐོའི་	-4324
དམངས་གཙོ་	-4325
མཁའི་	-4326
ང་གུ	-4327
▁གོ་	-4328
▁ཆོས་ལུགས་	-4329
ཁུལ་གྱིས་	-4330
གཏན་ཚིགས་	-4331
རྩོམ་པ་	-4332
འགུལ་སྐྱོད་	-4333
དངུལ་བུན་	-4334
ཚེས་བ	-4335
སྔོན་ལ་	-4336
སྐད་ཆ་	-4337
ཁྲིམས་ལུགས་	-4338
བྱང་ཆུབ་ཀྱི་	-4339
▁ཐ་	-4340
དུས་ཚིགས་	-4341
གྲི་	-4342
དེའི་ཚེ་	-4343
གསུངས་པ།	-4344
སྣ་མང་	-4345
འགྲོ་བཞིན་	-4346
ཁྲིམས་ལྟར་	-4347
▁སྤྱི་ལོ	-4348
ཟས་རིགས་	-4349
དང་འདྲ་	-4350
རཱ	-4351
ཆེ་མོ་	-4352
ལ་བུ	-4353
▁60	-4354
བྱུང་གི་	-4355
བཛྲ་	-4356
འགས་	-4357
སི་ཁྲོན་	-4358
ད་ལྟ་	-4359
རྫས་བ	-4360
སྤྱིར་བ	-4361
དགའ་བ་	-4362
རྩལ་འགྲན་ཚོགས་	-4363
དབྱེ་བ་	-4364
▁སྤྱི་ཟླ	-4365
▁ཤིང་	-4366
རྒྱུ་མཚན་	-4367
མིར་	-4368
བྲལ་	-4369
འབྱུང་བའི་	-4370
བྱ་རྒྱུ།	-4371
▁ཡེ་ཤེས་	-4372
བཞི་བའི་	-4373
བཟང་བོ	-4374
རྒྱུ་ནོར་	-4375
▁གྲོང་ཁྱེར་དང་	-4376
མཛད་དེ་	-4377
ན་མེད་པ་	-4378
ག་གཅིག་	-4379
སྨྱན་སྦྱོར་	-4380
ཐུགས་ཁུར་	-4381
གོའི་	-4382
པི་	-4383
ལམ་བུ་	-4384
▁ཆོས་ལུགས།	-4385
དྲུང་ཡིག་	-4386
ཚིག་གི་	-4387
བསྒྲུབས་	-4388
པར	-4389
སློབ་དཔོན་	-4390
ལས་དོན་སྤེལ་	-4391
བྱེད་དགོས་ཞེས་	-4392
ལམ་སྲོལ་	-4393
གྱོན་	-4394
▁དམག་	-4395
བས་པ་	-4396
ཞུ།	-4397
▁སེམས་ཀྱི་	-4398
གང་གི་	-4399
མཆོད་པ་	-4400
ཉམས་མྱོང་	-4401
གྱུར་ཡོད།	-4402
ཕུག་	-4403
བར་འགྱུར་	-4404
ཡོངས་ཀྱིས་	-4405
སམ་བློ་	-4406
མ་ལ	-4407
ཁེ་དབང་	-4408
གོམ་སྟབས་	-4409
.0	-4410
ཀྲུའུ་རིན་	-4411
རི་མོ་	-4412
རྒྱལ་ཁབ་ཀྱིས་	-4413
ཡིན་ལ་	-4414
པར་མི་	-4415
ཞོར་	-4416
དགོས་ཟེར།	-4417
▁དེང་	-4418
བྱེད་པ་ནི་	-4419
▁27	-4420
དུས་ཐོག་ཏུ་	-4421
རིག་དངོས་	-4422
ཇབ་རྒོལ་	-4423
གཞིས་རྩེ་	-4424
རབ་དང་རིམ་པ་	-4425
ཡོང་སྒོ་	-4426
བཅིངས་འགྲོལ་	-4427
ཆམ་	-4428
ཀང་	-4429
རྣམས།	-4430
སྐོར་བ	-4431
ལས་བྱུང་བ་	-4432
དང་ལྡན་པའི་	-4433
▁ལོ་རྒྱུས་	-4434
▁70	-4435
ཐཱ་	-4436
ཕྱིན་པའི་	-4437
ཇེ་མང་དུ་	-4438
པ༷	-4439
འཕགས་པ་	-4440
ཁྲེན་	-4441
ཕྱི་ནང་གི་	-4442
▁དེ་མིན་	-4443
ཆོག	-4444
▁ནད་	-4445
▁ལོ་ལྔ་ཚན་	-4446
གཞས་	-4447
རིགས་སོ་སོའི་	-4448
མ་པོ་	-4449
ཚུལ་བསྟན།	-4450
ཀྱེ	-4451
བོད་དུ་	-4452
མཚན་མ་	-4453
བཀྲ་ཤིས་	-4454
ཧོང་	-4455
རུ་ཁག་གིས་	-4456
ལས་གཏོད་	-4457
མཛད་སྒོར་	-4458
▁ཁྱེད་	-4459
ལ་བརྩི་	-4460
▁ཕྱོགས་ཡོངས་ནས་	-4461
ཏང་ཨུད་དང་	-4462
བཟོ་སྐྲུན་	-4463
ལ་བ་དང་།	-4464
ན་འདུ	-4465
▁རྩོམ་པ་པོ།	-4466
འཛུགས་སྐྲུན་ལ་	-4467
ཧྲན་གྱིས་	-4468
ཞིས་ཅིན་ཕིང་གིས་	-4469
སྲིད་གཞུང་དང་	-4470
བསྐྱ	-4471
ཕུགས་འདུན་	-4472
རྦ་	-4473
ཀྲའོ་	-4474
རིང་ལ་	-4475
འཁྱ	-4476
རུ་ཁག་གི་	-4477
སྲུང་སྐྱོང་གི་	-4478
ན་གཞོན་	-4479
བར།	-4480
སྲིད་གཞུང་དྲ་བ།	-4481
འདུན།	-4482
ཐུབ་པ།	-4483
འབྲས་བུ	-4484
འཕྲིན་འ	-4485
འཕེན་	-4486
ཆེན་གྱི་	-4487
▁མང	-4488
ཁྲིན་	-4489
▁ད་ཆ་	-4490
གསར་པར་	-4491
ཧྲིན་ཀྲང་	-4492
ཟོད་	-4493
བཏང་སྟེ།	-4494
ཀོ་	-4495
རྒྱལ་ཁའི་	-4496
དེབ།	-4497
རྣམ་པར་དག་པ་	-4498
ནམ།	-4499
སཱ་	-4500
དགེ་སློ	-4501
བློན་ཆེན་	-4502
ཡུ་	-4503
ཁཱ	-4504
ཐུབ་པར་	-4505
འཐབ་ཕྱོགས་	-4506
རྩྭ་ཐང་	-4507
དང་གྲོས་མོལ་	-4508
ང་བཞི་	-4509
▁དེ་ལྟ་	-4510
གལ་ཏེ་	-4511
ལྷག་བསམ་	-4512
གུང་ཁྲན་ཏང་གི་	-4513
ཡུལ་སྐོར་བ་	-4514
ཚོགས་མིའི་	-4515
རྩ་འཛུགས་ཀྱིས་	-4516
སྨོན་ལམ་	-4517
མགོ་བརྩམས་	-4518
དང་འབྲེལ་བ་	-4519
རྫི	-4520
རློ	-4521
དགེ་འདུ	-4522
ན་བུ་	-4523
▁སྣོད་བཅུད་	-4524
གཡེ	-4525
▁སློབ་གསོ་	-4526
གཅིག་པ་	-4527
▁ཅེས་བ	-4528
ཁྲུང་	-4529
▁བཙུ	-4530
ཉེ་བའི་	-4531
ཁག་གཅིག་	-4532
གས་སུ་	-4533
▁ལོའི་ལོ་	-4534
རྒྱ་ཆེར་	-4535
▁ཤེས་རབ་ཀྱི་	-4536
▁ཁྱིམ་	-4537
ཀུང་སིའི་	-4538
སྣང་ཚུལ་	-4539
སྒྱུར་བཀོད་	-4540
མངོན་གསལ་དོད་པོ་	-4541
བྱེད་རྒྱུའི་	-4542
▁ངེས་པར་	-4543
▁ཡོད་	-4544
▁གས	-4545
སྐུ་ཕྲེ	-4546
ཏྲ	-4547
འབྱུང་བ	-4548
ཏོ་	-4549
མདངས་	-4550
མས	-4551
ལྟུང་བ་	-4552
གསུངས་པའི་	-4553
▁༄	-4554
ཡུང་	-4555
གར་གྱི་	-4556
ནས་མི་	-4557
ལྷ་ས་	-4558
དྭངས་	-4559
སྤྱི་ལོ	-4560
ཟན་	-4561
ཉན་ཐོས་	-4562
གོར་	-4563
ཁྲུའུ་	-4564
སྐད་ཅིག་	-4565
མཚེ	-4566
བསོད་ནམས་	-4567
ཐུགས་རྗེ་	-4568
འཕགས་	-4569
ས་བབ་	-4570
བསྒྲི	-4571
གཞིར་བཟུང་	-4572
པར་བྱེད་	-4573
འཛིན།	-4574
རང་བཞིན་དང་	-4575
བཞིན་ནོ།	-4576
ཆིངས་	-4577
ཨུ་རུ་སིའི་	-4578
▁པདྨ	-4579
གྲོགས་པོ་	-4580
སེང་	-4581
དོད་པ་	-4582
དགུའི་	-4583
བོར་བ	-4584
ལ་བདེ་	-4585
ཨ་རིའི་	-4586
བྱུང་བ་ལྟར་ན།	-4587
ཁྱིམ་ཚང་གི་	-4588
གཏོང་རྒྱུར་	-4589
▁མཚོ་སྔོན་གྱི་	-4590
སྒུག་	-4591
▁ཐ	-4592
ཅཱ	-4593
ང་གང་	-4594
དབར་གྱི་	-4595
ཀྲུང་གོར་	-4596
མང་བ་	-4597
ལག་ལེན་མཐར་ཕྱིན་	-4598
▁29	-4599
ལྗང་མདོག་	-4600
མེ་ལོང་།	-4601
སི་རི་ཡཱའི་	-4602
གྲབས་	-4603
རང་བཞིན་གྱིས་	-4604
མཆོག་ཏུ་	-4605
ཁས་བླ	-4606
བཅོ་ལྔ་	-4607
ལ་འགན་	-4608
མཐའ་བར་གསུམ་དུ་	-4609
▁༄༅	-4610
པ་རེད།	-4611
ཇུས་འགོད་	-4612
ཁྲང་	-4613
སྒྲོལ་གྱི་	-4614
གཏོད་ཀྱི་	-4615
རྒྱལ་པོའི་	-4616
བསམ་འཆར་	-4617
དང་མཐུན་	-4618
ལམ་ལུགས་ཀྱི་	-4619
ཟམ།	-4620
བསམ་པའི་	-4621
ང་བཅུ་	-4622
འདེབས་འཛུགས་	-4623
ཌ་	-4624
བསྐོ་	-4625
ཚྭ་	-4626
▁སྨན་བཅོས་	-4627
གོ་བ་	-4628
དབུས་སུ་	-4629
དབྱངས།	-4630
ཆོག་པའི་	-4631
འཛད་སྤྱོད་	-4632
ཡུམ་	-4633
མ་ཡིན་ནོ་	-4634
རང་རྒྱལ་	-4635
མེད་པ།	-4636
ས་འགུལ་	-4637
ག་བརྙ	-4638
▁གསེར་	-4639
གྱོད་གཞི་	-4640
དན་	-4641
ཏང་ཙུའུ་	-4642
ཡི་གེ	-4643
ན་འགོ་	-4644
ཐེ་ཚོ	-4645
དུས་ཆེན་གྱི་	-4646
▁དངུལ་	-4647
སྐྱོན་ཅན་	-4648
གཉིས	-4649
རྩོམ་སྒྲིག་	-4650
ཟམ་མི་ཆད་པར་	-4651
ཁེའི་	-4652
དྲུག་གི་	-4653
འདོན་སྤྲོད་	-4654
ཉམས་སུ་	-4655
གནང་བ་དང་།	-4656
▁ལག་	-4657
ལས་འཛིན་ལྷན་	-4658
▁སྲིད་ཁྲིམས།	-4659
མཐོ་ཚད་	-4660
སྡོང་	-4661
སྒུལ་ཤུགས་	-4662
▁སློབ་གསོ།	-4663
ལེགས་ཆ་	-4664
ས་པས་	-4665
བཏང་བ།	-4666
ཞིང་སྡེའི་	-4667
▁རྟ་	-4668
ལེན་པ་	-4669
འབབ་འཕར་	-4670
གང་རུ	-4671
བ་གསོ།	-4672
འཛིན་བ	-4673
རིགསླ	-4674
རིགསློ	-4675
རྟོན་	-4676
▁བོད་ལྗོངས།	-4677
རིགསློབ་གསོ།	-4678
བརྟན་འགྱུར་	-4679
▁ཁོང་	-4680
གད་	-4681
འཇར་མ	-4682
ཐུན་མོང་ཐོག་	-4683
ད་པ་རེད།	-4684
གྲོས་མཐུན་	-4685
དམྱི	-4686
འབྲུག་	-4687
གྲགས་པ་	-4688
▁རྒྱུན་ཤེས།	-4689
▁རྒྱལ་ནང་	-4690
ཤད་པའི་	-4691
ཧྲིན་དང་	-4692
དམར་པོ་	-4693
ལྷ་སར་	-4694
རྟོག་པའི་	-4695
ཡིན་པའི་ཕྱིར་	-4696
ཁྲིམས་འགལ་	-4697
▁ཡིག་སྒྱུར།	-4698
སྟེགས་བུ་	-4699
གྲོས་ཚོགས་ཀྱི་	-4700
▁གསོ་རིག	-4701
རིན་གོང་	-4702
མཉམ་ལས་ཀྱི་	-4703
▁བརྒྱུད་འགོད།	-4704
གོ་གནས་	-4705
དོ་ཁུར་	-4706
སེམས་འདུན།	-4707
སློབ་གསོར་	-4708
ར་བགྲོད་	-4709
ཡངས་	-4710
ཚད་མཐོའི་	-4711
ནྡ	-4712
ཡིག་ཟམ།	-4713
▁བུད་མེད་	-4714
ཏོན་པའི་	-4715
མདོར་བསྡུས།	-4716
▁འབྲེལ་གཏུགས་	-4717
ཞལ་འདེབས་	-4718
མཐུན་བ	-4719
གྲོས་ཚོགས་བསྡུས།	-4720
བདེའི་	-4721
སྨན་རྫས་	-4722
མི་དམངས་ལ་	-4723
གྲིམ་	-4724
རིམ་གྱིས་	-4725
དག་ཐེར་	-4726
▁ཁེ་ལས་	-4727
དགོས་པར་	-4728
ཅཱ་	-4729
འགན་སྲུ	-4730
བྱས་པ་བརྒྱུད་	-4731
ལས་དོན་ཡག་པོ་	-4732
གཡོན་	-4733
གྲུ་བཞི་	-4734
གསར་དུ་བ	-4735
▁ཞིང་འབྲོག་	-4736
▁མིག་སྔའི་	-4737
གཤམ་	-4738
ཕོག་པའི་	-4739
གཡས་	-4740
འདོད་ཆགས་	-4741
རིགས་པའི་	-4742
སྐྱེ་བོ་	-4743
ཚུལ་གྱིས་	-4744
ཁྲོད་ནས་	-4745
ཟོན་	-4746
ཅང་གིས་	-4747
ཞིང་ཆེན་དང་	-4748
▁འཛུགས་སྐྲུན་	-4749
རྣམས་ཀྱང་	-4750
▁ཕྱིར་	-4751
དུས་ཡུན་	-4752
▁བསོད་ནམས་	-4753
གཅིག་གིས་	-4754
▁དབུ་	-4755
ང་།།	-4756
དགུང་	-4757
འཕེལ་རྒྱས་བ	-4758
སྦྲུ	-4759
ཁྱད་པར་དུ་	-4760
ར་འདོན་	-4761
རྒྱུ་དེ་	-4762
བསམ་འཆ	-4763
ཁོའི་	-4764
འདུས་ཏེ་	-4765
མིན་གྱི་	-4766
ང་གསལ་བ	-4767
▁མཐོ	-4768
མེས་རྒྱལ་	-4769
གཞན་དག་	-4770
ཁཱ་	-4771
▁གྲོང་	-4772
ཟླ་བའི་	-4773
ཁྱི་	-4774
ནའ	-4775
▁ཤིན་ཏུ་	-4776
ཆོས་ཐམས་ཅད་	-4777
དག།	-4778
ཡུལ།	-4779
བ་བ	-4780
རྒུད་	-4781
བྱས་པ་མ་ཟད།	-4782
ཉིན་རེའི་ཚགས་པར་	-4783
བཅས་བྱས་ཏེ་	-4784
ཀྱིན་	-4785
འབྱུ	-4786
ར་འག	-4787
སྒོམས་	-4788
འཁྲུག་རྩོད་	-4789
དངོས་ཀྱི་	-4790
སུའི་	-4791
▁རྒྱལ་པོ་	-4792
▁ལྷ་སའི་	-4793
སྤྱི་ལོ་	-4794
ཝང་ཅན་ཅུན་	-4795
ཆད་ཀྱི་	-4796
སྤེལ་ཏེ།	-4797
ཁྱོད་ཀྱི་	-4798
ལ་སྲུང་སྐྱོབ་	-4799
ཁྲབ་སྟོན་	-4800
སྲོག་ཤི	-4801
▁ལྷ	-4802
སྒྲིག་ལམ་	-4803
ཡོན་གྱི་	-4804
རྔ་བ་	-4805
དང་མཉམ་	-4806
▁སྤྱི་ལོ་	-4807
▁རིགས་ཀྱི་	-4808
མངའ་རིས་	-4809
ཁག	-4810
ཐོན་པ་	-4811
▁ལེ་	-4812
དམག་འཐབ་	-4813
ཀྲུང་ཨུ་	-4814
ཀྲ་ཤི	-4815
དུས་མཚམས་	-4816
གང་ཡིན་	-4817
རིག་རྩལ་	-4818
དམ་ཟབ་	-4819
བྱས་པས།	-4820
▁ཞི་ཅིན་ཕི	-4821
གཙོ་སྐྱོ	-4822
ཐེབས་རྩ་	-4823
▁རྐང་	-4824
གསར་དུ་	-4825
▁ཀྱིས་	-4826
ངོ་མཚར་	-4827
མནའ་འབྲེལ་གྱི་	-4828
སམས་	-4829
ནང་ཁུལ་གྱི་	-4830
བཅས་རེད།	-4831
བདེན་	-4832
ག་ནས་	-4833
ཤད་པ་རེད།	-4834
གཏན་འཇགས་	-4835
མ་ནི་	-4836
དམངས་ཁྲོད་	-4837
སྔ་རྗེས་སུ་	-4838
ཧཱ།	-4839
▁ཤེས་རབ་	-4840
གཡང་	-4841
སླུ	-4842
ཕྱག་འཚལ་ལོ།	-4843
མི་སྣ།	-4844
དེ་ཁོ་ན་	-4845
གང་ཞེ་ན།	-4846
མ་གཏོགས་	-4847
ཅག་	-4848
གདེང་	-4849
▁༣	-4850
རྩལ་ནུས་	-4851
ཁྱབ་པ་	-4852
ཤོད་	-4853
ཚོགས་འདུ་འཚོགས་	-4854
ས་ཡོམ་	-4855
ལེན་པའི་	-4856
ཙོང་	-4857
ཏབ་	-4858
སྤྱི་ཟླ	-4859
ཆིན་	-4860
རུལ་སུ	-4861
ཕུང་	-4862
གཉེར་སྐྱོང་	-4863
ཝང་གོ་ཧྲིན་དང་	-4864
ཞུགས་པར་	-4865
ཚད་ལེན་	-4866
གྲོས་ཆོད་	-4867
▁རྒྱ་ཆེའི་	-4868
སྡོམ་པ་	-4869
10	-4870
སོང་བ་	-4871
▁འོད་	-4872
▁བྱ་བ་	-4873
སོར་	-4874
འཚོའི་	-4875
ང་བར་བ	-4876
ཁུལ	-4877
▁ང་ཚོའི་	-4878
ཕྱོགས་དང་	-4879
གཡུ་	-4880
▁ཐབས་	-4881
ན་བདག་	-4882
བཅོམ་ལྡན་འད	-4883
ངལ་གསོ་	-4884
རབ་འ	-4885
སྤེལ་འགོ་	-4886
དུང་ཕྱུར་	-4887
བསམ་བློའི་	-4888
ཨུད་	-4889
འགྱུར་བའི་	-4890
ཐུབ་པ་དང་།	-4891
ཙ་	-4892
▁གལ་ཆེའི་	-4893
སྐྱོད་དེ་	-4894
▁སི་རི་	-4895
དགོན་པའི་	-4896
ཐམས་ཅད་དུ་	-4897
ཐག་གཅོ	-4898
པའི།	-4899
▁རང་བྱུང་	-4900
ཚགས་པར་	-4901
ཁོང་གི་	-4902
སློབ་ཆེན་གྱི་	-4903
རྒྱུ་རྐྱེན་	-4904
གནད་སྨིན་	-4905
འགོ་བརྩམས་	-4906
འདུས་ཏེ་རེ	-4907
ཕན་ཚུ	-4908
▁བོད་ཁུལ།	-4909
སེང་གེ་	-4910
ཉིང་རྡུལ་	-4911
རྫོང་།	-4912
ཤེས་དཔལ་	-4913
གསོལ་བ་	-4914
བྱེད་ཚུལ།	-4915
ཕྱོགས་ལ་	-4916
གང་གིས་	-4917
དཔལ་འབྱོར་གྱི་	-4918
སྐྲ་	-4919
དམངས་ཕན་	-4920
ཞི་བའི་	-4921
སློབ་འབྲི	-4922
མེ་འཁོར་	-4923
▁མཆོ	-4924
ན་དེ་	-4925
འབྲེལ་བ	-4926
དགོན་པ་	-4927
གྲགས་ཅན་	-4928
ལོན་པའི་	-4929
བརྙན་འཕྲིན་	-4930
དཔྱིད་གསར་	-4931
གསོད་	-4932
སྤངས་	-4933
མ་དང།	-4934
བྱེད་བཞིན་པའི་	-4935
ལ་ལ་	-4936
ཞེས་བྱ་བ་ནི།	-4937
པོར་འ	-4938
ཤིག།	-4939
དགེ་མཚན་	-4940
དཔེ་དེབ་	-4941
30	-4942
▁རྡོ་	-4943
ཅུའི་	-4944
འཚོ་བར་	-4945
དགོན་སྡེ་	-4946
▁མཁའ་མཚོ་	-4947
ཀྲེ་	-4948
བཙུགས་ནས་ལོ་	-4949
ལེན་གྱི་	-4950
དེ་དག་ནི་	-4951
ཧོར་	-4952
དྲོ་	-4953
ཁག་ལ་	-4954
▁ལག་བསྟར་	-4955
ཚན་གྱི་	-4956
གནང་ཡོད།	-4957
ཤར་ཕྱོགས་	-4958
ཐིན་	-4959
ཐ་དད་པ་	-4960
གཅིག་བསྡུས་	-4961
▁ལྗོངས་ཡོངས་ཀྱི་	-4962
མ་ཡིན་པར་	-4963
▁ཉིན་གྱི་ཕྱི་དྲོ	-4964
དབང་གསལ་བ	-4965
གས་པར་	-4966
གསེར་གྱི་	-4967
འབྲས་བ	-4968
འཇིགས་པ་	-4969
ཏང་བ་	-4970
གཞོགས་	-4971
ཚེ་རིང་	-4972
ལང་	-4973
གནང་བར་	-4974
བདེན་པ་	-4975
▁མཚོ་སྔོན་གྱིས་	-4976
▁ས་ཁུལ་	-4977
ཁྲིད་དེ་	-4978
གཉིས་ཀ་	-4979
ཡ།	-4980
བཅས་བྱས་ནས་	-4981
སྐུལ་སློང་	-4982
འོ།།	-4983
ཞིག་ག	-4984
སྤང་	-4985
སྡོད་པའི་	-4986
▁རང་རྒྱལ་གྱི་	-4987
དབང་གསལ་བསྒྲགས།	-4988
དགྲ་བཅོམ་	-4989
▁སངས་རྒྱས་ཀྱི་	-4990
▁རྣམ་གྲངས་	-4991
ཕེབས་ནས་	-4992
འཕྲིན་འབྱོར་	-4993
དབྱིན་ཇི	-4994
དབང་།	-4995
ནུས་ཁུངས་	-4996
༣༣	-4997
གཤི	-4998
▁ད་ནི་	-4999
དྲ་རྒྱའི་	-5000
རྙོ	-5001
ང་བརྒྱུད་	-5002
ཀུན་གྱིས་	-5003
མཛད་པ།	-5004
ཞིང་གི་	-5005
▁35	-5006
ཤོར་	-5007
པྲ	-5008
བྱེད་བཞིན་ཡོད།	-5009
ལ་ཞུགས།	-5010
▁ཞབས་	-5011
▁ང	-5012
པཎ་ཆེན་	-5013
གཏོང་རྒྱུ།	-5014
སྲོག་ཤིང་	-5015
ཚད།	-5016
སྭཱ་ཧཱ།	-5017
ཨང་དང་པོ།	-5018
ཤུགས་ཆེ་རུ་	-5019
སྡོམས་པས་	-5020
མགོན་	-5021
རྒྱུ་ཡིན་པ་རེད།	-5022
▁བརྟན་	-5023
འདྲའི་	-5024
ཁྱིམ་དུ་	-5025
སྒང་གི་	-5026
གྲུའི་གསར་འགྱུར།	-5027
ཤིང།	-5028
བསྟན་པའི་	-5029
བཤེ	-5030
ང་གསར་	-5031
སྤྱོད།	-5032
བརྒལ་	-5033
རྨི་ལམ་	-5034
མངའ་ཁོངས་	-5035
རྫུ་	-5036
སྤྱིར་	-5037
འཇམ་དཔལ་	-5038
དོན་ལ་	-5039
དུས་རིམ་	-5040
གསུམ་ལ་	-5041
▁མཁའ་མཚོ་སྐྱིད།	-5042
བཟླ	-5043
མངོན་དུ་	-5044
▁མཚོ་སྔོན།	-5045
གྲོས་འགོ་	-5046
▁ཉེ་བའི་ལོ་ཤས་	-5047
སྨོས་ཏེ།	-5048
སྤྲིན་	-5049
▁ཡུལ་སྐོར།	-5050
ལྔ་བའི་	-5051
༠༠༠	-5052
བཤད་པ་	-5053
གསལ་བ་	-5054
བསམ་པ་	-5055
བྲག་	-5056
འབུ་	-5057
འབྲི་ཆུའི་	-5058
བཞེ	-5059
▁ཀན་སུའུ་	-5060
གསལ་བར་	-5061
ཆུ་བེད་	-5062
▁དར་	-5063
རྟོགས་པའི་	-5064
འགྲན་སྡུར་	-5065
ལྟ་བར་	-5066
ཧུར་བ	-5067
ལྟ་བའི་	-5068
སེམས་སུ་	-5069
བསྒོམ་	-5070
མལ་	-5071
མཁས་ཅན་	-5072
ང་བོད་ལྗོངས་	-5073
ཏོག་	-5074
ཤིང་བ	-5075
▁གནམ་གཤིས་	-5076
▁ཁོར་ཡུག་	-5077
▁མངོན་	-5078
ཨང་དང་པོ་	-5079
སྟོན་གྱི་	-5080
ཞི་ཅིན་ཕེན་	-5081
མངག་	-5082
རྒོད་	-5083
གས་པ་རེད།	-5084
ཚོགས་པར་	-5085
དང་བོད་	-5086
དེ་དག་གིས་	-5087
▁ངོ་	-5088
▁ཆབ་མདོ་	-5089
པས་ན་	-5090
▁གླུ་གཞ	-5091
མོད་	-5092
ཁྲའོ་ཞན་	-5093
དམངས་གཙོའི་	-5094
རིག་གཞུ	-5095
མཐུན་གྱི་	-5096
ལག་ལེན་བསྟར་	-5097
བེད་སྤྱོད་	-5098
འདེམ་བ	-5099
ཉལ་	-5100
སྟོན།	-5101
ཏང་ཀྲི་	-5102
ལེགས་སྒྲུབ་	-5103
གནད་དོན་ལ་	-5104
བརྟག་དཔྱད་	-5105
དང་བཅས་པ་	-5106
སྟོན་པའི་	-5107
ཡོན་ཏ	-5108
ཉིས་སྟོང་བཅུ་	-5109
རིན་པོ་ཆེའི་	-5110
སྤེལ་བ་དང་།	-5111
སྒྲེ	-5112
སར་བ	-5113
དོན་གྲུབ་	-5114
ཀྱེ་	-5115
▁དབྱི་སི་	-5116
མི་དམངས་ཀྱིས་	-5117
▁དེ་ལྟར་ན་	-5118
ཟིན་པ་	-5119
དབུལ་ཐར་མཁྲེགས་	-5120
ཕར་	-5121
▁རིང་	-5122
ང་གཏ	-5123
ད༷	-5124
མ་རྐང་	-5125
མདོའི་	-5126
དཀའ་ངལ་ཡོད་པའི་	-5127
དམིགས་པའི་	-5128
རྒྱལ་ས་	-5129
ཉིན་དེར་	-5130
▁གོང་	-5131
གནས་ཚུལ།	-5132
གྲོད་ལམ་	-5133
ཞུར་	-5134
▁ཡོད་པ་	-5135
སྲང་	-5136
དབང་བོ་	-5137
དགུ་པའི་	-5138
མཚན་སྙན་	-5139
ཐང་ཆེན་	-5140
ས་ལ་	-5141
བྱ་བའི་ཕྱིར་	-5142
ལྷུན་	-5143
ས་གནས་དེ་གའི་	-5144
ཙམ་དུ་	-5145
དགོས	-5146
ཁམ་	-5147
ཞྭ	-5148
▁དཔའ་	-5149
▁མཐར་	-5150
ར་འགོ	-5151
ཤང་གི་	-5152
▁མཐུན་	-5153
མཁའ་འགྲུལ་	-5154
རྗེས་བ	-5155
▁ལ་སླེབས་	-5156
ད་པ་ནི་	-5157
ཡབ་	-5158
འགོ་འཛུགས་	-5159
ང་བས།	-5160
▁དེའི་ནང་	-5161
ཐོན་སྐྱེ	-5162
▁ཟླ་བ་	-5163
འཕེལ་རྒྱས་འགྲོ་	-5164
རྒྱལ་ཁའི་ངང་	-5165
རྟག་ཞིབ་	-5166
སྤྱི་ཕན་	-5167
བཅོ་བརྒྱད་	-5168
ཆ་ཚང་	-5169
བདེ་བླག་ངང་	-5170
ཐའོ་	-5171
ལ་འཁོ	-5172
ཉོ་ཚོ	-5173
ཆེན་པོ	-5174
དེ་ནས་	-5175
དགོས་ཞེས་	-5176
བི	-5177
ལ་རྒྱབ་སྐྱོར་	-5178
དའ་	-5179
དགའ་བའི་	-5180
ཐོབ་ཡོད།	-5181
▁གྱིས་	-5182
ཨེར་	-5183
དགེ་བ་	-5184
བརྒྱད་པའི་	-5185
ཚིགས་སུ་	-5186
ཁུང་	-5187
ཀྲན་	-5188
ཡོད་ལ་	-5189
བཅུ་གཉིས་པའི་	-5190
▁དེ་ཡི་	-5191
ང་བཅས་ཀྱི་	-5192
▁བརྡ་	-5193
འཛིང་	-5194
ཡ་དང་	-5195
སློབ་གླིང་གི་	-5196
གནས་ཚུལ་ཡིན་པ།	-5197
རླུང་འཕྲིན་དྲ་བ།	-5198
ས་གནས་ཀྱི་	-5199
ཧའོ་	-5200
གཞན་ལ་	-5201
འདི་སྐད་ཅེས་	-5202
དམ་བཅའ་	-5203
གསལ་པོ་	-5204
སྤུས་ལེགས་	-5205
གསོན་ཤུགས་	-5206
རྒྱས།	-5207
གང་དག་	-5208
དུར་	-5209
ཨེ་ཤེ་	-5210
▁རོལ་དབྱངས།	-5211
སྐྱེ་བའི་	-5212
སྤྲད་	-5213
ཟློས་གར་	-5214
གྲོལ།	-5215
▁བོད་སྐྱོར།	-5216
ཧྲ་	-5217
མཇུག་ཏུ་	-5218
ག་བཞིན་	-5219
ཅིག་གིས་	-5220
བྱས་ལ།	-5221
ཁེབས་	-5222
▁·	-5223
ལ༷	-5224
འགན་འཁུར་བ།	-5225
བཀོལ་སྤྱོད་	-5226
▁ད་ཐེངས་	-5227
མིག་སྔར་	-5228
བྱུང་བ་དང་	-5229
སློབ་ཐོན་	-5230
སྟེན་	-5231
▁ཉེ་ཆར་	-5232
གྱུར་འ	-5233
གནོན་	-5234
མང་པོ་ཞིག་	-5235
▁དཀའ་	-5236
ཀྵ	-5237
བྲོ་	-5238
སྲུང་སྐྱོང་དང་	-5239
བས་ན་	-5240
གོང་འཕེལ་གྱི་	-5241
ཉམས་མྱོ	-5242
བཏང་།	-5243
འཕར་སྣོན་	-5244
གྱུར་བ	-5245
གཞན་གྱིས་	-5246
ལ་བརྟན་	-5247
པར་བྱ་བ་	-5248
བདུད་	-5249
▁འཁོ	-5250
མཆན་བཀོད་	-5251
སྤྲོ་སེམས་	-5252
དྲན་གསོའི་	-5253
ཐན་	-5254
ཚེས་ཉེར་བ	-5255
▁ལྷག་པར་དུ་	-5256
ཨི	-5257
ཐད་ཀར་	-5258
ལས་འདས་པའི་	-5259
▁གིས་	-5260
གཏོར་བ	-5261
མཐུ་	-5262
ན་འདེ	-5263
འགྱུར་བ	-5264
བཟོས་པའི་	-5265
ཁྱོན་ཡོངས་	-5266
ལྕོ	-5267
རིགས་གཅིག་	-5268
ལྕེ་	-5269
རྒྱ་བསྐྱེད་	-5270
ཅི་ཡང་	-5271
▁རྗེས་	-5272
ཡར་ཐོན་	-5273
སྦྲེལ་མཐུད་	-5274
ད་ལོའི་	-5275
རྣམས་དང་	-5276
ཨ་རབ་	-5277
ཐུབ་པ་དང་	-5278
ཇེ་མགྱོགས་སུ་	-5279
མཐོན་	-5280
▁རབ་ཏུ་	-5281
སྦོ	-5282
ཐོན་གྱི་	-5283
སྡེ་ཚན་གྱིས་	-5284
ཧྲུའུ་ཅི་གཞོན་པ་	-5285
ཐོའི་	-5286
གལ་ཆེན་ཞིག་	-5287
འགན་འཁྲིའི་	-5288
གདུང་	-5289
བརྟན་འགྱུར་མེད་	-5290
གཞིགས་ནས་	-5291
མི་སྣར་	-5292
དབང་ཕྱུག་	-5293
རྒན་རྒོ	-5294
བཅས་པའི་	-5295
ཁ་ལོ་	-5296
རུལ་སུངས་	-5297
▁ཡོངས་སུ་	-5298
གཏན་ཁེལ་	-5299
འཇུག་པའི་	-5300
ར་བློ	-5301
ར༷	-5302
▁ཚོགས་ཆེན་	-5303
བཟོ་ལས་	-5304
རྒྱུ་ཆ་	-5305
སྲོལ་རྒྱུན་གྱི་	-5306
▁--	-5307
མཐོང་བའི་	-5308
ཡུན་རིང་བདེ་	-5309
▁སྲིད་ཇུས་	-5310
ཁྲིད་པ་	-5311
▁དབུལ་ཕོངས་	-5312
ང༷	-5313
འཐེན་	-5314
ལ་སོགས་པའོ།	-5315
ག་པ་ནི་	-5316
བཞི་པའི་	-5317
▁མངའ་	-5318
ཤང་གྲོང་	-5319
འཚོལ་	-5320
གྲེམས་	-5321
ཁམས་ཀྱི་	-5322
དབུ་བརྙེས་ནས་	-5323
སྐལ་པ་	-5324
སྐྱེད་པར་	-5325
གཞི།	-5326
ཚན་ཁག་གི་	-5327
མཁོ་སྤྲོད་	-5328
སྐེ	-5329
▁བརྙན་མཐོང་།	-5330
ཁྲོམ་ར་	-5331
▁ཨ་མེ་རི་	-5332
རིག་པ།	-5333
གང་ཞིག་	-5334
ཚེ་རི	-5335
ནང་འདྲེན་	-5336
▁གནའ་	-5337
ཀྲེང་	-5338
གསུངས་རྒྱུར།	-5339
ལྟེ་གནས་ཀྱི་	-5340
དམག་དཔུང་གིས་	-5341
མིན་རིག་གནས་	-5342
ཝན་	-5343
▁ནས	-5344
རིམ།	-5345
བྱེ་བྲག་	-5346
བྱེད་འདོད་	-5347
བླ་མ་	-5348
ཀྱིས་བཀའ་སྩལ་པ།	-5349
▁༼	-5350
སྐལ་བཟང་	-5351
གྲོང་གི་	-5352
▁ནོར་	-5353
འཕྲོག་	-5354
མི་སྲིད་	-5355
ལ་བཞིན་	-5356
འབྲེལ་འདྲིས་	-5357
དུས་བབ་	-5358
རིག་གཞུང་	-5359
སི་ཡིས་	-5360
▁ཀྲུང་	-5361
ཡོད་དོ།	-5362
▁བཅས་ཀྱི་	-5363
མི་འདྲ་བའི་	-5364
དང་མཉམ་ལས་	-5365
བདེ་ཆེན་	-5366
ལན་བ	-5367
ཉིས་བ	-5368
རྒྱ་གར་	-5369
བཟུང་ནས་	-5370
▁རྣལ་འབྱོར་	-5371
གྲོང་ཁྱེར	-5372
གཞུང་ཚབ་	-5373
▁རླུང་འཕྲིན།	-5374
ཏུ།	-5375
དོན་སྙིང་ག	-5376
ང་གཞི་	-5377
ང་བའོ།	-5378
ལྟོས་	-5379
▁ཆེས་	-5380
མ་རྩ་	-5381
ཉོན་མོངས་	-5382
▁འགན་འཁྲི་	-5383
▁མཱ	-5384
ལ་གྱིས་	-5385
རོགས་དངུལ་	-5386
ཚད་མ་	-5387
པ་ལ་	-5388
སྲེག་	-5389
བྱེད་དགོས་པ།	-5390
ཉུང་མཐར་ཡང་མི་	-5391
ཆེ་གྲས་	-5392
བརྗེ་རེས་	-5393
ལྟར་ན་	-5394
དོན་དམ་	-5395
ཕཱ	-5396
བླངས།	-5397
དང་ལས་	-5398
གང་ཡིན་པ་དེ་ནི་	-5399
ལྷོད་མེད་	-5400
སྔར་ལས་ལྷག་པའི་	-5401
ཐེབས་པའི་	-5402
ངོས་ཀྱི་	-5403
གདོན་	-5404
དཀོན་	-5405
སྨན་པ་	-5406
ཐུར་ཁེའི་	-5407
འཐ	-5408
ཁ་དང་	-5409
བཀ	-5410
ཇུས་བཀོད་སྒྲིག་	-5411
མེད་པའི་ཕྱིར་	-5412
འགོ་ཚུགས་པ།	-5413
▁ལུ	-5414
ཎི	-5415
འཕྲིན་འབྱོར་གསལ།	-5416
སྟེང་ནས་	-5417
བྱེད་པ་དང།	-5418
ལ་བ་དང།	-5419
རར་	-5420
གང་དུ་	-5421
▁ཀྲུང་གོས་	-5422
འཇལ་	-5423
ཁེངས་	-5424
ཀེ་	-5425
▁2012	-5426
འཇོམས་	-5427
བྱང་ཚད་	-5428
▁199	-5429
སྣང་ཆེན་བཞི་དང་	-5430
དཀྱིལ་འཁོར་གྱི་	-5431
ཡོད་ན་	-5432
ཞིང་ཆེན་མཚོ་	-5433
ཞྭ་	-5434
འཁྱུ	-5435
སོན་	-5436
▁འདུ	-5437
▁བ་	-5438
སྔར་བ	-5439
ས་བློ	-5440
▁ནགས་	-5441
སྐོའི་	-5442
རྒྱས་པ་	-5443
▁པེ་ཅིང་	-5444
ཡོད་ཚད་	-5445
རྡུང་རྡེ	-5446
གཟི་བརྗིད་	-5447
གློ་	-5448
ཕཱ་	-5449
དགའ་ཞེན་བ	-5450
བརྩོན་ལེན་	-5451
ལྡན་པའི་ངང་	-5452
ནོར་བ	-5453
དོར་	-5454
རང་གིས་	-5455
ཉིད་དོ།	-5456
ཧྲང་ཧའེ་	-5457
▁ཨུ་རུ་སིའི་	-5458
གང་ལ་	-5459
ཕྱི་འབྲེ	-5460
ས་ཁུལ་ནས་	-5461
ང་གནང་བའི་	-5462
མི་འདྲ་བ་	-5463
རྒྱུན་དུ་	-5464
▁མང་ཚོགས་ཀྱི་	-5465
ཡུལ་ཤུལ་	-5466
རྒྱས་པར་	-5467
སོལ་	-5468
▁གསུམ་པ་	-5469
རིང་ལ།	-5470
ཕྱིན་ཡོད།	-5471
ལམ	-5472
གསལ་སྒྲོག་	-5473
སྐྱོད་པ་	-5474
▁འཇར་པ	-5475
སྤྲོད་པའི་	-5476
དཔོན་དམག་	-5477
དབང་བསྐུ	-5478
ས་ཞིང་	-5479
མིའི་རིགས་ཀྱི་	-5480
ཀྲུའུ་ཞི།	-5481
▁འགོ་	-5482
▁དབང་པོ་	-5483
▁འགན་འཁུར་	-5484
ཁྲིམས་སྐྱོང་	-5485
ཚོགས་རྒྱུན་ལས་	-5486
▁ཆ་	-5487
བཞིན།	-5488
རྒྱལ་བའི་	-5489
གུས་	-5490
ལ་བློན་ཆེན་	-5491
དགོངས་དོན་ལ་	-5492
▁ཉིས་	-5493
ཧྭ་གསར་འགྱུར་ཁང་	-5494
སྙེད་	-5495
འདབས་	-5496
དོན་ནི་	-5497
དང་།།	-5498
བཅད་པ་	-5499
རིང་དུ་	-5500
▁གླེ	-5501
སྔོག་	-5502
བསྙེ	-5503
སྒྲོལ་མས་	-5504
▁ཟིན་པ་	-5505
ད་མོ་	-5506
སློབ་མར་	-5507
▁ཚིག་	-5508
ད།།	-5509
▁དེའི་ཚེ་	-5510
ན་མེད་པའི་	-5511
སྤེལ་ནས་	-5512
རང་ལྗོངས་	-5513
▁སུ	-5514
ཁོངས་མི་	-5515
འབྲེལ་བར་	-5516
▁བཏང་	-5517
ཐེམ་	-5518
ཚན།	-5519
ར་བློ་	-5520
▁ལས་ཞུགས་	-5521
རྒྱུ་ནི་	-5522
ཁང་གི་ཨུ་ཡོན་	-5523
རྗོད་པའི་	-5524
ན་བསྡུ	-5525
རྒྱལ་ཁབ་རིམ་པའི་	-5526
▁ཞེས་བྱ་བ་ནི་	-5527
ལེགས་པའི་	-5528
གཏན་ལ་	-5529
ཤུགས་སྣོན་བརྒྱབ་	-5530
▁འཕགས་པ་	-5531
▁ད་ལོ་	-5532
ཁ་དོག་	-5533
མང་པོར་	-5534
ལས་སྟེགས་	-5535
ཡིད་རྟོན་	-5536
ནས་ཤེས་རྟོགས་	-5537
ཁུལ་དང་	-5538
▁རྩོམ་རིག	-5539
འགྲན་རྩོད་	-5540
མཁས་པའི་	-5541
▁ལོ་ཙཱ་	-5542
འགོག་བཅོས་	-5543
▁གནད་དོན་	-5544
▁ཟ	-5545
འབོད་སྐུལ་བཏང་།	-5546
གྱ་	-5547
ཕྲེང་བ་	-5548
བརྒྱ་ཆའི་	-5549
དྭ་	-5550
▁ཨོ་	-5551
མ་ཟེ་	-5552
གཟིགས་ཞིབ་	-5553
ལག་བསྟ	-5554
ཎྜ	-5555
ཤར་གཏོང་ཐུབ་	-5556
འཚོང་	-5557
སད་	-5558
འཕགས་པའི་	-5559
འདས་པའི་	-5560
དངོས་བ	-5561
ཁེ་ཆ	-5562
པུའུ་དང་	-5563
ཐེངས	-5564
▁འོ་ན་	-5565
དྲུག་ཅུ་	-5566
▁དོན་ཚན་	-5567
གཙུག་ལག་	-5568
ནམ་ཡང་	-5569
རྫོང	-5570
ར་འགན་	-5571
▁མར་	-5572
སྲོལ་བ	-5573
ཁུག་	-5574
ལྷག་པར་དུ་	-5575
མ་དངུལ་བ	-5576
ཕྱིན་ཅི་	-5577
ཡིན།།	-5578
སྟན་པ།	-5579
རྣམས་སུ་	-5580
སྔོན་བརྡ	-5581
▁རྗེས་སུ་	-5582
སྐལ་	-5583
ཧོས་	-5584
ཡིན་གྱི་	-5585
ཞེ་སྡ	-5586
བོད་བརྒྱུད་	-5587
ཆགས་པའི་	-5588
ཁྱིམ་བདག་	-5589
སྒྱུར་བའི་	-5590
▁གྲོང་གསེབ་ཀྱི་	-5591
ཅི་ཞིག་	-5592
རུང་བ་	-5593
རྒུད་སྐྱོབ་	-5594
སྔོན་རྩིས་	-5595
བཟོའི་	-5596
ཐའེ་	-5597
ར་འཚོ	-5598
ཧྲེང་	-5599
ཞིབ་ཕྲ་	-5600
ཕུན་སུམ་ཚོགས་པ་	-5601
གནོད་སྐྱོན་	-5602
འཁྱི	-5603
ཕག་	-5604
ཧྥུ་	-5605
ཏི་ཅང་གིས་	-5606
བ་ཏུ་	-5607
ཞེས་བྱ་བའོ།	-5608
ལས་དོན་སྙན་	-5609
ཕོགས་	-5610
མཐི	-5611
དྲན་གསོ་	-5612
འགན་བ	-5613
གཞི་རིམ་གྱི་	-5614
▁ཀྲུང་དབྱང་གི་	-5615
ལ་བྲ	-5616
མཛད་པའི་	-5617
ཤད་པ།	-5618
འགོ་འཛིན་	-5619
མང་།	-5620
ཞ་	-5621
གནས་ཀྱི་	-5622
རྒན་གསོ་	-5623
▁མྱུ	-5624
ལས་བརྒ	-5625
གསོལ།	-5626
སློབ་གྲྭར་	-5627
བརྟན་འཇགས་	-5628
ཧུའེ་	-5629
ཡོད་པ་རེད།།	-5630
ཕལ་ཆེར་	-5631
ཚོགས་པ།	-5632
▁རྒྱ་གར་	-5633
མྱེད་པ་	-5634
▁གླིང་སྒྲུ	-5635
དངུལ་གཏོང་	-5636
▁མེ་ཏོག་	-5637
དོན་སྙིང་གལ་ཆེན་	-5638
ས༷	-5639
▁རྗེ་	-5640
▁སོ་	-5641
འོས་སྦྱོར་	-5642
ང་གོང་	-5643
▁བྱས་	-5644
ཐམས་ཅད་བ	-5645
ཞུགས་ནས་	-5646
དེ་བཞིན་ཉིད་	-5647
ང་བོད་ཀྱི་	-5648
ཐིང་	-5649
▁མཱ་	-5650
རྒྱག་པ།	-5651
བློ་གྲོས་	-5652
གྲོང་མིའི་	-5653
སྒེར་གྱི་	-5654
ཡན་གྱི་	-5655
ལྷན་དུ་	-5656
བསྐོར་	-5657
རེད་ཅེས་	-5658
དགའི་	-5659
གཏམ།	-5660
སྲུང་སྐྱོབ་དང་	-5661
ཧུར་ཐག་གིས་	-5662
▁ཨ་ཧྥུའུ་	-5663
▁ཚན་རྩལ་	-5664
ལོན་པ་	-5665
▁ཐོ་	-5666
དམངས་སྲིད་	-5667
བྱ་གཞ	-5668
མན	-5669
བཟོ་ཚོང་	-5670
མ་པར་	-5671
ཆེད་སྒྲིག	-5672
▁མིག་སྔ	-5673
ཏང་བའི་	-5674
▁དབུལ་སྐྱོར་	-5675
འདྲ་བ་	-5676
ཉིན་རེའི་ཚགས་པར།	-5677
ལས་གཞིའི་	-5678
བསླབ་	-5679
མཚོ་བོད་	-5680
རླི	-5681
▁ལྷོ་ཁ་	-5682
དཔུང་ཁག་	-5683
ཆེན	-5684
བྱ་ཆེད།	-5685
གཞོགས་འདེགས་	-5686
གོང་འཕེ	-5687
ང་བཙུགས་	-5688
▁སྔ་	-5689
ངག་གི་	-5690
རིག་གནས་དང་	-5691
མེད་དེ།	-5692
སྦགས་	-5693
བྱེད་པར་བ	-5694
ས་ཁུལ་དང་	-5695
དུད་ཚ	-5696
ཚོགས་སྐབས་བཅུ་	-5697
ཐ་ཚིག་	-5698
▁ཡུན་ནན་	-5699
▁མིང་	-5700
སྐྲུན་གྱི་	-5701
སྒོ་དབྱེ་	-5702
རེད	-5703
འཆམ་མཐུན་	-5704
ཕྱིན་ནས་	-5705
རྒྱུད་དུ་	-5706
ལམ་ནས་	-5707
སེའི་	-5708
བྱེད་ནུས་	-5709
དེ་ལྟ་བུ་	-5710
ཙམ་གྱི་	-5711
རྭ	-5712
ལྡི	-5713
ཇེ་ལེགས་སུ་	-5714
▁མངོན་པར་	-5715
ང་ག་	-5716
ཞབས་འདེགས་ཞུ་	-5717
དམག་དཔུང་གི་	-5718
▁ཁྲི་	-5719
ང་བློ	-5720
▁ཐོ	-5721
རྨོ་	-5722
དེ་དག་ལ་	-5723
འདི་ལྟ་སྟེ།	-5724
རེད་ཅེས་བ	-5725
གྲངས་གཞི་	-5726
བཅའ་སྡོད་ལས་དོན་	-5727
རེའི་ཆ་སྙོམས་	-5728
དཀའ་བའི་	-5729
རྒྱལ་སྲིད་	-5730
རྒྱལ་དོན་	-5731
མཚམས་སྦྱོར་	-5732
པན་	-5733
▁པདྨ་	-5734
དཀྱུ	-5735
དང་བསྟུན་ནས་	-5736
ཡུན་ཧྲན་གྱིས་	-5737
ཕོ་བྲང་	-5738
གཏོང་དགོས་པའི་	-5739
བསམ་འདུན་	-5740
▁ཉིང་ཁྲི་	-5741
སི་ཁྲུ་	-5742
ཐད་གཏོགས་	-5743
▁ལེགས་	-5744
སེམས་ཁུར་	-5745
འཕར་ཚད་	-5746
རི་བོ་	-5747
སྤྱད་ནས་	-5748
སེམས་པ་	-5749
དབྱིང་ཅེས་	-5750
ཀརྨ་	-5751
ཁྲེང་ཀོན་	-5752
ཀུན་ལ་	-5753
ཀན་སུའུ་	-5754
གཞིར་བཟུང་།	-5755
གཏང་	-5756
རྙན་འཕྲིན།	-5757
ཅིག་གི་	-5758
བླང་བྱ་བཏོན་	-5759
གསུམ་གྱིས་	-5760
ར་མ་	-5761
ལྟོ་	-5762
ལས་ནི་	-5763
ཕུད་	-5764
འདེམས་བསྐོ་	-5765
ཤཱ་	-5766
ཞིང་པ་	-5767
གསོ་སྦྱོ	-5768
ཡོང་རྒྱུར་	-5769
བསྡ	-5770
ཡང་དག་པ་	-5771
བྱས་པ་ལྟར་ན།	-5772
ཁྱོད་ཀྱིས་	-5773
མི།	-5774
ཀཱ་	-5775
ཁྱོན་བ	-5776
▁ལན་	-5777
▁བང་	-5778
ལ་བརྟེ	-5779
ནོར་བུ	-5780
སྣེ་ཁྲིད་དེ་	-5781
མ་དངུལ་སྒོར་ཁྲི	-5782
འོག་གི་	-5783
བྱས་མི་ཆོག	-5784
ཤར་ལྷོའི་	-5785
ཐོན་སྐྱེད་དང་	-5786
གཏམ་རྒྱུད་	-5787
ལྷག་མ་	-5788
▁ཐེངས་	-5789
ཁག་ཏུ་	-5790
བཅུ་དགུ་པ་	-5791
▁ཀྲུའུ་ཞི་	-5792
སྤེལ་བ་རེད།	-5793
ལ་འཐུས་	-5794
མཉམ་འདྲེས་	-5795
བྱ་རྒྱུ་དང་།	-5796
ཨང་།	-5797
མཐུན་ཚོགས་ཀྱི་	-5798
ཤུགས་ཐོན་ཁུངས་	-5799
བྱ་འགུལ་སྤེལ་	-5800
མི་དམངས་ཁྲིམས་	-5801
མཁར་རྒྱལ།	-5802
འགེ	-5803
གནའ་བོའི་	-5804
ཨང་གྲངས།	-5805
མགོ་བརྩམས།	-5806
རྣམས་སོ།	-5807
གོ་ལ་	-5808
རེ་བ་བཏོན།	-5809
མ་དངུལ་སྒོར་ཁྲི་	-5810
དོ་ཞེས་	-5811
དག་ཏུ་	-5812
དྷ་	-5813
རྒྱལ་རབས་	-5814
▁ཉེ་ལམ།	-5815
ཡིན་ན།	-5816
ལག་པ་	-5817
ལྔ་པའི་	-5818
དྲི་མ་	-5819
པས་སོ།	-5820
དམིགས་ནས་	-5821
ཆུ་ཚད་མཐོ་རུ་	-5822
▁ཚེ་མཁར་རྒྱལ།	-5823
རྙོག་	-5824
རྒྱལ་གྱིས་	-5825
རྩིས་བ	-5826
▁ལོ་ལྔའི་	-5827
གོང་མ་	-5828
ཁྲིམས་སྲོལ་	-5829
སྐད་དུ།	-5830
གཞན་ཡང་	-5831
དྲ་ལམ་	-5832
ཚོགས་ཆུང་གི་	-5833
ང་སྟེ་	-5834
སེམས་དང་	-5835
སྐུལ་ཁྲིད་	-5836
ཁུལ་བ	-5837
འདིའི་པར་དབང་	-5838
ཁྲུན་	-5839
གར།	-5840
ལར་	-5841
ས་བདེ་	-5842
ཁོས་	-5843
▁ལྟ་	-5844
གཉིས་པོས་	-5845
བརྩེའི་	-5846
སྣམ་	-5847
མཆོང་	-5848
མཚོན་པར་	-5849
▁ཚོགས་འདུའི་ཐོག་	-5850
གསར་འགོད་པའི་	-5851
ཡིན་པར་བ	-5852
མཚེའུ་	-5853
སྙན་ངག་	-5854
གསར་འགོད་པ་	-5855
ཐོན་ལས་ཀྱི་	-5856
དམག་གི་	-5857
ཡིན་པའི་ཕྱིར་རོ།	-5858
དེ་རེད།	-5859
ཀུང་སིས་	-5860
ཞིབ་ཚགས་	-5861
གཟིགས་སྐྱོང་	-5862
▁དགྲ་	-5863
བརྩམས་ཆོས་	-5864
མཇལ་འཕྲད་གནང་།	-5865
རྟགས	-5866
ཚེགས་	-5867
བདག་པོ་	-5868
ཐལ་སྤྱོད་	-5869
▁འཕེལ་རྒྱས་	-5870
ཀྱང་མི་	-5871
ཏང་ནས།	-5872
ཐ་དད་	-5873
སྡིག་པ་	-5874
ནམ་མཁའི་	-5875
རླུང་གི་	-5876
སྐྱོན་བྲ	-5877
ནག་ཆུ་	-5878
ཐང་དུ་	-5879
དོན་སྙིང་	-5880
པོའི་ངང་	-5881
▁ནམ་མཁའ་	-5882
གྲིམ་འགྲུལ་	-5883
ས་བློ་	-5884
ང་བསྟན་	-5885
ཀུན་རྫོ	-5886
ཡོད་པ་མ་ཟད།	-5887
ཚང་མའི་	-5888
འུར་	-5889
ཞལ་པར་	-5890
སྒྲོམ་	-5891
སྦྱངས་	-5892
ཏང་སྟེ།	-5893
རྒྱལ་བ་	-5894
མཛད་སྒོའི་	-5895
ང་གནམ་	-5896
▁སྲིད་དོན།	-5897
▁ཆེ་	-5898
སྒྱུ་རྩལ།	-5899
ཀུའུ་	-5900
གུང་ཁྲན་ཏང་	-5901
ཞིང་བྲ	-5902
སོགས་སུ་	-5903
༥༠༠	-5904
སྤྱོད་ཚུལ་	-5905
རྒྱལ་ཁབ་དང་	-5906
རང་རྟོགས་	-5907
རྣམ་གྲངས་ཀྱི་	-5908
དགོས་པ།	-5909
ཁང་གི་ཀྲུའུ་རིན་	-5910
▁198	-5911
ག་གང་	-5912
སྐྲུན།	-5913
▁༄༅།།	-5914
དངོས་ཡོད་	-5915
ཚོགས་འདུ་བསྡུས།	-5916
སྐྱེད་སྲིང་	-5917
སྡེར་	-5918
▁ཡོད།	-5919
▁ཤར་	-5920
བསྒྱུར་བཅོས་	-5921
ན༷་	-5922
▁སྤྱི་ཚོགས་ཀྱི་	-5923
སྒྲིབ་པ་	-5924
འབུར་	-5925
ཚེ་རིང་།	-5926
བགྲོ་གླེང་	-5927
གྲོན་དངུལ་	-5928
ཤན་	-5929
▁རྩྭ་	-5930
བྱེད་རྒྱུར་	-5931
ཞིབ་ཕྲ	-5932
ཚོགས་ཆུང་	-5933
ཏང་བ་དང་།	-5934
བྱས་པ་བརྒྱུད།	-5935
བོད་ལུགས་	-5936
གྲེམ་སྤེལ་	-5937
དབུ་བཞུགས་	-5938
སྐུར།	-5939
▁བཅུ་	-5940
དབྱི་སི་ལན་	-5941
སྔོན་བརྡ།	-5942
▁ཉིན་ནས་	-5943
རཱ་	-5944
ཚོགས་དང་	-5945
དཀོ	-5946
གཏོང་འདོད་	-5947
གསར་བརྗེའི་	-5948
ཚུན།	-5949
པར་འགྱུར་བ་	-5950
འཐབ་རྩོད་	-5951
གཞུང་སྒྲུབ་	-5952
འཇོག་པའི་	-5953
བྱུང་བ་རེད།	-5954
▁ཞི་ཅིན་ཕིང་གི་	-5955
ཧ་ཅ	-5956
ཞི་ཅིན་ཕེན་གྱི་	-5957
སེམས་ལ་	-5958
སྐྲུན་པའི་	-5959
མྱུར་སྐྱོབ་	-5960
དགོས་ཀྱི་	-5961
གྲོས་གཞི་བཏོན།	-5962
ཝུའུ་ཁི་	-5963
ཟབ་སྤེལ་	-5964
ར་བྲ	-5965
འཕྲུལ་ཆས་	-5966
▁ཚན་རྩལ།	-5967
ག་གླེ	-5968
བརྒ	-5969
གཟའ་འཁོར་	-5970
མཇུག་འགྲི	-5971
▁རིན་ཆེན་	-5972
སར་འ	-5973
ལོ་རེར་	-5974
བྱེད་མི་	-5975
དགུན་དུས་	-5976
རྫོགས་པ་	-5977
མེན་	-5978
▁དེ་བས་ན་	-5979
ཆེན་མོའི་ནང་	-5980
ལྕག་	-5981
མང་བོ་	-5982
སྟི	-5983
ཡོ་བྱད་	-5984
ཡིག་གཟུགས་	-5985
▁༨	-5986
རེས་ཀྱི་	-5987
ལྔ།	-5988
▁ཡི་གེ་	-5989
དཔོན་པོ་	-5990
གཏོང་བ	-5991
ཐུ་	-5992
▁ལས་དོན་	-5993
ཉེས་བྱས་	-5994
ངམ་	-5995
▁འདི	-5996
བཅས་སུ་	-5997
▁༤	-5998
▁ངའི་	-5999
སི་དང་	-6000
དག་ཀྱང་	-6001
གང་ཡིན་པ་དེ་	-6002
ཤེས་བྱའི་	-6003
ཆིག་	-6004
ཤཱཀྱ	-6005
སློབ་གསོ་དང་	-6006
གློག་བརྙ	-6007
རང་རང་གི་	-6008
རྩོན་འགྲུས་	-6009
▁—	-6010
པེ་ཅིང་དུ་	-6011
ཆུང་ངུ་	-6012
ཆུང་དུ་	-6013
རིག་པར་བྱའོ།	-6014
ཕུའུ་ཅིན་	-6015
▁གླིང་སྒྲུང་།	-6016
ཁྱབ་སྤེལ་	-6017
ཀའོ་ལིས་	-6018
གཞུང་དོན་	-6019
དགག་	-6020
གད་སྙིགས་	-6021
འགྱུར་བར་	-6022
དེ་ལྟར་བ	-6023
ན་མི་	-6024
ལྟུང་	-6025
རྩོམ་པའི་	-6026
དེ་འདྲ་	-6027
འབྱུང་བར་	-6028
ཕྱིར་གཏོང་	-6029
▁རྩ་	-6030
གཏན་གྱི་	-6031
ཏགས་	-6032
ཎི་	-6033
ཚོད	-6034
དཔྱད་བ	-6035
▁དེང་རབས་	-6036
དཔག་ཏུ་	-6037
ཞལ་པར་ཨང་གྲངས།	-6038
ཀོད་པའི་	-6039
ལོ་ལྔའི་	-6040
ད་བསྒྲགས་	-6041
▁གང་ཞིག་	-6042
ཚོང་གཉེར་	-6043
རྒྱ་སྐྱེད་	-6044
▁བོད་ཁུལ་	-6045
གདོ	-6046
ཧྥི	-6047
སྦགས་བཙོ	-6048
རྣམ་གྲངས	-6049
▁རིགས་ཀྱི་བུ་	-6050
གེ་སར་	-6051
དེ་ལྟ་	-6052
མཚོན་ཆ་	-6053
ང་གཞོན་	-6054
ཧྲུའུ་ཅི་གཞོན་པ།	-6055
▁བཅའ་ཁྲིམས་	-6056
▁གེ	-6057
ཐེབས།	-6058
▁མཉམ་ལས་	-6059
ཉིན་གྱི་ཕྱི་དྲོ	-6060
ཤུགས་འདོན་	-6061
ཅོས་	-6062
▁སྤྱི་ཟླ་	-6063
འཇོན་ཐང་	-6064
▁ཆོག་མཆན་	-6065
སྲོང་	-6066
ཆས་བ	-6067
བཞིན་པའི་	-6068
མེད་པ་དང་	-6069
▁རུ་	-6070
▁རང་བཞིན་	-6071
འགོའི་	-6072
ལ་བསམ་	-6073
▁ལྕགས་	-6074
ཀུན་འ	-6075
▁80	-6076
དར་གྱི་	-6077
ལའོ།	-6078
ཉིན་གྱི་སྔ་དྲོ	-6079
རྐང་པ་	-6080
གྲམ་	-6081
▁རིམ་	-6082
དངོས་གཞིའི་	-6083
▁བརྗོད་དོན་	-6084
རྣམ་པར་རྟོག་པ་	-6085
དེ་ཡིན།	-6086
▁འབྲས་བུ་	-6087
▁ཡིས་	-6088
དགོས་ལ།	-6089
ར་འཁྲུ	-6090
ལགས་ཀྱིས་	-6091
གསལ་བོ་	-6092
བྱང་ཆུབ་ཏུ་	-6093
▁ཚེ་དང་ལྡན་པ་	-6094
སྒྲོ་	-6095
ད་དུ	-6096
ཐད་བ	-6097
དབྱིན་ཇིའི་	-6098
ཨ་ཧྥེ་རི་ཁ་	-6099
ཚེའི་	-6100
སླད་དུ་	-6101
འགའ་ཞིག་	-6102
བ་གོང་	-6103
ཇོག་	-6104
དབྱི་ར	-6105
འི།	-6106
དྲ་ལམ་རྒྱང་སྒྲོ	-6107
ར་འཁོར་	-6108
མཐོ་སློབ་	-6109
སྟོང་ཕྲག་	-6110
འབུད་	-6111
བྱིས་	-6112
དཀའ་གནད་	-6113
མ་ལུས་	-6114
གསར་པ་དང་	-6115
▁འཛམ་གླིང་གི་	-6116
གྱིས་མི་	-6117
ཁྲིད།	-6118
ཕྱི་ཕྱོགས་	-6119
ལ་ཤུགས་སྣོན་རྒྱ	-6120
ཀུན་བ	-6121
རིག་གཞུང་བ	-6122
རྟེན་ནས་	-6123
འོས་སྦྱོར།	-6124
གློག་དྲ་	-6125
ཉིན་མོ་	-6126
ལ་ཕྱག་འཚལ་ལོ།	-6127
ལྡེབས་	-6128
▁སྔགས་	-6129
སྟེང་།	-6130
འཛུགས་སྐྲུན།	-6131
ཉིད་ཀྱི་ཕྱིར་	-6132
དད་པ་	-6133
▁ན་ནིང་	-6134
བྷ་	-6135
གཞི་ནས་	-6136
ཐང་ག	-6137
ཆུང་བ་	-6138
▁མ་འོ	-6139
▁མིག་སྔར།	-6140
ང་བོར་	-6141
འགྲེལ་བ	-6142
རྩིས་ནས་	-6143
བཞིན་ཡོད།	-6144
བླངས་པ་	-6145
འགག་སྒོ་	-6146
བཀོད་པ་	-6147
རེག་	-6148
གཏིང་	-6149
ཐེ་ཚོམ་	-6150
ལུ་	-6151
སྤེལ་བཞིན་	-6152
ཉུང་བ་	-6153
སྐྱེ་དངོས་	-6154
གདན་དྲ	-6155
མཐའ་དག་	-6156
དུས་མཚུངས་ལས་	-6157
ཕྲེང་	-6158
འཕྱུ	-6159
▁ཏང་དང་	-6160
མགྲིན་ཚབ་	-6161
ཀོད་འདོམས་	-6162
བྱ་བ་བཟང་བོ	-6163
དགྱེ	-6164
ལ་ལྟ་	-6165
ག༷	-6166
▁བཟའ་	-6167
སྤྲོད།	-6168
ཉེ་བར་བ	-6169
མ་ངོས།	-6170
ལམ་བུའི་	-6171
པྲ་	-6172
▁སྐབས་བཅུ་	-6173
འཕོ་འགྱུར་	-6174
འགན་ནུས་	-6175
རང་དབང་	-6176
རིགས་པ་	-6177
༠༩	-6178
གྲུ་གཟི	-6179
མཛའ་གྲོགས་	-6180
གྱུར་ཏོ།	-6181
ཁེ་ལས་ཀྱིས་	-6182
བཞི་པ་	-6183
▁གསར་གཏོད་	-6184
གསུམ་པོ་	-6185
ཡུག་	-6186
▁པཎ་ཆེན་	-6187
▁བཙུན་པ་	-6188
ཕན་ནུས་	-6189
མཉམ་སྤྱོད་	-6190
སྒམ་	-6191
▁བཏང་ནས་	-6192
སྔོ་ཚལ་	-6193
སྣང་བའི་	-6194
སྤྱི་ཚེས་	-6195
འཚར་	-6196
ནག་པོ་	-6197
ནའང་།	-6198
ཚན་ཁག་	-6199
▁ཚུལ་ཁྲིམས་	-6200
ངེས་ཅན་	-6201
མིང་བ	-6202
འཁྱེར་	-6203
གློག་ཤུགས་	-6204
ཉིད་ལ་	-6205
ངན་པ་	-6206
སྐུའི་	-6207
▁[201	-6208
▁ཁྲིམས་ལུགས་	-6209
▁ཉིན་བར་	-6210
སྒུལ་	-6211
གཙོ་སྐྱོང་གན	-6212
བྱུང་སྟེ།	-6213
▁མཆོད་	-6214
དགར་	-6215
ལྔ་པ་	-6216
མྱུར་བགྲོད་	-6217
སྒྲས་	-6218
སྣང་བ	-6219
སྦུ	-6220
ཁྱིམ་གྱི་	-6221
རྣམ་པ་གསར་པ་	-6222
ན་འགོ	-6223
དེའི་ནང་	-6224
ཞིང་སྡེ་	-6225
༡༩	-6226
ཉིན་ནས་	-6227
▁ངེས་པར་དུ་	-6228
རི་དང་	-6229
རྐོས་	-6230
ཧུར་ཐག་བ	-6231
ཡུས་ཧྲུའུ་	-6232
ལགས་སོ།	-6233
▁ད་ལོར་	-6234
དངུལ་ཁང་	-6235
བྱེད་བཞིན་པ།	-6236
སྲོག་ག	-6237
ཆ།	-6238
▁འདི་ལོ་	-6239
སྒྲགས་པ་	-6240
▁གྲོང་ཚོ་	-6241
ཉའ་	-6242
▁2020	-6243
རི་ཉི	-6244
ང༷་	-6245
▁ཅང་	-6246
ར་འགྱུར་བ་	-6247
བི་	-6248
ཡིས་བཤད་རྒྱུར།	-6249
ལ་བློ་	-6250
མ་མཐའི་	-6251
▁]	-6252
སྒོ་མོ་	-6253
▁པར་ངོས་	-6254
ཐུམ་	-6255
▁མཚམས་	-6256
མ་ཐག་	-6257
དཀའ་ཁག་	-6258
ཡུལ་དངོས་	-6259
འཚམས་འདྲི	-6260
ལ་ཞུགས་པའི་	-6261
▁༥	-6262
ཡོངས་ཁྱབ་	-6263
ཚན་བ	-6264
▁ཆབ་སྲིད་	-6265
སྐོར་ཐེངས་	-6266
སྨྱུ	-6267
གཏོང་རྒྱུ་རེད།	-6268
བྱིན་གྱིས་བརླབས་	-6269
གཏོང་གི་	-6270
ཁེར་	-6271
ཚིག་བ	-6272
འཆར་ཟིན་	-6273
ང་བོའི་	-6274
སྐྱུར་	-6275
དམངས་འཚོའི་	-6276
▁འཁོར་བའི་	-6277
སྔོན་འགོ	-6278
བརྗོད་པ་	-6279
ཞིག་ཡིན་ལ།	-6280
▁ཉིས་སྟོང་བ	-6281
རྟེན།	-6282
མཚམས་སུ་	-6283
གྲགས་པའི་	-6284
པད་མ་	-6285
རིམ་སྤོར་	-6286
གཅིག་ནས་	-6287
འགྲོའི་	-6288
སུས་	-6289
ནགས་ལས་	-6290
▁ཝང་ཅན་	-6291
▁འོན་ཏེ་	-6292
གཏོར་འ	-6293
▁སློབ་གྲྭ་	-6294
སྔོག་འདོན་	-6295
ལ་རོགས་སྐྱོར་	-6296
རྒྱུ་ཡིན་པ།	-6297
ད་ཆ་	-6298
ཡིག་སྒྱུར་	-6299
བཤད་རྒྱུར།	-6300
རྩེར་	-6301
དགྲ་བཅོམ་པ་	-6302
འགུལ་གྱི་	-6303
རྗེད་པར་	-6304
ལ་ཏེ་	-6305
ཧྲིན་ཀྲང་གཞོན་པ་	-6306
མཚམས་འཇོག་	-6307
ལ་ཁ་	-6308
འགོད་དམ་	-6309
གང་རུང་བརྒྱུད་	-6310
རྟག་པར་	-6311
▁ནེ	-6312
ད་རུང་	-6313
དཀར་པོའི་	-6314
གསར་བརྗེ་	-6315
འགྲིག་	-6316
བས་པའི་	-6317
▁ལིས་ཁི་ཆ	-6318
གཉིས་ནི་	-6319
མེད་ན་ནང་དོན་	-6320
རྔུ	-6321
ལྐོག་སྦྲེལ་	-6322
གླིང་དུ་	-6323
▁སློབ་མ་	-6324
▁ཀྱང་	-6325
▁ཆབ་	-6326
ཇི་བཞིན་	-6327
ཆེན་པོར་	-6328
བྱེད་དེ།	-6329
མང་པོས་	-6330
▁མདོ	-6331
▁ལྷའི་	-6332
སྦྱིན་པའི་	-6333
གམཚོ་སྔོན་	-6334
ཏང་རྩ་འཛུགས་	-6335
དབང་གི་	-6336
ར་འཚམས་འདྲི་	-6337
སྐྱེ་མཆེད་	-6338
ར་བསམ་	-6339
དཀའ་བ་	-6340
བཏུ	-6341
ཡོངས་འགྲུབ་	-6342
ཚུལ་དུ་	-6343
ཁང་གི་ཀྲུའུ་རེན་	-6344
སྨན་ཁང་	-6345
བཅུ་གསུམ་པའི་	-6346
རྒན་གསོའི་	-6347
མཇུག་གི་	-6348
▁ཞིང་སྡེའི་	-6349
ཕེ་	-6350
ཅེ་ན།	-6351
▁འདུ་ཤེས་	-6352
ག་གེགས་	-6353
བྱེད་པའོ།	-6354
ཞེས་བསྟན་	-6355
ཇོ་མོ་	-6356
▁སྙིང་	-6357
སློབ་མ	-6358
གཟོད་	-6359
ཁྲོད།	-6360
ཉིད་ནི་	-6361
མྱོང་བ་	-6362
མི་འདང་	-6363
མཛུབ་ཁྲིད་དུ་	-6364
ནན་ཏ	-6365
གཏོགས་པའི་	-6366
ལ་ཤུགས་བསྣན་	-6367
སེམས།	-6368
རིགས་དང་	-6369
ལྟེ་བར་	-6370
གལ་ཆེན་གྱི་	-6371
གསར་རྩོམ་	-6372
གསང་སྔགས་	-6373
ཅུའུ་ཡིས་	-6374
རྒྱལ་གཅེས་	-6375
ཁང་གི་ཀྲུའུ་ཞི་	-6376
རལ་གྱི་	-6377
ཞིབ་ཕྲའི་	-6378
▁གཙོ་གནད་	-6379
བྱས་པར་མ་ཟད།	-6380
སྤུས་རྟགས་	-6381
རིན་མེད་	-6382
རྣོ	-6383
མཛའ་མཐུན་	-6384
ཡོལ་	-6385
▁འདེ	-6386
གསུངས་བཤད་	-6387
བྱུང་བར།	-6388
སྐུལ་མ་བ	-6389
ལོ་སར་	-6390
བློ་བཟང་	-6391
▁ཀྲུང་དབྱ	-6392
ཕྱིན་པ།	-6393
ཨའོ་	-6394
▁གཅིག	-6395
▁སྦྲག་	-6396
གསོལ་པ།	-6397
རྩད་གཅོད་	-6398
སྣ་ཚོགས་ཀྱི་	-6399
པས་ནི་	-6400
རྩམས་ཆོས་	-6401
གྲན་བསྡུར་	-6402
རུབ་	-6403
རྣམ་གཉིས་ཀྱིས་	-6404
སྦྱིན་པར་	-6405
ཆན་	-6406
ཞིང་ག	-6407
སོ་སོ་དང་	-6408
ན་པ་ནི་	-6409
ཡིན་ནོ་ཞེས་	-6410
འཛུམ་	-6411
ཁང་ལ་དབང་།	-6412
བཀོད་འདོམས་	-6413
▁ཡ་	-6414
མཐོ་སྒང་གི་	-6415
ཞིང་ཆེན་རིམ་པའི་	-6416
▁ཕྱག་	-6417
གཟབ་རྒྱས་ངང་	-6418
ཐོན་རྫས་ཀྱི་	-6419
ཡུལ་མི་	-6420
ར།།	-6421
ན་འདུན་	-6422
▁མྱི	-6423
དེའི་ཕྱིར་	-6424
ཐུའུ་	-6425
ཞིང་འབྲོག་པའི་	-6426
པར་མ་ཟད།	-6427
ར་འགོ་	-6428
▁འགྲོ་བ་	-6429
ན་མོ་	-6430
རྒྱལ་ཁབ་སྤྱི་	-6431
ཤེས་ལྡན་མི་སྣ་	-6432
ཆུད་	-6433
ཐོར་	-6434
འབྲེལ།	-6435
ཁྱབ་པའི་	-6436
▁འདུས་	-6437
ས་པ་ནི་	-6438
▁ཟིན་པ།	-6439
སྲིད་ཇུས་ཀྱི་	-6440
དངོས་པོའི་	-6441
རྗེས་སུ་འབྲ	-6442
གནས་སྤོས་	-6443
▁ཁྱོན་ཡོངས་ནས་	-6444
▁འབྱུང་	-6445
བྱེད་པ་བཅས་	-6446
གསང་བ་	-6447
འགྲུལ་སྐྱེལ་	-6448
ཚུལ་ལ་	-6449
དངོས་ཟོག་	-6450
ཐུར་ཁེ་	-6451
མཁན་གྱིས་	-6452
གྲོགས་པོའི་	-6453
དང་འབྲེལ་བའི་	-6454
ང་བར་གྱི་	-6455
▁སྲིད་གྲོས་	-6456
ཏའོ་	-6457
ཉོ་སྒྲུབ་	-6458
གྲལ་	-6459
ལྡན་པ།	-6460
▁དཔྱད་གཏམ།	-6461
ཁྱོན་བསྡོམས་	-6462
སྨན་ཁང་གི་	-6463
ཆོས་རྣམས་	-6464
དེ་ཡོངས་ཀྱི་	-6465
སྐབས་དང་པོ་	-6466
ཐམས་ཅད་ཀྱིས་	-6467
མཆོད་རྟེན་	-6468
སྦྲང་	-6469
བླངས་པའི་	-6470
གཅིག་སྒྲིལ་	-6471
གསར་འགྱུར་དྲ་བ།	-6472
བུར་	-6473
གཞན་པའི་	-6474
ཆེད་ལས་ཀྱི་	-6475
བརྩི་	-6476
གཏི་	-6477
སྤེལ་ནས།	-6478
ཊ།	-6479
དོན་ཚན་	-6480
མེད་པ་དང་།	-6481
གདམ་	-6482
འབུའི་	-6483
ས་ཚི	-6484
མིང་རྟགས་	-6485
དབུལ་སྐྱོར་གྱི་	-6486
རྟོགས་པར་	-6487
མཁན་དང་	-6488
རེད་ཟེར།	-6489
ལྷས་	-6490
▁ཀྱེ་	-6491
གནས་སྤོ་	-6492
མཐུན་སྒྲི	-6493
གྱོང་གུ	-6494
རྫོང་ལ་	-6495
ང་བྲ	-6496
ཏིའི་	-6497
དངོས་རྫས་	-6498
མྱོང་བའི་	-6499
བོད་ལྗོངས་ཀྱིས་	-6500
ལོན་པར་	-6501
ཞིར་	-6502
ལའོ་	-6503
ཁོ་ནར་	-6504
ཚན་ཆུང་བ	-6505
འཇར་མན་གྱི་	-6506
ཚོགས་གཙོ་	-6507
ལྔ་བཅུ་	-6508
སྒར་	-6509
ཚགས་པར།	-6510
ཞི་ཅིན་ཕིང་	-6511
▁2000	-6512
▁ཧུའུ་	-6513
གས།།	-6514
ཉིད་དང།	-6515
སྐུ་ཕྲེང་བཅུ་	-6516
▁རང་ལྗོངས་ཀྱི་	-6517
བཏང་བ་དང་།	-6518
ཁྲིམས་ལུགས།	-6519
ལྷོ་མའི་	-6520
ལོག་པར་	-6521
པོ་ཆེ་	-6522
▁ཀ་	-6523
▁སློབ་དཔོན་	-6524
ལྟ་བུའོ།	-6525
རྒྱ་ཆེ་	-6526
སྲིད་གྲོས་ཀྱིས་	-6527
▁ང་ཚོ་	-6528
འབྲེལ་གཏུག་	-6529
▁གསུང་	-6530
▁’	-6531
▁བརྙན་འཕྲིན་	-6532
རེ་བཞིན་	-6533
རྒྱ་ཁྱབ་	-6534
གཏི་མུ	-6535
དང་བསྟུན་	-6536
▁ལོར།	-6537
ཆབ་སྲིད་ཅུས་ཀྱི་	-6538
ཕྱི་མ་	-6539
པོས་བ	-6540
▁རྟག་ཏུ་	-6541
ཨུ་ཡོན་གྱིས་	-6542
སྟེར་	-6543
▁ལོ་ནས་	-6544
སྐད་བརྙན་འཕྲིན།	-6545
མི་ནུས་	-6546
བསྐྲུན་པའི་	-6547
ཇེ་མཐོ	-6548
ཤེད་	-6549
བང་	-6550
སྐུད་	-6551
ལག་བསྟར་བྱེད་	-6552
▁བདུད་	-6553
རིགས་ལ་	-6554
སྐབས་སུ།	-6555
ཆེ་མོའི་	-6556
འབར་བའི་	-6557
ཅན་བ	-6558
▁ལོ་ཙཱ་བ།	-6559
ཅེས་བྱ་བ་ནི་	-6560
▁གཙ	-6561
ཡིས	-6562
ཕུལ།	-6563
འགྱུར་ཏེ།	-6564
གོས་ཏེ་	-6565
▁ནག་ཆུ་	-6566
ངེས་པའི་	-6567
དོ་དམ་དང་	-6568
ལོ་ངོ	-6569
ལ་སོགས་པ་ནི་	-6570
དོགས་པ་	-6571
བརྟག་ཞིབ་	-6572
བླུ	-6573
ཞིག་དང་	-6574
དེ་རྣམས་	-6575
དྭགས་	-6576
▁སྟོབས་	-6577
སྒྲའི་	-6578
དབྱེར་	-6579
▁ཕོ་	-6580
འཛུགས་པ་དང་	-6581
སྐད་དུ་	-6582
གྲུབ་པར་	-6583
ང་གསལ་	-6584
ན་འགོག་	-6585
དབྱར་རྩྭ་	-6586
དམག་འཁྲུ	-6587
ར༷་	-6588
ཚང་བའི་	-6589
▁ཏེ	-6590
ཧུར་བརྩོན་	-6591
མེད་ཅིང་	-6592
བྱས་མི་ཆོགཔར་	-6593
པ༷་	-6594
གློག་རྡུལ་	-6595
འགལ་བའི་	-6596
ཇུག་	-6597
རྩོམ་ཡིག	-6598
མཉམ་སྡེབ་	-6599
ལ་དམིགས་ནས་	-6600
▁42	-6601
▁བཀའ་	-6602
རྭ་	-6603
བརྗོད་བྱ་	-6604
ལྡབ་	-6605
ཏིང་ཟབ་	-6606
སྒྱུ་མ་	-6607
གསར་པ།	-6608
འགོག་གེགས་	-6609
ར་བརྟེན་ནས་	-6610
ངེད་	-6611
སྟན་གྱི་	-6612
ན་བློ	-6613
ན་ལ་	-6614
རྩེ་མོ་	-6615
རང་ག	-6616
སྨོན་འདུན་	-6617
▁རྩོམ་རིགམི་སྣ།	-6618
▁མུ་མཐུད་	-6619
▁ནོར་སྲིད་	-6620
ཨ་ཧྥེ་རི་ཁའི་	-6621
དག་གི	-6622
ཞུ་རྒྱུ་	-6623
འདེམ་	-6624
བྱ་བ་དང།	-6625
ཐར་པ་	-6626
པུའུ་ཀྲ	-6627
ཕྱི་རྒྱལ་གྱི་	-6628
ལ་དམ་འཛིན་	-6629
-2	-6630
སྐབས་བ	-6631
གཙོ་བོ་ནི་	-6632
ནུས་པ་ཆེ་རུ་	-6633
སླུ་	-6634
མཐོང་ངོ།	-6635
བྱུང་ཞིང་།	-6636
སྒྲིག་གི་	-6637
རྒྱ་ཆེ་བའི་	-6638
གང་ཟག་	-6639
འཚོགས་པ།	-6640
དམངས་འཚོ་	-6641
▁མོ	-6642
ལག་ཏུ་	-6643
ཚེ་དང་ལྡན་པ་	-6644
▁རྣ་	-6645
▁བཀྲ་ཤིས་	-6646
འགྲམ་དུ་	-6647
ཐུབ་ཡོད།	-6648
དུ་བསྐྱོད་	-6649
འཕེལ་རྒྱས་མྱུར་	-6650
གཟུགས་བརྙན་	-6651
སོ་ཞེས་	-6652
སྐྱོད་ཀྱི་	-6653
པར་བྱ།	-6654
ཀོད་པ་	-6655
བཏགས་	-6656
པོའོ།	-6657
ཅན་གྱིས་	-6658
ཁ་ཤ	-6659
ཏང་འཛུགས་	-6660
འདྲ།	-6661
གསོ་སྤེལ་	-6662
དྲུང་ཡིག་ཆེན་མོ་	-6663
▁བདག་གི་	-6664
འདེད་	-6665
ས༷་	-6666
ལེགས་པ་	-6667
འབྲས་བུའི་	-6668
ཆུང་ཆུང་	-6669
▁ངོ་སྤྲོད་	-6670
བྱེད་ཀྱིན་	-6671
བོན་གྱི་	-6672
མཚོན་པའི་	-6673
འགྲམ་གྱི་	-6674
རོ་ཞེས་	-6675
གནད་དོན་གྱི་	-6676
ཞེངས་	-6677
ཨོཾ	-6678
▁གང་གིས་	-6679
བྱེད་ཕྱོགས་	-6680
འཚེའི་	-6681
སྲིད་ཇུས་དང་	-6682
▁ཉིན་ཤས་	-6683
དག་གིས་བ	-6684
གྲོས་ཚོགས་བསྡུས་	-6685
▁སྔར་	-6686
འགྲོ་ལམ་	-6687
དབྱེའི་	-6688
སྲིད་ཁྲིམས་	-6689
རྗེད་	-6690
གནང་ཡོད་པ་རེད།	-6691
ཤེས་པར་བྱའོ།	-6692
ཧྲིལ་པོར་	-6693
འདྲ་མཉམ་	-6694
▁པད་	-6695
སྤྱི་སྤྱོད་	-6696
དངོས་མང་	-6697
འགྲིམ་འགྲུ	-6698
སྐྱོང་།	-6699
མེད་པར་བ	-6700
རྒྱལ་ཕྲན་	-6701
ལེགས་པར་བ	-6702
རླངས་འཁོ	-6703
བདེ་འཇགས་ཀྱི་	-6704
ལེབ་	-6705
གཙི	-6706
འཕྲོད་	-6707
ཐབས་ཇུས་	-6708
སྡེ་ཁག་གི་	-6709
སརྦ་	-6710
འདོད།	-6711
འཁྲིད་	-6712
གོང་མའི་	-6713
བྱེད་པའི་ཐད་	-6714
▁རླུང་	-6715
རོལ་མོ།	-6716
གནང་ཞིང་།	-6717
▁ཡར་	-6718
▁འདོད་ཆགས་	-6719
རྔོ	-6720
ང་གསུམ	-6721
མངོན་སུམ་དུ་	-6722
མེའི་	-6723
ཆགས་པར་	-6724
བཏང་བ་	-6725
ཇི་ལྟ་བ་བཞིན་དུ་	-6726
ལ༷་	-6727
སྒྱུ་རྩལ་གྱི་	-6728
ཆོན་	-6729
ཞིབ་དཔྱད་	-6730
སྐྱེད་པའི་	-6731
དྲག་ཆས་ཉེན་རྟོག་	-6732
ཆེ་གེ་	-6733
བྱོན་	-6734
འབྲེལ་མཐུད་	-6735
དབྱི་ལི	-6736
ཀྲུའུ་ཞིའི་	-6737
ཧྲེ་	-6738
གཅེ	-6739
སེམས་ཀྱིས་	-6740
▁༦༨	-6741
ཐེངས་དང་པོ་	-6742
རང་བདག་	-6743
སྦྱོར་བའི་	-6744
མཇལ་འཛོམས་	-6745
བྱས་ན།	-6746
▁ཁྱད་པར་	-6747
ལས་དོན་སྐོར་གྱི་	-6748
▁དཔེར་ན།	-6749
སྙན་ཞུའི་	-6750
ཤཱ་རིའི་	-6751
གཤ	-6752
ཚུད་པའི་	-6753
མཐུན་ཚོགས་	-6754
མངོན་པར་བ	-6755
སྟོན་བ	-6756
ཕྱག་བ	-6757
▁ལེའུ་	-6758
སྦྲགས་	-6759
ཅིང་བ	-6760
དྲའི་	-6761
མེ་ལོང་	-6762
དགོས་པ་དང་	-6763
གཏོང་ཆེད།	-6764
▁རྒྱུད་	-6765
མངོན་པ་	-6766
ཚན་པའི་	-6767
འཛད་	-6768
ཁང་གཞུང་	-6769
▁སྒྱུར་བཅོས་	-6770
ཀྲན་ཧྲུའུ་	-6771
མ་རྐང་ཚད་ཡོད་	-6772
▁ཡེ་	-6773
ཐ་ཚིག་གོ།	-6774
རྒྱུན་བ	-6775
ལྟེ་གནས་སུ་	-6776
ལོ་ཙཱ་	-6777
གཏམ་བཤད།	-6778
▁ཐང་	-6779
ག་གནས་	-6780
རྐྱེན་བ	-6781
ཕྱིན་པ་དང་	-6782
སྒྲིབ་	-6783
▁དགེ་བའི་	-6784
ཐོན་བ	-6785
▁ཇ་	-6786
ལས་སྣོན་	-6787
▁བདེ	-6788
དྲུག་བ	-6789
བ༷	-6790
སྒོར་མོ་	-6791
▁སྲིད་དོན་	-6792
མང་བ	-6793
ཆུ་དང་	-6794
བ་དང་བ	-6795
དགུང་ལོ་	-6796
ལུས་ལ་	-6797
▁འཁོར་བར་	-6798
རྣམས་ཀྱིས་བ	-6799
གྲུབ།	-6800
ཀུན་དགའ་	-6801
སྤངས་པ་	-6802
ཧུང་	-6803
ཡུལ་བ	-6804
བརྒྱུད་ནས་	-6805
དཔུང་སྡེ་	-6806
ཐང་དང་	-6807
ལྗི	-6808
ར་དང་	-6809
ན་བཀུར་	-6810
ལྟད་མོ་	-6811
ཐུབ་ཀྱི་	-6812
སྟོབས་ཆེར་	-6813
འཁོར་སྐྱོད་	-6814
དཔྱ་	-6815
སུམ་ཅུ་རྩ་	-6816
རིས།	-6817
པར་རིས་	-6818
མངོན་པའི་	-6819
▁300	-6820
ཆབས་ཅིག	-6821
མ་མཆིས་	-6822
སྨན་ཁང་དུ་	-6823
གསར་གཏོད་ཀྱི་	-6824
བརྒྱ་དང་	-6825
▁ཏེ་	-6826
འཛིན་གྲྭའི་	-6827
ཡིད་ཆེ	-6828
▁བང་རིམ།	-6829
བོད་རིག་པའི་	-6830
ལས་གཉེར་	-6831
ལམ་ཐི	-6832
▁མ་དངུལ་	-6833
ན་འཚོ	-6834
བྱའོ་ཞེས་	-6835
▁བསམ་བློ་	-6836
▁བོད་ཡིག་	-6837
▁སོ	-6838
བགྲོད་ལམ་	-6839
▁འདིས་	-6840
སླབ་པ་	-6841
འགྲོ་འོང་	-6842
གཞག་པ་	-6843
རེ་ཞུ་	-6844
མཛེས་པའི་	-6845
དགེ་རྒན་གྱི་	-6846
མུས་	-6847
ཅན་ལ་	-6848
ཚུགས་པ།	-6849
ཐོན་སྐྱེད་ཀྱི་	-6850
གཙོ་གཉེར་	-6851
▁གཞོན་	-6852
གྲུ་གཟིངས་	-6853
ཕུལ་བའི་	-6854
▁ཀ	-6855
ལམ་སྒོ་	-6856
▁ཅེས་པ་	-6857
▁བཟོ	-6858
ཿ།	-6859
ནུས་རྒྱུ་	-6860
རང་བཞིན།	-6861
གྱུར་པ།	-6862
▁བཙུགས་	-6863
▁ཧོ་	-6864
▁གྲོང་གསེབ་	-6865
མེད་པའོ།	-6866
རྩེགས་	-6867
བཅོས།	-6868
རྒྱལ་སྲུང་	-6869
▁ཀོང་	-6870
▁ཕན་ཚུན་	-6871
སྡུ་ལེན་	-6872
ཚད་ལ་	-6873
▁སྡུག་བསྔལ་	-6874
གནང་བ་དང་	-6875
འགོ་བརྩམས།	-6876
མཐོར་འདེགས་སུ་	-6877
ཞེས་བརྗོད་	-6878
▁ཚོགས་ཐོག་ནས་	-6879
སྐྱོན་བ	-6880
དཀར་མཛེས་	-6881
ཡོངས་སུ་བ	-6882
▁སྣ་	-6883
གསལ་བའི་	-6884
▁ཉིན་བ	-6885
དེ་དུས་	-6886
སྐད་གྲགས་	-6887
དགས་	-6888
དབྱར་རྩྭ་དགུན་	-6889
ཤང་དང་	-6890
གསོ་ཚགས་	-6891
རྫས་བཤམས་	-6892
གྲས་ཤིག་	-6893
ཕུགས་བསམ་	-6894
ཆོས་ལུགས་ཀྱི་	-6895
▁སྟོང་	-6896
ལྡོག་པ་	-6897
མེད་པའི་ཕྱིར་རོ།	-6898
ཏང་སྲིད་	-6899
▁གླུ་གཞས།	-6900
▁བདག་གིས་	-6901
འགྱི	-6902
ཁང་དང་།	-6903
རྙེད་པ་	-6904
བྱམས་བརྩེའི་	-6905
ཁུའུ་	-6906
ཁུན་	-6907
འཚོགས།	-6908
གཞོན་ནུ	-6909
འབྱུང་འགྱུར་	-6910
དི	-6911
གོར་མོ་	-6912
▁ཁྲིམས་ལྟར་	-6913
ཐིག་ལེ་	-6914
ཟིན་པ།	-6915
གཏན་ནས་	-6916
འཕྲིན་ལས་	-6917
▁ཕཱ	-6918
བཀུར་	-6919
ཞིང་པའི་	-6920
གས་པ་དང།	-6921
སྦག་	-6922
དཀྱིལ་འཁོ	-6923
ལྷ་ས་ནས་	-6924
སྲིད་པའི་	-6925
ཞུས་ནས་	-6926
རྣམ་པས་	-6927
▁འདི་ལ་	-6928
བྱེད་རྒྱུ།	-6929
སེམས་ཅན་གྱི་	-6930
༢༠༠	-6931
རེ་རེ་བཞིན་	-6932
▁ཤང་	-6933
བཅོ་བརྒྱད་པ་	-6934
ཨོཾ་	-6935
རེད།།	-6936
▁ཕཱ་	-6937
ནན་གྱིས་	-6938
བཅའ་ཁྲིམས་ཀྱི་	-6939
བསྐྱོད་	-6940
▁ཟས་	-6941
གས་པས་	-6942
དཔར་	-6943
▁ཞ	-6944
དང་གྲོས་མོལ་མཛད།	-6945
▁གཙོ་བོ་	-6946
▁༽	-6947
སྡིག་	-6948
ཟངས་	-6949
དྲང་བ	-6950
▁ཚང་མས་	-6951
▁ཉི་མ་	-6952
མགོ་ལོག་	-6953
བྲེ	-6954
སྒྱུར་བ་	-6955
ཕན་གྱི་	-6956
ལས་ཁུངས་དང་	-6957
ས་ཚིགས་ཀྱི་	-6958
ལས་དོན་ཁག་	-6959
བལྟ་སྐུལ་	-6960
འགག་རྩའི་	-6961
ཤེལ་	-6962
རབ་འབྱམས་	-6963
ཞིག་ཡིན་པ་	-6964
རྗེས་དྲན་	-6965
ཚན་ཆུང་གིས་	-6966
ལམ་ཕྱོགས་	-6967
ཉི་མའི་	-6968
▁པར་དེབ།	-6969
▁ཚོགས་འདུའི་	-6970
▁མཁས་	-6971
རྣམ་པར་བ	-6972
▁གཉིས་ནས་	-6973
སྦྲག་སྐུར།	-6974
འགྲུབ།	-6975
▁ལོ་ངོ་	-6976
ཁབ་	-6977
▁ཐུགས་	-6978
སྨུ	-6979
གསལ་བསྒྲགས།	-6980
ཞིག་ཡིན་པ་དང་།	-6981
ཞིབ་འཇུག་གི་	-6982
རྟེན་རྫས་བཤམས་	-6983
སློབ་ཚན་	-6984
དཔའ་བོ་	-6985
▁ཧ་	-6986
གང་མགྱོགས་	-6987
དཔོན་རིགས་	-6988
བསྟན་བཅོས་	-6989
▁ཏང་ཡོན་	-6990
ཕྱི་རྒྱལ་	-6991
ཞེ་ན་	-6992
▁མོ་	-6993
ང་རྒྱལ་	-6994
གར་འ	-6995
འདྲ་བའི་	-6996
བཅུ་གཅིག་	-6997
བཏང་ཡོད།	-6998
ཁྲལ་བ	-6999
རིག་པ་དང་	-7000
གཡག་	-7001
ཁོངས་ཀྱི་	-7002
འགྲེམ་སྤེལ་	-7003
འཆད་ཁྲིད་	-7004
▁རྩ་འཛུགས་	-7005
འཇིགས་མེད་	-7006
དགུ་བའི་	-7007
ཟིན་གྱི་	-7008
སྡོམས་རྩིས་	-7009
▁གནས་ཚུལ་	-7010
བྱེད་སྒོར་	-7011
ཐོ་ཨང་	-7012
མཆོག།	-7013
▁གྲངས་	-7014
དམག་མི་	-7015
70	-7016
▁སེམས་ཀྱི་ཉི་ཟླ་	-7017
སྐལ་བ་	-7018
▁སྤྱིའི་	-7019
སྤྱི་ཟླ་	-7020
ཡོད་ཀྱི་	-7021
འོད་སྟོང་	-7022
ཞིག	-7023
ཞིག་ཡིན་པས།	-7024
▁སློབ་སྦྱོ	-7025
སྡེ་ཁུལ་	-7026
དག་གཉེར་	-7027
ན་བརླི	-7028
ཞིའི	-7029
༠༩༠༠༠	-7030
བདག་ཨང་།	-7031
ཐོ་ཨང་༠༩༠༠༠	-7032
▁ཐོ་བདག་ཨང་།	-7033
▁བོད་ཐོ་ཨང་༠༩༠༠༠	-7034
ཞོར་དུ་	-7035
ད་པར་བྱའོ།	-7036
▁རོ་	-7037
ཆུང་དང་	-7038
▁120	-7039
▁དུས་མཚུངས་	-7040
གཟུགས་ཀྱི་	-7041
རྒྱ་མཚོ	-7042
▁རང་ཉིད་	-7043
རྒྱལ་ཁབ་ལ་	-7044
▁དཀྱིལ་འཁོར་	-7045
▁སྤྱི་ཚེས་	-7046
▁འབྱོར་	-7047
༥༠༠༠༠	-7048
མེ་ཏོག་གི་	-7049
གཏོར་འཇབ་རྒོལ་	-7050
ཞུས་པ།	-7051
ནྟ	-7052
▁འཆར་	-7053
གནང་ནས་	-7054
ཚིགས་སུ་བཅད་པ་	-7055
▁རྒྱུས་ལོན་	-7056
ཏང་བ་རེད།	-7057
དགོད་	-7058
ཤུའི་	-7059
སྨྲས་པ་	-7060
ཟུང་དུ་	-7061
ཧིན་	-7062
ལས་མ་	-7063
འགོར་	-7064
སྔོན་པོ་	-7065
ཇོ་མོ་གླང་	-7066
ཤར་གྱི་	-7067
གྱུར་ནས་	-7068
སྙོམས་པར་འཇུག་པ་	-7069
གྲོས་ཚོགས་ལ་	-7070
ལྔ་དང་	-7071
ཁྲིམས་འཛུགས་	-7072
ཆེན་རྫོང་གི་	-7073
ཚང་གི་	-7074
ལས་གྲྭའི་	-7075
▁དག་	-7076
ང་གཉིས་པ།	-7077
▁ཀྲང་ཏི་ཅང་གིས་	-7078
མི་ཤེས་	-7079
མི་རུང་	-7080
རང་མོས་	-7081
གསར་དུ་བདམས་	-7082
མཇུག་བར་	-7083
དུའོ།	-7084
ཁོར་ཡུག་བ	-7085
ནད་པ་	-7086
སྟོང་གི་	-7087
ཧུ་	-7088
ད་བར་	-7089
སྦྱར་བ་	-7090
མདུ	-7091
ཡས་མས་	-7092
མཉམ་པར་	-7093
སྔགས་བརྗོད་	-7094
སྟོང་པ་ཉིད་ཀྱི་	-7095
མཚུངས་པ་	-7096
འཐོབ་	-7097
ནང་ག	-7098
སྲོལ་ཡིག་	-7099
ཁྲེང་ཀོན་ཆུས་	-7100
རྒྱལ་ཁ་ཕུ་	-7101
ག་བཟོ་	-7102
བཅུ་གསུམ་པའི	-7103
པའེ་	-7104
▁ཐོག་མའི་	-7105
▁ཁོས་བ	-7106
མེད	-7107
ཐུགས་རྗེ་ཆེ་	-7108
ལུགས་ཀྱི་	-7109
ལས་སྒྲུབ་	-7110
▁མཚོ་ནུབ་	-7111
▁རྣམས་	-7112
བཏབ་	-7113
གསང་བའི་	-7114
མང་བའི་ཆེད་སྒྲིག	-7115
བུམ་པ་	-7116
ཏོད་	-7117
དབང་དང་	-7118
གནས་པར་	-7119
གྲས་ཀྱི་	-7120
བདེ་བའི་	-7121
▁ཡང་དག་པར་	-7122
▁‘	-7123
དྡ	-7124
ཟ་བ་	-7125
ང་བརྟན་	-7126
རྣམ་དག་	-7127
དཔེ་རྙིང་	-7128
ཕཊ།	-7129
འདུ་འགོད་	-7130
ཏང་ཀྲུང་དབྱང་དང་	-7131
ཤིས་ཚིག་	-7132
བྱེད་པ་དེ་	-7133
ཤཱཀྱ་	-7134
ཚེ་བརྟ	-7135
ལྟ་ཞིབ་ཚད་ལེན་	-7136
▁གང་གི་ཕྱིར་	-7137
འབྲིང་གི་	-7138
གཉི་	-7139
བཏོན་ནས་	-7140
དྲངས་	-7141
ཐག་རིང་	-7142
པར་གཞི་	-7143
བྱས་དོན།	-7144
འབྱུང་ཡུལ་	-7145
བྱེད་སྒོ་སྤེལ་བ།	-7146
མིག་སྔའི་	-7147
རྣམ་འགྱུར་	-7148
རེ།	-7149
▁ཞེས་པ་ནི་	-7150
མྱོང་ཚོར་	-7151
རོལ་དབྱངས་	-7152
མགོ་འཛིན་མཛད་དེ་	-7153
ཞིང་ཕྱུགས་	-7154
▁མགོ	-7155
ལྷག་པ་	-7156
རྒྱག་པའི་	-7157
▁མཚོན་	-7158
གྲས་སུ་	-7159
▁༦༣༣	-7160
ནུས་པ་དང་	-7161
པཱ་ནུ	-7162
༡༠༨༩	-7163
ཧྥ་རན་སིའི་	-7164
ཉག་	-7165
▁འཁྲུ	-7166
སྐྱོང་བའི་	-7167
▁༦༣༣༡༠༨༩	-7168
ཚོགས་པ་རེད།	-7169
▁ལས་རིགས་	-7170
དུས་དེབ་	-7171
སུམ་བ	-7172
ཐོན་ཚད་	-7173
ལུགས་མཐུན་	-7174
དང་པོས་ཚང་འཛོམས་	-7175
200	-7176
འཚང་	-7177
▁རྟགས་	-7178
འཁོལ་བའི་	-7179
སྡད་	-7180
ལྷོད་	-7181
སྐྲུན་འ	-7182
སུ་བ་	-7183
མྱི་དམྱི	-7184
ཅིས་	-7185
མཚོ་ཤར་	-7186
འཚར་ལོངས་	-7187
རླུང་འཕྲིན་བ	-7188
▁གནས་སྐོར་	-7189
དེ་གར་	-7190
པདྨའི་	-7191
སྤ་	-7192
སི་ཁྲུ་ལི་	-7193
གྲོང་ཚོ་དང་	-7194
ཤུགས་ཆེན་པོས་	-7195
▁སི་རི་ཡཱའི་	-7196
སྲོག་གཅོ	-7197
དཔྱད་འདེམས་	-7198
མའོ།	-7199
རང་ལ་	-7200
རྡོ་རྗེ	-7201
▁45	-7202
ཡོད་མེད་	-7203
ན་བློ་	-7204
སྒྲགས་པ་ལྟར་ན།	-7205
བྱུང་སྟེ་མི་	-7206
བྱེད་པ་བཅས་ཀྱི་	-7207
དང་ཁ་	-7208
གཞན་དང་	-7209
སྦགས་བཙོག་	-7210
ལྷུ་	-7211
སྲིན་	-7212
རིམ་པ་སོ་སོའི་	-7213
▁དམངས་ཆེན་	-7214
གཟན་	-7215
སྐྱོན་ཅན་གྱི་	-7216
དེ་སྐད་	-7217
སག་	-7218
ཚུལ་དང་	-7219
ང་གནང་	-7220
ཉེས་པར་	-7221
བྱེད་སྤྱོད་	-7222
ཞི་བདེ་རྒྱ་མཚོ་	-7223
ཐང་བ	-7224
ཞེན་	-7225
དཔེ་ཆ་	-7226
མགོ་ཁྲིད་ཀྱིས་	-7227
▁ཅེས་པའི་	-7228
མིག་གི་	-7229
བཤད།	-7230
འཕྲིན་གཏོང་	-7231
རིམ་པ་དང་	-7232
སྦྱོར་བ	-7233
▁དབུལ་	-7234
འབྲི་རྫ་	-7235
རྒྱུ་མཐའ་འཁྱོངས་	-7236
ཕ་ཡུལ་	-7237
དྲིལ་བུ	-7238
▁གཉིས།	-7239
མི་ཆོས་	-7240
གྷ	-7241
སྟོན་ཏོ།	-7242
ཁ་གསལ་བ	-7243
▁དེ་དག་གི་	-7244
ལ་མེད་	-7245
ཆེ་བ།	-7246
འཆང་	-7247
འབོར་ཆེན་	-7248
36	-7249
གསར་བ་བསྐྲུ	-7250
ཕིན་	-7251
▁ནེ་	-7252
བྱ་དགའི་	-7253
བྱེད་པས་	-7254
ཨུ་རུ་སི་	-7255
སྤྲེ	-7256
ཀྲིག་	-7257
གྲོང་རྡལ	-7258
སོང་བའི་	-7259
དྡྷ	-7260
▁འདིའི་	-7261
ཏིས་	-7262
འཕི	-7263
དམིགས་བསལ་གྱི་	-7264
བཅངས་	-7265
དྲུག་དང་	-7266
▁ད་ཐེངས་ཀྱི་	-7267
མཁན།	-7268
གཅན་	-7269
དེར་བ	-7270
སྟོན་པར་	-7271
རྒྱུད།	-7272
ཚའི་	-7273
ཉི་ཤུ་རྩ་	-7274
16	-7275
བསྡུས་པའི་	-7276
ཀོད།	-7277
ལ་བས་	-7278
མཇུག་སྒྲིལ་	-7279
ཞི་བ་	-7280
▁འཕེལ་རྒྱས་ཀྱི་	-7281
ང་བཟོ་	-7282
བྱི་	-7283
སླེབས་སྐབས་	-7284
ཁྲོན།	-7285
▁ཉིན་གློག་	-7286
བཟོ་བའི་	-7287
འཛུགས་པའི་	-7288
རྩོམ་ཡིག་	-7289
འཁོར་བའི་	-7290
དགོས་ཤིང་།	-7291
▁འཐུས་མི་དང་	-7292
ང་གསུམ་པ།	-7293
ཟིན་པ་དང་།	-7294
▁མྱ་	-7295
འཕྲུལ་འཁོར་	-7296
ཅོར་	-7297
དང་གཱ	-7298
པུའུ།	-7299
གདམས་	-7300
དང་གཱ་	-7301
གྲོས་མོ	-7302
▁ཟི་ལིང་	-7303
▁ཁྲོ་	-7304
རླབས་ཆེན་བསྐྱར་	-7305
བྲིས་	-7306
▁གྲུབ་	-7307
འབྱོ	-7308
ཀུང་སི།	-7309
བཅུ་གཅིག་པའི་	-7310
བཅོམ་ལྡན་འདས་ལ་	-7311
▁དགེ་རྒན་	-7312
མཐུན་འ	-7313
སྐད་འཕྲིན་	-7314
ཐེན་ཅིན་	-7315
ཚན་ཆུང་བགོས་ཏེ་	-7316
▁༧	-7317
ཕྱིར་འཐེན་	-7318
▁སྡོད་	-7319
རྒྱུས་ལོན་པ་	-7320
མང་ཚོགས་ཚོས་	-7321
དངུལ་འ	-7322
རྒྱལ་དམངས་	-7323
འཁྲུངས་	-7324
སྤྱི་ལེ	-7325
སྙམ།	-7326
དུས་རབས་ཀྱི་	-7327
དམིགས་ཡུལ་ནི་	-7328
སྤྱིར་བཏང་	-7329
སྔོན་ཆད་ཀྱི་	-7330
བཟོ་བཅོས་	-7331
▁ཝང་ཡུས་	-7332
ལྡན་པའི་སྒོ་ནས་	-7333
ཚུགས།	-7334
▁ཐེ་	-7335
དོན་ཐོག་ཏུ་	-7336
སྡུའི་	-7337
གཉེར་བ་	-7338
བར་འགྱུར་རོ།	-7339
▁རླུང་འཕྲིན་	-7340
བར་བྱའོ།	-7341
ཡང་དུ་	-7342
▁ལུས་ཀྱི་	-7343
རྩོམ་སྒྲིག་པ།	-7344
བསྐྱེད་པ་	-7345
ཞིག་ནས་	-7346
ལོངས་སུ་	-7347
▁མངའ་རིས་	-7348
འཐེ	-7349
བདག་གི་	-7350
རྒན་རྒོན་	-7351
༡༢	-7352
མི་རེའི་ཆ་སྙོམས་	-7353
ལོ་གཅིག་	-7354
དམའ་རུ་	-7355
ཀག་སྡོམ་	-7356
ཁྱབ་ཁོངས་སུ་	-7357
མཐའ་ཡས་	-7358
བསྡུར་ན་	-7359
མི་རབས་	-7360
ཕན་བདེ་	-7361
མི་སེར་	-7362
▁ཞི	-7363
མཐར་ཐུ	-7364
བཅུ་དྲུག་	-7365
གང་སར་	-7366
ཡའི་ཙུང་ཐུང་	-7367
དཔེ་མཚོན་	-7368
ཆུས	-7369
ཏང་ཨུ་དང་	-7370
ཁྱུ་	-7371
བདམས་	-7372
▁ཁ་པར།	-7373
བཙུགས་ནས་	-7374
བཞིན་པ།	-7375
སྔོན་མ་	-7376
ཀོལ་	-7377
མེད་ལ།	-7378
ཚུལ་གྱི་	-7379
རྫུ་འཕྲུལ་	-7380
སྒྲོལ་མ་	-7381
གྲྭ་བཙུན་	-7382
▁པའི་ཚེས་	-7383
ཁོར་ཡུག་གི་	-7384
▁1000	-7385
བྱེད་པ་སོགས་ཀྱི་	-7386
ང་གཙང་	-7387
ལ་སྐུལ་འདེད་བ	-7388
སྨིན་པ་	-7389
▁བྱིས་པ་	-7390
ལ་ཉ	-7391
▁ཡོད་པའི་	-7392
ལྡན་ཡོད།	-7393
ཆོས་བཟང་	-7394
ཧུར་ཐག་ག	-7395
ཚོམས་	-7396
▁ཏུ་	-7397
ལག་ལེན་བསྟ	-7398
ལྟ་སྐོར་	-7399
གྲོས་བསྡུར་བྱས།	-7400
རྡུ་	-7401
ཞིར་བ	-7402
རྒྱལ་ནང་གི་	-7403
བཀྲ	-7404
ཉམས་པ་	-7405
ཐོས་ཀྱི་	-7406
▁མཉམ་དུ་	-7407
བརྟན་ལྷི	-7408
ཞུ་བ་	-7409
ཀུང་ཟི	-7410
བྱུང་བས་	-7411
▁བཀོད་སྒྲིག་	-7412
ཐར་པའི་	-7413
བྱ་བར་བ	-7414
ལོག་པའི་	-7415
ཡིན་ཏེ་	-7416
ཤུར་	-7417
གྲིབ་	-7418
ཐོས་པ་	-7419
ངས་པ་དང་	-7420
▁ཨ་ཧྥུའུ་ཧན་	-7421
▁སྣང་ཆེན་བཞི་དང་	-7422
ཤིང་གི་	-7423
གསལ་བཤད་	-7424
▁ཡིན་ནའང་	-7425
རྩུ	-7426
སྐས་	-7427
ཕྱིར་མི་	-7428
རྒྱ་ཡིག་	-7429
དགའ་པོ་	-7430
རྒྱ་གར་གྱི་	-7431
རྡེབ་	-7432
ཀུའེ་	-7433
དབང་ཕྱུ	-7434
མ་འདྲེ	-7435
ཅིག་ཏུ་	-7436
འགྲུབ་པར་	-7437
འཛུལ་	-7438
མི་སྣ་དང་	-7439
རགས་ཙམ་	-7440
མཁའ་འགྲོ་	-7441
གཅིག་ཀྱང་	-7442
དཀའ་སྤྱད་	-7443
▁དེང་སྐབས་	-7444
ཧྭ་དྲ་བའི་	-7445
དར་ཆ་	-7446
ལ་སླེབས་	-7447
མཐོན་པོ་	-7448
བསྡུ་བའི་	-7449
འགྲོ་གྲོན་	-7450
▁ཏིང་ངེ་འཛིན་	-7451
གཙོ་བོར་བ	-7452
སྲོལ་འཐུས་	-7453
གཏོང་ཆེད་	-7454
ཆེས་མཐོའི་	-7455
▁གཞན་གྱི་	-7456
ག་པ་རེད།	-7457
ཕཊ་	-7458
འབྲི་རྫ་གསུམ་	-7459
མེ་སྐྱོན་	-7460
འགྱུར་ལྡོག་གླེ	-7461
གནས་ཚུལ་དང་	-7462
ལས་དང་	-7463
རིགས་རང་སྐྱོང་	-7464
སྐྱོན་བྲལ་	-7465
ཏག་	-7466
ཆེན་མོ	-7467
▁ནག་	-7468
སེམས་ཁྲལ་	-7469
▁ཡོ་རོབ་གླིང་	-7470
གྲོས་ཚོགས	-7471
གདེང་འཇོག་	-7472
འབྲེལ་པ་	-7473
སྡུག་གི་	-7474
ལ་བྱ་	-7475
ཞི་བདེ་དང་	-7476
མཚོན་ན་	-7477
འཁོར་རྒྱུག་	-7478
ཤོག།	-7479
ཁེ་སི་	-7480
ཁེ་ཆང་གིས་	-7481
▁ཤོག་	-7482
ཕོར་	-7483
ལོ་ལྟར་	-7484
▁ཨ་རིའི་	-7485
ཆུ་བོ་	-7486
ཏིག་	-7487
▁ལིའུ་	-7488
བྱ་བ་སྒྲུབ་	-7489
▁འདི་ལྟ་སྟེ།	-7490
ཤིག་ཏུ་	-7491
སྣའི་	-7492
ཤད་དོ།	-7493
བྱིན་གྱིས་བརླ	-7494
མ་ལུ	-7495
བྱས་ནས	-7496
གྲགས།	-7497
▁ཨོཾ་བཛྲ་	-7498
བླང་	-7499
དྷཱ	-7500
ཆོས་ཅན་	-7501
▁རྒ	-7502
▁བརྒྱ་	-7503
ལས་གཞན་	-7504
▁ཨུ་ཡོན་	-7505
སྟོད་དུ་	-7506
ཉེ་བའི་ལོ་	-7507
འཐུང་ཆུའི་	-7508
▁སྟོང་པ་ཉིད་	-7509
རྔ་བ་ཁུལ་	-7510
ང་གིས་བསྟན་དོན།	-7511
ཡར་རྒྱས་	-7512
གོང་།	-7513
འབའ་ཞིག་	-7514
ཀའོ་ལིས་ཀྱིས་	-7515
མགྲིན་ཚབ་པ་	-7516
ཉེས་ཅན་	-7517
གྱོད་དོན་	-7518
▁32	-7519
རེབ་གོང་	-7520
སྟེང་བ	-7521
དགེ་བཤེས་	-7522
ན་པ།	-7523
ག་གེ་	-7524
འབུར་དུ་	-7525
▁ཡོན་ཏན་	-7526
གྲོང་ཁྱེར།	-7527
ལྟས་ན།	-7528
ཀྲོང་	-7529
སྐྱིད་ཀྱི་	-7530
ཁྱབ་སྒྲོག་བྱས།	-7531
ངོས་སུ་	-7532
བཅུ་དགུ་བའི་	-7533
ཉར་ཚགས་	-7534
ཇི་ལྟར་བ	-7535
ཀླུང་	-7536
▁འདྲ་	-7537
ཟུང་ནས་	-7538
ཡོམ་འགོག་གེགས་	-7539
གྲོས་ཞིབ་ཏུ་	-7540
▁རྟེན་	-7541
མྱེད་དོ།	-7542
▁མེད་	-7543
▁འབྲི་	-7544
གཉིས་པར་	-7545
བརྗོད་པར་	-7546
ལྡེ་	-7547
སེལ་གྱི་	-7548
▁གཟའ་	-7549
ཇེ་ཆེར་བ	-7550
འཆར་བ	-7551
▁བྱ་བའི་	-7552
གྲོང་བརྡ	-7553
▁བྱེད་ཐབས་	-7554
ཕེབས་པའི་	-7555
ལེ་ཚན་	-7556
ཙོག་	-7557
ཟི་ལིང་དུ་བསྡུས།	-7558
གཙང་གསུམ་	-7559
ཕྲི	-7560
ཤུལ་བཞ	-7561
དགེ་སློབ་	-7562
ང་བཞི་བ།	-7563
འོང་བའི་	-7564
ལ་བཟོ་	-7565
▁ཕན་ཅི་	-7566
སྐྱེད་པ་	-7567
གདོད་	-7568
▁འཆི་	-7569
ཤོ་	-7570
ན་འཐུས་	-7571
▁འགྱུར་	-7572
མཐའ་སྲུང་	-7573
འདྲ་བར་	-7574
▁36	-7575
མོ་དང་	-7576
གས་ཏེ་	-7577
ཁྲོན་བོད་	-7578
ར་དྭ་	-7579
ཆམ་ཕབ་	-7580
བརྒྱུད་དེ་	-7581
ན་འཁོར་	-7582
ཆུ།	-7583
སྟོབས་ལྡན་	-7584
▁110	-7585
འཚོག་	-7586
ཤུགས་སྣོན་རྒྱག་	-7587
▁ཉེ་བའི་	-7588
ཐམས་ཅད་ནི་	-7589
བྱེད་ཐུབ་	-7590
ལ་བ་རེད།	-7591
▁ཞང་	-7592
མང་ཚོགས་དང་	-7593
▁གཟུ	-7594
འོང་བ་	-7595
དེས།	-7596
ཆོས་ལ་	-7597
▁ཕྱག་རྒྱ་	-7598
དྲ་ཚིགས་	-7599
ཡིན་གྱི།	-7600
▁བྱུང་	-7601
རེ་ཞིག་	-7602
འགུག་	-7603
རློམ་	-7604
ཡིད་ཚི	-7605
ཉོན་མོངས་པའི་	-7606
▁སཱ	-7607
དག་དང་	-7608
བག་ཆགས་	-7609
▁བདེ་བ་	-7610
ཝང་ཅན་ཅུན་སོགས་	-7611
▁དཀར་མཛེ	-7612
རླག་	-7613
▁རྨང་གཞིའི་	-7614
ནམཚོ་སྔོན་	-7615
བོད་རིག་པ་	-7616
བླ་ན་མེད་པ་	-7617
ལྷུང་བ	-7618
ལམ་ཐིག་	-7619
བརྒྱུད་བསྒྲགས་	-7620
མི་ཆོག་པ་	-7621
འཕྲོད་བསྟེན་དང་	-7622
གདན་ཞུ་	-7623
སྨན་གྱི་	-7624
ཡུལ་སྐོར་གྱི་	-7625
མཚོན་རྟགས་	-7626
རྒྱུན་ཨུ་སོ་སོ་	-7627
འཐུས་མི་ཆོས་བཟང་	-7628
མི་རྣམས་	-7629
མཐོ་རིམ་མ	-7630
བདེ་ལས་ཀྱང་	-7631
ཐོན་བམཚོ་སྔོན་	-7632
སྐོར་ལ་	-7633
▁ལྷ་ས་	-7634
▁འཇམ་དཔལ་	-7635
སྲིད་གཙང་	-7636
ཚོད་བ	-7637
རྒྱུད་བ	-7638
མིང་ཐོ་	-7639
བོད་ལ་	-7640
མིན་པ་	-7641
ཚེ་བརྟན་	-7642
ཐིང་གི་	-7643
སོ་སོར་བ	-7644
ཕྱོགས་བསྒྲི	-7645
ཇེ་མཐོར་བ	-7646
ཕན་པའི་	-7647
གཅིག་ཉིན་	-7648
▁བྱང་ཆུབ་ཀྱི་	-7649
བྱིན་པ་	-7650
སྦྱར་རོ།	-7651
ཡན་ལག་བ	-7652
མཐུན།	-7653
▁མཐོ་རིམ་	-7654
བྱ་ཆེད་	-7655
དང་བཅས་པའི་	-7656
▁བདག་ཉིད་	-7657
བྱས།།	-7658
འོ་ཞེས་	-7659
སྲོལ་ཡིག	-7660
བྱེད་དགོས་ལ།	-7661
▁2011	-7662
▁སློབ་གསོའི་	-7663
▁རིམ་པ་སོ་སོའི་	-7664
ར་དྭ་ཏིའི་	-7665
མགོ་ཁྲིད་པའི་	-7666
▁གཏེར་	-7667
ཚུན་དུ་	-7668
ནུས་པ་གལ་ཆེན་	-7669
འདུ་ཤེས་བ	-7670
ལས་བརྒལ་	-7671
ཅིབ་	-7672
རྟུ	-7673
འཛིན་བཟུང་	-7674
མཉེན་	-7675
བྱེད་ཆེད།	-7676
ཞིག་ཡིན་པའི་	-7677
སྤྱི་དམངས་	-7678
ཆས།	-7679
རྨང་གཞི་བརྟན་པོ་	-7680
བྱེད་པ་སོགས་	-7681
པའ	-7682
ང་བཅོས་	-7683
ལྡན་བུ་	-7684
ནེ་པ་	-7685
མ་གྲུབ་	-7686
རང་ཉིད་ཀྱིས་	-7687
བྲལ་བའི་	-7688
ལས་ལ་	-7689
▁ཡང་དག་	-7690
གཏོགས་པ་	-7691
▁སྐྱིད་	-7692
སོགས།	-7693
འཛིན་པ།	-7694
གཏོང་རྒྱུ་དང་།	-7695
ཧྭའི་	-7696
རང་འགུལ་ངང་	-7697
ལྷག་གི་	-7698
ཡ༷	-7699
བྱེད་པའི	-7700
འཕེལ་བར་	-7701
ཉི་འོད་	-7702
འཇར་མན་	-7703
ཨུ་རུ་སུའི་	-7704
▁བཙན་	-7705
ས་གཞི་	-7706
▁ཝུའུ་དབྱིང་ཅེས་	-7707
གཞུག་ཏུ་	-7708
ཆེད་ལས་མཉམ་ལས་	-7709
རྩོམ་པ་པོ་	-7710
བཏོན་པ་རེད།	-7711
▁སྣ་ཚོགས་	-7712
སྨྲས་སོ།	-7713
བསྡུས་ནས་	-7714
ཕྱིར་དང།	-7715
སྔོན་དཔག་	-7716
གསར་འཛུགས་	-7717
མྱེད་པའི་	-7718
ཆེ་བས་	-7719
བབས་	-7720
གཞན་པ་	-7721
ཁོར་ཡུག་ག	-7722
དེ་གཉིས་	-7723
▁སྤྱིར་	-7724
▁རེད	-7725
▁5000	-7726
སློབ་མས་	-7727
ག་བཤེར་	-7728
ཐེག་པ་ཆེན་པོ་	-7729
▁བདུ	-7730
གཏན་འཁེ	-7731
ཅུན་གྱིས་	-7732
སྤང་བར་	-7733
▁ཡིན	-7734
ཐག་བཅད་	-7735
རྨས་སྐྱོན་	-7736
མྱུར་ཚད་	-7737
ཉེན་རྟོག་པ་	-7738
སུ་ཞིག་གིས་	-7739
རབ་དང་རིམ་པའི་	-7740
རྫས་འགྱུར་	-7741
ལ་འགན་སྲུང་	-7742
བྱ་བ་ནི་	-7743
འབྲིང་རིམ་	-7744
ཁང་གསར་	-7745
འཕྲེ	-7746
ལུས་སྦྱོང་	-7747
▁ད་ལྟའི་	-7748
ཞུས་པ་རེད།	-7749
ནས་ཡོང་བའི་	-7750
རི་ཉིལ་བའི་	-7751
མུའུ་ཁྲི་	-7752
ལས་སྒོ་	-7753
ཚོང་རའི་	-7754
ཇི་སྲིད་	-7755
▁ཡིད་ཀྱི་	-7756
ཀུན་ཁྱབ་	-7757
ཐལ་མོ་	-7758
གསུམ་པར་	-7759
སྨོན་པ་	-7760
27	-7761
མཁན་ལ་	-7762
སྤྲུལ་པ་	-7763
རྩོད་པ་	-7764
རྒྱུན་ལས་ཨུ་ཡོན་	-7765
ཞིབ་འཇུག་དང་	-7766
གཏོང་དགོས་ཟེར།	-7767
མཉ	-7768
བོད་ལྗོངས་དྲ་བ།	-7769
▁མྱ་ངན་	-7770
▁རྣམ་པར་ཤེས་པ་	-7771
དེ་ཙམ་	-7772
▁གདུ	-7773
ཤཱ་རིའི་བུ་	-7774
▁ཕྱི་རོལ་	-7775
གས་བ	-7776
▁ལིས་	-7777
རྣམ་པར་སྣང་	-7778
སྤོབས་པ་	-7779
ཐེར་འདོན་	-7780
བྱེད་རྒྱུ་དེ་	-7781
ནི།།	-7782
ལས་འདས་	-7783
གྲེས་	-7784
གླེང་།	-7785
སྐྱེས།	-7786
རེ་སྒུག་	-7787
གློག་འདོན་	-7788
ཕྱུག་འགྱུར་གྱི་	-7789
གྲོང་སྡོད་	-7790
▁སྐྱེ་བ་	-7791
▁གོ	-7792
རྟའི་	-7793
བྱས་ཡོད་པ་དང་།	-7794
འགག་སྒྲོལ་	-7795
ཟླས་	-7796
རྒྱལ་མཚན་གྱིས་	-7797
ཟློག་	-7798
གཅིག་པུ་	-7799
རྣམ་པར་དག་པའི་	-7800
ཆེད་བ	-7801
ཕན་ཐོགས་	-7802
ཚན་པས་	-7803
འགྲེམས་ཚོགས་	-7804
མི་འགྱུར་རོ།	-7805
▁སྤྲོ་	-7806
དོ་དམ་གྱི་	-7807
གནམ་གྲུའི་	-7808
གཏོང་དགོས་པ་དང་།	-7809
ཀོས་	-7810
གཙོ་གནད་དུ་	-7811
མགོན་པོ་	-7812
▁པའི་ཟླ་	-7813
ཧ་ཅང་ཆེན་པོ་	-7814
སྲོང་བ	-7815
དྲ་རྒྱ་	-7816
མི་ཉུང་བ་	-7817
གཉིས་ཏེ།	-7818
ཡོད་པར་བ	-7819
དེ་ཁོ་ན་ཉིད་	-7820
ཡིན་ནོ།།	-7821
གནོད་ཐེབས་	-7822
ཁི་སི་ཐན་གྱི་	-7823
འགན་གཙང་	-7824
▁2010	-7825
གནང་སྐབས་	-7826
དབྱུ	-7827
▁ཕྱིས་	-7828
རྒྱལ་ཁབ་ཅེས་པའི་	-7829
སྲེས་	-7830
ད་ཐེངས་	-7831
▁ཆ་འཕྲིན་	-7832
འོས་འཚམ་	-7833
ན་བཞི་	-7834
རྗོད་པ་རེད།	-7835
▁བྷ	-7836
▁སྟག་	-7837
ནུབ་རྒྱུད་	-7838
▁འགྲིམ་འགྲུལ་	-7839
ཡིད་དབང་	-7840
པས	-7841
དྲུག	-7842
བུར་དུ་	-7843
མྱ་ངན་ལས་འདས་པ་	-7844
མདུན་སྐྱོད་	-7845
དྲིལ་སྒྲོ	-7846
བདེ་འཇགས་དང་	-7847
ང་བ་ནི་	-7848
དེ་ཡི་	-7849
པིན་	-7850
འར་	-7851
▁ཟིན་ཡོད།	-7852
བྱ་རྒྱུ་ནི་	-7853
འདེགས་སྐྱོར་	-7854
ལོ་ཆུང་	-7855
མཆིས་	-7856
ས་བླ་	-7857
ལས་བྱེད་པར་	-7858
▁500	-7859
ཟི་ལིང་ནས་བསྡུས།	-7860
ངེས།	-7861
རྫུན་	-7862
༢༧	-7863
ཞིང་བྲན་	-7864
▁90	-7865
ཕན་འ	-7866
འབད་པ་	-7867
དཔལ་གྱི་	-7868
སྟོབས་ཀྱིས་	-7869
བྱེད་ས་	-7870
མི་རེར་	-7871
རྩོམ།	-7872
ཆོས་ཅན།	-7873
སྤུན་ཟླ་	-7874
དགོངས་དོན་དང་	-7875
ཕུན་ཚོགས་	-7876
རྒྱུད་འཛིན་	-7877
མི་ཐེངས་ཁྲི་	-7878
ཡུལ་གྱ	-7879
རྒྱུན་རྣམ་	-7880
དཀྲོ	-7881
སྤུངས་	-7882
བསྡུའི་	-7883
བརྒྱ་ཆ	-7884
ང་གཙོ་	-7885
འཆར	-7886
བཙུགས་ཏེ་	-7887
ཕུག་ལམ་	-7888
ཟིགས་	-7889
དང་བྲལ་བ་	-7890
▁ཁྱོད་ཀྱིས་	-7891
▁38	-7892
དོན་དང་	-7893
མཐོང་ནས་	-7894
སྐབས་དང་པོའི་	-7895
ཁང་པའི་	-7896
དུས	-7897
གཤིན་	-7898
སྒྲིག་གཞིའི་	-7899
བྱ་བའོ།	-7900
མདོ་སྡེ་	-7901
▁ཞི་ཅིན་ཕེན་	-7902
ལ་འཇི	-7903
དྲ་སྦྲེལ་	-7904
དབང་བསྐུར་	-7905
ཐོན་ཁུངས་ཀྱི་	-7906
ཁང་སོགས་	-7907
བཞིར་	-7908
ཡོངས་དང་	-7909
ཐབས།	-7910
ཅན་དུ་བ	-7911
རུང་།	-7912
ཁྲིད་བ	-7913
དཀྱུས་	-7914
རྟེན་གྱི་	-7915
འདེམ་བསྐོའི་	-7916
▁ལྟ་སྐུལ་	-7917
མེད་པ་ནི་	-7918
མཇུག་སྒྲི	-7919
ཆ་ཤས་	-7920
ལ་འདུ	-7921
དེ་ལྟ་བུའི་	-7922
དཀྲི	-7923
གྱུར་ཅིག།	-7924
▁ཞལ་	-7925
ཁོང་ཚོའི་	-7926
ལྡན་བ	-7927
གཉེར་བའི་	-7928
སྨྲ་བའི་	-7929
▁ཆུང་	-7930
དཔོན་གྱི་	-7931
▁ཡོད	-7932
དགོན་སྡེའི་	-7933
ང་གཉིས་དང་	-7934
▁ཆབ་སྲིད་ཀྱི་	-7935
བྱས་ཏེ	-7936
འཕེལ་རྒྱས།	-7937
སེམས་ཀྱི་ཉི་ཟླ་	-7938
ཚོང་ལས་	-7939
བསྲུ	-7940
འཁོར་དུ་	-7941
ཏྭ	-7942
ད་ལྟར་	-7943
གསོལ་ཏོ།	-7944
རྫོང་རིམ་པའི་	-7945
ཐོན།	-7946
དང་མི་རིགས་	-7947
སྤེལ་ཏེ་	-7948
འཕྲལ་སྡོམ་	-7949
བྱས་ནས་ལོ་	-7950
རླབས་པོ་ཆེ་	-7951
རྒྱུའི་རེ་བ་	-7952
ཟུག་	-7953
དུའང་	-7954
ཁོར་ཡུག་དང་	-7955
མཚོན་ཡོད།	-7956
ཡར་ཞུ་	-7957
པའམ་ཡང་ན་	-7958
ཉིང་ལག་	-7959
དྲ་ཐོག་	-7960
བོད་ཁུལ་གྱི་	-7961
དོན་དག་	-7962
ཁྲིམས་མཐུན་	-7963
ཁྱབ་པར་	-7964
རམས་པའི་	-7965
བཀའ་དྲིན་	-7966
རྒྱུ་ཡིན་པ་དང་།	-7967
དུས་དང་	-7968
▁གེ་	-7969
ཚུལ་བཞིན་	-7970
ལ་བུ་	-7971
ཁྱེད་ཀྱི་	-7972
ང་བར་འགྱུར་	-7973
སྔགས་པ་	-7974
འཁོར་ལོའི་	-7975
ར་བཟོ་	-7976
▁གསུམ་ནས་	-7977
རྒྱལ་ཚོགས་ཀྱིས་	-7978
སྩོ	-7979
དག་པ་	-7980
ནད་གཞི་	-7981
ཟེངས་བསྟོད་	-7982
ཀའ་དྲིན་	-7983
གྱིའོ།	-7984
སྔར་བས་ཆེ་རུ་	-7985
ཞག་ནས་	-7986
ཟིང་	-7987
ན་འདུག	-7988
▁འཆར་འགོད་	-7989
ཕ་རོལ་དུ་	-7990
ཐལ།	-7991
▁བག་	-7992
▁མཚོ་བོད་	-7993
ཕྱི་རོལ་གྱི་	-7994
ཡི་གེའི་	-7995
ཨུ་ལྷན་གྱིས་	-7996
བྱས་པར་བ	-7997
དེང་རབས་ཅན་གྱི་	-7998
དམིགས་སུ་	-7999
དུས་རབས་གསར་བའི་	-8000
ཤུགས་བསྣན་	-8001
ཕེབས་ཏེ་	-8002
མ་ཐག་ཏུ་	-8003
ཐམས་ཅད་ཀྱང་	-8004
ལས་རིགས་ཁག་གི་	-8005
སྨར་	-8006
ཡིན་ཞེ་ན།	-8007
གཏན་ལ་ཕབ་	-8008
ལྷུང་བཟེ	-8009
▁མཚན་མ་	-8010
གྲངས་འབོར་	-8011
▁སཱ་	-8012
བསྟན་དོན།	-8013
▁སྲིད་གཞུང་གི་	-8014
དང་གཱ་བཟོས་པའི་	-8015
མཐོ་བ་	-8016
ཕྱོགས་གཉིས་ཀྱི་	-8017
ཇེ་ཉུང་དུ་	-8018
▁མཁར་	-8019
དཔེ་མཛོད་	-8020
སུན་	-8021
དམ་པོ་	-8022
རྡོ་རྗེས་	-8023
▁བློ་བཟང་	-8024
ཁྲུའུ་ཡི་	-8025
མཐར།	-8026
གྱིས་བསྟན་དོན།	-8027
▁+	-8028
ས་པ་རེད།	-8029
བཅངས་པའི་	-8030
གོམས་གཤིས་	-8031
▁》《	-8032
ཉན་ཐོས་ཀྱི་	-8033
ནི་འདི་	-8034
ལམ་ལ་	-8035
ཀོད་སྒྲིག་ག	-8036
གླེང་སྟེགས་ཀྱི་	-8037
དང་རང་	-8038
ཧིན་རྡུ་	-8039
ཏང་འཛུགས་སྐྱོང་	-8040
པའི་ཚེས་	-8041
མཇུག་འབྲས་	-8042
གྲོང་རྡལ་དུ་	-8043
58	-8044
ལ་སྲུང་སྐྱོང་	-8045
བྱས་རྗེས།	-8046
བདེ་སྲུང་	-8047
ཁྲའོ་ཞན་གྱིས་	-8048
ལྟ་རྟོག་	-8049
▁ཡང་དག་པའི་	-8050
རྨང་གཞིའི་ཐོག་	-8051
ཁྱད་ལྡན་ཐོན་ལས་	-8052
སེར་པོ་	-8053
ཉམས་ཉེན་	-8054
ཞེ་སྡང་	-8055
མེད་པས།	-8056
▁དང་པོ་ནི།	-8057
ཞག་པའི་	-8058
སྡུས་པའི་	-8059
རྡི	-8060
རོགས་སྐྱོ	-8061
ལྷུང་	-8062
ལྷོ་ཁུལ་གྱི་	-8063
▁གོས་	-8064
འགན་བཅོ	-8065
ཁོ་རེ་ཡ་	-8066
པའོ།།	-8067
ཉིན་བར་	-8068
ཡོང་ཆེད་	-8069
▁ཧི་	-8070
ཆེན་པོ་དང་	-8071
▁བྱ	-8072
▁དབྱི་ར	-8073
གང་ཟ	-8074
སློབ་གླིང་	-8075
མོ་ནས་	-8076
སྐེ་	-8077
གྱིས་བཤད་རྒྱུར།	-8078
ལོ་གསར་གྱི་	-8079
ཆོས་ཀྱི་དབྱིངས་	-8080
སོང་སྟེ་	-8081
བོད་ཀྱི་སྐད་ཡིག་	-8082
ཨང་དང་པོར་	-8083
ར་བསྒྲུབ་	-8084
སྟན་ཏོ།	-8085
གཉིད་	-8086
འདུས་པའི་	-8087
གཤེགས།	-8088
མཐུན་པར་	-8089
▁ཉེ་དུས།	-8090
ཞུགས་པ།	-8091
ཆོད་སེམས་	-8092
ནང་བསྟན་གྱི་	-8093
མཁས་པས་	-8094
ཚོགས་ཆུང་གིས་	-8095
དག་ལས་	-8096
ཚམས་འདྲི	-8097
མི་འགྱུར།	-8098
སུའུ།	-8099
ཕྱོགས་སུ་བ	-8100
▁ལག་རྩལ་	-8101
▁སྐབས་དེར་	-8102
དགེ་མཚན་ལྡན་པའི་	-8103
ལེགས་སྒྲིག་དང་	-8104
འབར་བ་	-8105
ལ་སོགས་པ་ལ་	-8106
▁ཉིས་སྟོང་བཅུ་	-8107
▁ཉེ་བའི་ལོ་འགའི་	-8108
▁༢༠༡༨	-8109
སྤྱི་འདོམས་	-8110
གྲྭར་	-8111
ཙོང་ཁ་	-8112
▁ཁ་ཅིག་	-8113
སྤྲུལ་པའི་	-8114
འཁོར་བཅུ་	-8115
▁སྙན་ངག་	-8116
མར་འ	-8117
སོང་ནས།	-8118
གནས་ཚུལ་སྤེལ་	-8119
སྲུང་དང་	-8120
ང་གསུམ་གྱི་	-8121
▁དབུས་	-8122
▁ནན་	-8123
སྤྱི་དང་	-8124
ནང་མི་	-8125
ནད་ཀྱི་	-8126
དག་ཉིད་	-8127
བདུན་པ་	-8128
ན་བརྒྱབ་ནས་	-8129
ཧྲང་ཧེ་	-8130
ཞེས་བྱ་བ་ལ།	-8131
▁ཞིབ་	-8132
▁དེར་བརྟེན་	-8133
ཤེས་པ་དང།	-8134
སྟི་	-8135
དབང་པོ་སྐྱོན་ཅན་	-8136
ཐིང་གིས་	-8137
ཞིང་ཆེན་ཏང་ཨུ་	-8138
▁དམ་	-8139
རྒྱབ་པའི་	-8140
ཧུར་ཐག་སྒོས་	-8141
འཕྲིན་གྱི་	-8142
སྐབས	-8143
དུས་བཀག་	-8144
དེ་བས་མང་བ་	-8145
ཀྲེན་	-8146
ཁོངས་གཏོགས་ཀྱི་	-8147
▁ཐོན་	-8148
གླེང་བ།	-8149
དྲ་ཐོག་ནས་	-8150
ལ་བའོ།	-8151
ན་ནིང་	-8152
▁མཐའ་མཚམས་	-8153
གོ་ལ་ཧྲིལ་པོའི་	-8154
▁སློབ་སྦྱོང་	-8155
བྱ་དགོས་	-8156
ཐིན་གྱིས་	-8157
ཡུལ་སྐོར།	-8158
ཁ་ཅིག་	-8159
བརྒྱ་ཆ་	-8160
སྤྱད་པ་	-8161
ཉེན་བ	-8162
▁མིག་སྔའི་བར་	-8163
▁དོ་དམ་	-8164
ཇོ་མོ་གླང་མའི་	-8165
བྱ་འགུལ་སྤེལ།	-8166
རྒྱལ་པོས་	-8167
ཝུན་གྱིས་	-8168
གཡུང་	-8169
ཧང་	-8170
ན་འགྲོ་	-8171
རྨོངས་	-8172
ངོ་མ་	-8173
དཔྱད་རྩོམ་	-8174
ལྟ།	-8175
ཐང་།	-8176
བྲལ་བ་	-8177
ལྡེབས་རིས་	-8178
སི་རི་ཡའི་	-8179
ཉིས་སྟོང་བཅོ་	-8180
གྲོལ་བ་	-8181
ཤེས་པས་	-8182
▁34	-8183
▁གཅིག་ནས་	-8184
མ་ནས་	-8185
གཅིག་གྱུར་འ	-8186
སྨིན་པར་	-8187
ལས་རྣམ་པར་	-8188
ལའ	-8189
འཇོག་དང་	-8190
མཛད་པར་	-8191
▁བླ་མ་	-8192
རྩལ་འཁྲབ་སྟོན་	-8193
༡༡	-8194
ཐབས	-8195
འགལ་གྱི་	-8196
▁འབྲོག་	-8197
མི་བྱེད་	-8198
སླད་ཕྱིན་	-8199
▁དེ་རྗེས་	-8200
འབྱུང་ཁུངས་	-8201
ཅན	-8202
དེ་སྔའི་	-8203
དེས་བ	-8204
སྤྲོའི་	-8205
ཞུགས་ཏེ་	-8206
རླངས་འཁོར་གྱི་	-8207
རི་འཛེ	-8208
ད་གཟོད་	-8209
སྦས་	-8210
མི་རུང་།	-8211
རི་བོའི་	-8212
ང་གློ	-8213
རིག་པར་	-8214
གཤོ	-8215
▁ཨན་	-8216
འགྲན་བསྡུ	-8217
མི་བྱའོ།	-8218
གཅིག་གྱུར་གྱི་	-8219
གཤེགས་པས་	-8220
ནན་ཏན་སྒོས་	-8221
ཅུད་	-8222
ཚོགས་ལ་	-8223
དང་བླངས་	-8224
ལོའི་ལོ་	-8225
བཏི	-8226
▁མཛེས་ལྗོངས་	-8227
ཚེ་སྲོག་	-8228
མཚོ་ནུབ་	-8229
ནན་གྱིས་བསྟན།	-8230
ང་གཞན་	-8231
ལ་བཤེར་	-8232
▁༡༩	-8233
གྲུབ་འབྲས་བ	-8234
སྤར་	-8235
དཔེར་ན་	-8236
བྱེད་པ་པོ་	-8237
ཡོད་ཅེས་བཤད།	-8238
ནང་ཞུགས་པའི་	-8239
རྡོག་	-8240
བསམ་ཕྱོགས་	-8241
▁གསར་འགོད་པར་	-8242
བྱ་བ་དང་	-8243
འཐུས་མིས་	-8244
གྱིད་	-8245
ཙམ་ལ་	-8246
9-0	-8247
ཕྱིར་ཏེ།	-8248
ནིང་གི་	-8249
མཉམ་པ་	-8250
རམ་འདེགས་	-8251
ཕཱ་ལེ་	-8252
མྱོང་།	-8253
སློབ་གླིང་གིས་	-8254
གཏོང་རྒྱུ་དེ་	-8255
ཉམས་གསོ་	-8256
རྙོག་འཛིང་	-8257
ནན།	-8258
ན་ལས་	-8259
གཞི་འཛིན་	-8260
ཕོ་བྲང་པོ་	-8261
ཞི་བར་	-8262
མཚུངས་པར་	-8263
ཕན་ཚུན་བ	-8264
ཚེ་སྲོ	-8265
བེ་	-8266
.4%	-8267
ཞན་ཆ་	-8268
ཚད་མེད་	-8269
ཡིད་དུ་	-8270
ལྔ་བརྒྱ་	-8271
རུ།	-8272
རིམ་པས་	-8273
ཁར།	-8274
ནི་མ་ཡིན་ནོ།	-8275
▁གཙང་	-8276
རྣམ་པར་ཤེས་པའི་	-8277
དཀར་མཛེ	-8278
ཏང་བ་དང་	-8279
སྒྱུར་བར་	-8280
པེ་ཅིང་ནས་	-8281
▁ཡོད་པ་དང་།	-8282
རྫི་	-8283
རྒྱས་པའི་	-8284
▁འཐུས་མི་	-8285
▁33	-8286
འཛམ་གླི	-8287
མནའ་འབྲེལ་གྱིས་	-8288
རྫོང་གིས	-8289
ཏང་གི་མང་ཚོགས་	-8290
ཆད་པའི་	-8291
ཐོབ་ནས་	-8292
ལུས་དང་	-8293
▁འཇ	-8294
ཐོགས་པ་	-8295
ངེས་ཀྱི་	-8296
སྡེ་ཚན་གྱི་	-8297
སྙེ་	-8298
ཐོག་མ་དེ་	-8299
ཡར་བ	-8300
སྐད་ཀྱི་	-8301
ལེ་ཞི་	-8302
▁མཁས་པ་	-8303
སྐྱེལ་འདྲེ	-8304
ལྭ	-8305
ལོར།	-8306
གནོད་འཚེའི་	-8307
གཟུང་	-8308
སྤྱོད་ཡུལ་	-8309
སྐོར་གྱི་བསམ་འཆ	-8310
གནས་དང་	-8311
སྲིད་གཞུང་།	-8312
ཞིག་ཡིན་ཞིང་།	-8313
བོང་	-8314
▁ཁོང་གི་	-8315
ནས།།	-8316
ལྡན་པར་	-8317
ཐ་མ་	-8318
ཁེ་ལས་དང་	-8319
འབོར་གྱི་	-8320
དགའ་ཞེན་བཞིའི	-8321
གཞི་གྲངས་	-8322
གནས་སྤོ	-8323
ཡོད་ཀྱང་	-8324
འཛིན་པ་དང་	-8325
ཡུལ་གཞན་དུ་	-8326
ཐུམ་འབུའི་	-8327
ལྟ་ཚུལ་	-8328
▁འདུ་བྱེད་	-8329
དམག་གིས་	-8330
གསན་	-8331
ཆུ་ཚོད	-8332
ལ་འཚམས་འདྲི་བྱས།	-8333
སྦོམ་	-8334
ཉེ་ཆར་	-8335
▁གཅན་	-8336
འཐབ་ཇུས་ལག་བསྟར་	-8337
▁གཉེན་	-8338
སྦྱིན་སྲེག་	-8339
▁མིའི་	-8340
གྲོལ་བའི་	-8341
རྣམ་པ་སྣ་ཚོགས་	-8342
9-1	-8343
ཁྲུས་	-8344
ཐོན་ཡོད།	-8345
རྟན་ལྷིང་	-8346
ལྷ་མོའི་	-8347
གྱུར་ཏེ།	-8348
མ་དངུལ་གཏོང་	-8349
ཚོགས་པའི་ཡན་ལག་	-8350
ལ་འཇབ་རྒོལ་	-8351
ན་རྡོ་རྗེ་	-8352
མཉམ་ལས་ལ་	-8353
▁རིམ་ཁག་	-8354
ཕྱི།	-8355
ཁི་སི་ཐན་	-8356
▁སྤུས་ཚད་	-8357
དངོས་མང་སྟོན་	-8358
ལྟ་སྟེ་	-8359
▁མི་དམངས་ཀྱི་	-8360
དུས་ནས་	-8361
▁ཟིན་ནས་	-8362
འཕང་	-8363
མཁས་པར་	-8364
གྲོང་དུ་	-8365
སྒོ་འ	-8366
དབུ་བརྙེས་ནས་ལོ་	-8367
ཆེན་རྫོང་	-8368
མཐུན་ཚོགས་ཀྱིས་	-8369
གྲོང་ཁྱེར་ནས་	-8370
རིམ་པར་	-8371
▁ཞིབ་བཤེར་	-8372
འདུ་ཤེས་དང་	-8373
རྟི	-8374
མནན་	-8375
ཆེ་བར་	-8376
དབན་	-8377
▁མཐོང་	-8378
བདག་དབང་	-8379
▁དེ་རིང་	-8380
དགའ་བར་	-8381
ཁག་ཅིག་	-8382
50	-8383
▁སྔོ་	-8384
▁འཚོ་བའི་	-8385
▁དགེ་སློ	-8386
ཁོ་རེ་ཡའི་	-8387
▁ཧན་གོ་	-8388
▁དེ་དག་གིས་	-8389
ཚོང་ཁང་	-8390
འཕྲད་པའི་	-8391
▁འགྲན་	-8392
ཕྱོགས་གཉིས་	-8393
11	-8394
ཕུལ་དུ་	-8395
ཚུལ་བསྟན་པ།	-8396
ཚུབ་	-8397
སྲ་བརྟན་	-8398
མ་འོངས་པའི་	-8399
རྐུ་	-8400
གང་བ	-8401
▁དབྱར་	-8402
དུམ་བུ་	-8403
ཁས་ལེན་གང་ལེགས་	-8404
དག་པའི་	-8405
མཛེས་ལྗོངས་ཁུལ་	-8406
▁འདས་	-8407
མཚོ་སྔོན་དུ་	-8408
སྡེ་ཁུལ་གྱི་	-8409
ད་ལོར་	-8410
ལ་བར་འགྱུར་	-8411
བྱ་བའི་ཕྱིར།	-8412
བྱས་པའི	-8413
ལ་ཁ་གཏད་	-8414
འདི་ལྟ་བུ་	-8415
ཤེས་ལྡན་མི་སྣའི་	-8416
ཨཱ་	-8417
▁དགེ་རྒ	-8418
འདུ་བྱེད་	-8419
དཀའ་ཚེགས་	-8420
འདུས།	-8421
སྟ་	-8422
▁མདའ་	-8423
▁འཚོ	-8424
ཁང་བཅས་	-8425
མཐའ་ཡ	-8426
ནས་བབ་	-8427
ཡོང་ནས་	-8428
▁ལུང་	-8429
འདོགས་	-8430
འཁོར་བ་	-8431
▁དགོས་	-8432
འབད་འབུ	-8433
གཏོད།	-8434
གཉའ་	-8435
གྱངས་	-8436
རིས་ཀྱི་	-8437
ཕ་མ་	-8438
འདུལ་བ་	-8439
ག་པ་ལ་	-8440
མཚེས་	-8441
དབང་བོ་སྐྱོན་ཅན་	-8442
འགྲེམས་སྤེལ་	-8443
ཝུའེ་	-8444
སྙན་ང	-8445
▁སྒྲུབ་	-8446
ས་ཚིགས	-8447
▁གླེང་	-8448
རང་རེའི་	-8449
ལོང་	-8450
▁དྲ	-8451
▁ཚོར་བ་	-8452
▁མི་དམངས་དྲ་བ།	-8453
▁ཏ	-8454
གཏུམ་	-8455
གཟིགས།	-8456
▁བསྡུ་	-8457
མོས་པ་	-8458
ལེན་པར་	-8459
ང་ཞའོ་	-8460
མ་ལག་གི་	-8461
དགེ་བའི་རྩ་བ་	-8462
ང་གནང་བ་རེད།	-8463
རིང་བ	-8464
ཡིག་རྒྱུགས་	-8465
ཧྲོ	-8466
སྐྱིལ་	-8467
སྤྱི་ཡོངས་	-8468
འཆར་འགོ	-8469
▁3000	-8470
ཚད་དང་	-8471
སྤོང་བ་	-8472
རིག་གནས་ཐོན་ལས་	-8473
ན་འདེབས་	-8474
གླེང་མོལ་	-8475
ཡོད་མོད།	-8476
ནི་མ་	-8477
གཟེངས་	-8478
ཉི་ཤུའི་	-8479
ཉེན་རྟོག་པས་	-8480
ས་བསམ་	-8481
འགོ་ཁྲིད་པའི་	-8482
གང་རུང་	-8483
གཡོག་	-8484
སྒྱུར་བཅོས་ཀྱི་	-8485
ཞི་མཐུན་	-8486
▁ཁ	-8487
ཅེས་བྱ་བར་	-8488
▁དགེ་འདུན་	-8489
▁དྭ	-8490
▁ཞེས་གསུངས་པ་	-8491
དབུལ་པོར་	-8492
ག་བླ	-8493
གེགས་སེལ་	-8494
དབྱིན་ཇི་	-8495
འདས་པ་	-8496
▁ལོའི་ཀྲུང་གོའི་	-8497
བྱས་ཐོག་	-8498
སློབ་གཉེར་	-8499
སྲུང་སྐྱོབ་ཀྱི་	-8500
བྱེད་སྐབས།	-8501
ཉིན་མོའི་	-8502
ཡིག་བསྐུར་	-8503
བདག་གིས་	-8504
▁བསམ་གཏན་	-8505
▁རོང་འབྲོག་	-8506
▁རྒྱུ་མཚན་	-8507
སྐོར་སྐྱོད་	-8508
གྲོས་དཔོན་	-8509
▁རང་ལྗོངས་	-8510
▁ཐོག་མར་	-8511
ཐུགས་ཁུར་དང་	-8512
ཁྱོན་ཡོངས་ཀྱི་	-8513
ཞེས།	-8514
ངོགས་	-8515
ཙུང་ཐུང་གིས་	-8516
ནང་བཅུ	-8517
མ༷་	-8518
བྱས་པར།	-8519
དྲུང་དུ་	-8520
▁ཆེད་དོན་	-8521
བྱིན་གྱིས་	-8522
ཕྱིན་པ་དང་།	-8523
རྫས།	-8524
གསར་བ་དང་	-8525
ཆེད་མངགས་	-8526
འགྱེ	-8527
དམ་དུ་	-8528
ཡོད་ཅེས་གསུངས་	-8529
སུང་	-8530
ལ་བདེ་འཇགས་	-8531
ས་བཟོ་	-8532
འདིར་བ	-8533
ག་བུ	-8534
ལོགས་	-8535
བཙན་པོའི་	-8536
ཧེ་རུ་	-8537
▁ང་རང་	-8538
འདུས་ཏེ་རེག་པའི་	-8539
ཕོ་བྲང་པོ་ཏ་	-8540
▁དྲུག་	-8541
▁ཁུ་	-8542
ཉེས་གསོག་	-8543
ཆུང་ངུ	-8544
ཞུགས་པར་མ་ཟད་	-8545
གཞི་རིམ་དུ་	-8546
རྗེས་མར་	-8547
ཁོང་དུ་ཆུད་པར་	-8548
ཁྱུང་	-8549
ལྡོག་པའི་	-8550
བཟུང་བའི་	-8551
མཆིས།	-8552
བསམ་གཏན་	-8553
▁མགོ་ལོག་	-8554
ས་སྐྱ་	-8555
▁དོན་འཁྱོལ་	-8556
དངུལ་ཁང་གི་	-8557
▁བུ་མོ་	-8558
ཆུང་གྲས་	-8559
རིམ	-8560
སྟངས།	-8561
ཞེས་བྱ་བས་	-8562
ཆར་བ	-8563
འགོ་ཚུགས་པའི་	-8564
བྷཱ	-8565
ཐབས་ཀྱི་	-8566
སླེབས་པ།	-8567
▁འཕགས་པའི་	-8568
དབང་བཅོ	-8569
▁རྩེ་	-8570
ཏན་ཏིག་བ	-8571
ཇུས་གཞི	-8572
ཉིད་ཀྱང་	-8573
འཕྲུལ་གྱི་	-8574
▁ལས་ཁུངས་	-8575
▁ཅི	-8576
དོན་གཉེར་	-8577
▁བྲག་	-8578
གནོན་ཤུགས་	-8579
སྟོང་པ་ཉིད་དང།	-8580
ནོར་སྲིད་ཀྱིས་	-8581
འདའ་	-8582
▁རྩོམ་རིག་	-8583
བསྟ	-8584
རྒྱ་སྐད་	-8585
བསྐྱེད་པའི་	-8586
▁700	-8587
སྐུལ་སློ	-8588
ན་འགོད་	-8589
མགྱོགས་པོ་	-8590
▁ཡུན་	-8591
ར་འགག་	-8592
གྲོས་ཚོགས་སུ་	-8593
ཀློག་པ་	-8594
བཟོད་	-8595
ར་བློ་མཐུན་	-8596
དྲང་སྲོང་	-8597
ཙུགས་པའི་	-8598
ལྷུན་གྲུབ་	-8599
གནོད་འཚེ་ཕོག་	-8600
ཐ་ན་	-8601
ཏང་ཡོད།	-8602
འཕིགས་	-8603
དོན་དམ་པར་	-8604
དོ་དམ།	-8605
རིག་ནུས་	-8606
བྱེད་ཅིང་	-8607
རྣམ་ཤེས་	-8608
མཁས་དབང་	-8609
དུས་ཡུན་རིང་	-8610
ནའོ།	-8611
སྙན་སེང་	-8612
▁ཨ་མེ་རི་ཁས་	-8613
སྲུང་གི་	-8614
སྐྱེ་བར་	-8615
ཆེད་མཁས་པ་	-8616
▁གཤམ་	-8617
ཕྲལ་	-8618
▁བཅོས་སྒྱུར་	-8619
བ༷་	-8620
ཏམ་	-8621
རང་དགར་	-8622
▁ཁྱིམ་ཚང་	-8623
▁བོད་ལུགས་	-8624
▁དེབ་	-8625
ང་གཉིས་ཀྱིས་	-8626
དང་རྩོམ་རིག་	-8627
ཉི་ཞི་	-8628
ཁྱིམ་ཚང	-8629
འདུས་པ་	-8630
མཐུན་སྒྲིལ་གྱི་	-8631
གསེང་	-8632
ལ་བར་བ	-8633
གླ་ཕོགས་	-8634
སྐྱར་དུ་	-8635
འབེབ་	-8636
ཧན་གོའི་	-8637
▁ནོར་བུ་	-8638
གཞུང་ལམ་གྱི་	-8639
བསྟན་ཏོ།	-8640
ལྔ་པོ་	-8641
▁སོ་སོར་	-8642
ཞུགས་པ་དང་།	-8643
ལུའོ་	-8644
དྲིལ་བུ་	-8645
དཔའ་བོའི་	-8646
དང་ཀྲུང་གོའི་	-8647
འོས་མི་	-8648
ད་ལྟའི་བར་	-8649
ལངས་ཕྱོགས་	-8650
དབང་ཆ་སྤྲ	-8651
ཁྲོད་བ	-8652
རྣམ་ཐར་	-8653
▁གསུམ།	-8654
བྱེད	-8655
ཞེན་པ་	-8656
སྤྲོས་	-8657
བསྒོམ་པ་	-8658
བཱ	-8659
ནོར་བུའི་	-8660
▁དྲ་རྒྱའི་	-8661
▁ལ་སླེབས་པའི་	-8662
དཱ	-8663
▁སྙིང་རྗེ་	-8664
ལ་ལྟོ	-8665
རམ།	-8666
ང་རང་	-8667
དཔྱ་ཁྲལ་	-8668
སར་གྱི་	-8669
འདང་	-8670
བསྐྲུན་པ།	-8671
ལག་རྩལ་གྱི་	-8672
▁ཚེ་རིང་	-8673
བྱེད་སའི་	-8674
བཅས་ཡིན་པའི་	-8675
མང་ཆེ་བ་	-8676
གྲགས་ཆེན།	-8677
སྡོད་དམངས་	-8678
▁95	-8679
ཟིན་ཐོ་	-8680
སྡེ་ཚོགས་	-8681
མི་གྲངས	-8682
སྲ་བརྟན་དུ་	-8683
ཤྭ	-8684
ཀ་རྩེ་	-8685
ཙམ་ཡང་	-8686
གཅ	-8687
ཆེད་སྤྱོད་	-8688
ཏེན་	-8689
ཞིང་འབྲོག་པ་	-8690
ཛ་དྲ	-8691
ལག་ག	-8692
▁བཅོམ་ལྡན་འད	-8693
དྷི	-8694
▁སྟོན་	-8695
སྒྲུབ་ཀྱི་	-8696
སི་ཁྲོན་ཞིང་ཆེན་	-8697
ཁ།	-8698
ཞབས་ཕྱི་	-8699
སླེབས།	-8700
དང་ནི་	-8701
▁ཁྲིམས་འཛིན་	-8702
འཐབ་ཇུས་ཀྱི་	-8703
ས་བྲ	-8704
སློབ་སྦྱོང་གི་	-8705
འཇུ་	-8706
འདུག།	-8707
▁གཞི་རྩའི་	-8708
▁སྐྱེས་བུ་	-8709
དཀོན་མཆོག་	-8710
འདི་ལོ་	-8711
▁བེ	-8712
མ་བྲ	-8713
སྤྱན་རས་	-8714
གཙིགས་	-8715
དང་བོད་ཀྱི་	-8716
ཐག་བཅད།	-8717
མི་དགོས་པར་	-8718
▁ཅེས་བཤད།	-8719
ར་སྤྲོད་	-8720
▁སྟོབས་ཤུགས་	-8721
རྟ་རྒྱུག་	-8722
ལ་འགངས་	-8723
▁ཟིན་པ་དང་།	-8724
དམུ	-8725
ཕུགས་འདུ	-8726
མཐོང་བས་	-8727
▁ཚྭ	-8728
སེམས་དཔ	-8729
གསལ་འ	-8730
ནང་དོན།	-8731
འཇམ་དབྱངས་	-8732
ན་བརྒྱ་	-8733
མཆོག་གིས་	-8734
གང་མང་	-8735
མིན་པར་	-8736
▁ཐོན་སྐྱེད་	-8737
དང་མ་	-8738
▁ཁག་	-8739
འཁྱིལ་	-8740
སོན་པའི་	-8741
པར་འགྱུར་ཏེ།	-8742
▁ལས་ཀའི་	-8743
▁ལམ་ལུགས་	-8744
▁ཁ་པར་	-8745
▁སོང་	-8746
རྐྱེན་གྱི་	-8747
ཇེ་བརྟན་དུ་	-8748
ཨཱཿ	-8749
▁ས་ཆ་	-8750
གྲུབ་ཆའི་	-8751
ཁང་གིས་བ	-8752
སྙེན་པར་	-8753
རྒྱལ་མཚ	-8754
དམ་པའི་ཆོས་	-8755
▁ནུས་	-8756
བརྒྱད་ཀྱི་	-8757
ཤེས་བཟོ་	-8758
བདུན་གྱི་	-8759
སྤྲས་	-8760
▁ཚགས་པར།	-8761
ཀག་འགོག་	-8762
གྲོང་ཚོ།	-8763
ཡོང་གི་	-8764
དང་འཕེལ་རྒྱས་	-8765
འཆད་པར་	-8766
རྗེས་སུ་དཔ	-8767
▁གང་གི་ཚེ་	-8768
འཆར་གཞིའི་	-8769
བཏང་བ་དང་	-8770
ཁོ་ནས་	-8771
རྣམས་ལས་	-8772
ངོས་གྲུ་	-8773
རོམ་	-8774
ལག་བསྟར་བྱས་ཏེ་	-8775
ཀོལ་སྤྱོད་བྱས་	-8776
▁མཁོ་	-8777
འབུལ་བའི་	-8778
རྗེས་མའི་	-8779
འཁྱགས་	-8780
ལ་བདག་པས་	-8781
འདུས་ཏེ་རེག་པ་	-8782
ཡང་དག་པར་བ	-8783
ཏའི་	-8784
འཛུགས་པ།	-8785
འབངས་	-8786
ལ་རྒྱལ་ཁ་	-8787
▁འདོད་པ་	-8788
ཟིན་ནས་	-8789
ཐོབ་པ་དང་།	-8790
རྐོ་	-8791
མཚོན་པ་	-8792
གཞུང་ལུགས་ཀྱི་	-8793
རེ་རེའི་	-8794
ཆེ་བ་དང་	-8795
རྒྱུད་རིམ་	-8796
གྲོག་	-8797
ཡུལ་དངོས་སུ་	-8798
དཔེར་ན།	-8799
▁སྲིད་གཞུང་	-8800
ནི་དེ་	-8801
རང་བཞིན་དུ་	-8802
ངས་པ་དང་།	-8803
བྱིས་པར་	-8804
▁དོན་དངོས་	-8805
ཤྲ	-8806
ཆས་ཀྱི་	-8807
པུར་	-8808
▁ཉམས་	-8809
གསུང་ཐུགས་	-8810
▁དམངས་འཚོ་	-8811
ཁམས།	-8812
ལྡན་པ་དང་	-8813
གསོ་བ་	-8814
མེད་དོ་	-8815
མི་དམིགས་	-8816
ཐང་ཆེན་དུ་	-8817
ཁྱེའུ་	-8818
བའི	-8819
འཁུ	-8820
མཇལ་འཕྲད་གནང་བ།	-8821
ལ་ཕན་	-8822
ཟིན་ཡོད།	-8823
ཡོངས་སུ་དག་པ་	-8824
རྩིས་བྱས་ན་	-8825
འཇིག་པ་	-8826
ལ་ཞིབ་བཤེར་	-8827
སྤྲོད་ཀྱི་	-8828
བཅར་	-8829
ཐིན་གྱི་	-8830
གཅིག་མཐུན་	-8831
འབད་འབུངས་	-8832
འབུར་ཐོན་	-8833
▁ས་གནས་དེ་གའི་	-8834
ཡོད་པ་དེ་	-8835
ཤེ་ན།	-8836
ཕྱོགས་དང་མཉམ་དུ་	-8837
ལྡུ	-8838
མི་སྒེར་	-8839
སྐོར་བ་	-8840
དམངས་སྲོལ་	-8841
▁རྫ་	-8842
བྱུང་ཡོད་པ་རེད།	-8843
▁ཚུལ་	-8844
གས་སོ།	-8845
ཕྲག་བ	-8846
ཧྲེན་	-8847
ཐིན་དང་	-8848
ལྗང་མདོ	-8849
མཐིལ་	-8850
དུས་ན་	-8851
དོན་ཆེན་	-8852
▁དེ་དང་ཆབས་ཅིག་	-8853
ལྗིད་	-8854
གཟུངས་	-8855
གཉིས་བར་	-8856
སྔ་ཕྱི་	-8857
▁སྲིད་འཛིན་	-8858
རྟགས་ཅན་གྱི་	-8859
ཡོད་པ་སྟེ།	-8860
ཁ་གསབ་རོགས་དངུལ་	-8861
དམངས་གཉེར་	-8862
མགོ་བརྩམས་པ།	-8863
ལྟེ་བ་	-8864
ཀྲུང་ཧྭ་མི་རིགས་	-8865
དོན་གྱིས་	-8866
▁བཤད་	-8867
ཞུས་ཏེ་	-8868
ཨེ་ཤ་ཡ་	-8869
▁ཕྱུགས་	-8870
པོད་	-8871
གན་རྒྱ་དང་	-8872
དབུལ་སྐྱོ	-8873
གཙོ་བོ་དང་	-8874
སྐོས་	-8875
ཚོགས་སུ་	-8876
ལོ་གསུམ་	-8877
▁གཞི་རིམ་གྱི་	-8878
ཉི་ཟླའི་	-8879
ཚེས་ཉིན་	-8880
ལ་དགའ་	-8881
སློབ་ཆེན་གྱིས་	-8882
སྤོབས་	-8883
▁འཐབ་ཇུས་	-8884
འཛུགས་སྐྱོང་གི་	-8885
སྡེ་ཚན་ཁག་གིས་	-8886
ཟིན།	-8887
མི་ཁྲི་	-8888
བོད་སྨན་	-8889
རྣམས་ལ་བ	-8890
སྒྲིགས་	-8891
▁བྱེད་སྒོ་	-8892
མཆོད་པའི་	-8893
འཕྲོད་བསྟེན།	-8894
▁དབྱ	-8895
དཔག་ཚད་	-8896
ཕྱིར་རོ་	-8897
ཅོག་	-8898
ཀླད་	-8899
ཁྱིམ་གཞིས་	-8900
ངང་འཕེལ་རྒྱས་	-8901
▁ཁྲིམས་སྐྱོང་	-8902
དངོས་གནས་	-8903
བྱེད་རྒྱུ་དང་།	-8904
མཚུངས།	-8905
གདན་འ	-8906
བསམས་	-8907
གཙང་སེལ་	-8908
བསྡུར་ཚད་	-8909
སྦྱར་བར་	-8910
རྗོད་ཀྱི་	-8911
རྒྱད་པ་	-8912
ཐེངས་དང་པོའི་	-8913
▁ཡུ	-8914
ཧིན་རྡུ་ཉི་ཞི་	-8915
དང་རིག་གནས་	-8916
ལ་གྲོས་ཞིབ་	-8917
གསོན་ཉམས་	-8918
བཏང་བ་རེད།	-8919
འཁྱུར་	-8920
བཅས་བྱས་ཏེ།	-8921
རྒྱུད་ལ་	-8922
▁ལས་གཞི་	-8923
ཟབ་སྦྱོང་	-8924
ཆུང་བ	-8925
གཞུང་བ	-8926
རྩིའི་	-8927
▁༩	-8928
ལ་འདོད་	-8929
རྙིང་པ་	-8930
ཤུགས་རྐྱེན་ཐེབས་	-8931
ལྟས་ན་	-8932
▁ནམ་མཁའི་	-8933
▁དབྱི་རག་	-8934
ས་ཆའི་	-8935
གཉིས་པོ་	-8936
ཐག་བཅད་དེ་	-8937
འགན་འཁུར་བ་	-8938
གཉིས་ཕན་	-8939
ལ་གཞིགས་	-8940
རྱ	-8941
ཙུགས་ནས་	-8942
▁བོད་རིགས་	-8943
▁རང་རྒྱལ་	-8944
ལའེ་	-8945
ཀྲུང་ཧྭ་མི་དམངས་	-8946
ཏི་ཨ་རབ་	-8947
ཨ་ཧྥུའུ་	-8948
རིགས་ཁག་གི་	-8949
ལ་དམིགས་ཏེ་	-8950
འགོག་སྲུང་	-8951
གནས	-8952
▁ཁྲའོ་ཞན་	-8953
▁གང་དག་	-8954
པར་དབ	-8955
▁ཚྭ་	-8956
མཚོན་བྱེད་	-8957
ང་གཏོང་	-8958
སེམས་བསྐྱེད་	-8959
འཐུས་ཚ	-8960
▁གཞན་དུ་	-8961
རྟོག་ཞིབ་བྱས།	-8962
ཚངས་	-8963
གཏོང་བཞིན་	-8964
ནི་ཆོས་ཀྱི་	-8965
ཞིག་ཡིན་པས་	-8966
འདི།	-8967
མང་ཙམ་	-8968
▁སྤྱི་བདེ་	-8969
ནུས།	-8970
ད་མེད་ཚེ་	-8971
ཡང་ཡང་	-8972
སྲིད་ཇུས་བ	-8973
ག་གཏོད་	-8974
དང་དཔལ་འབྱོར་	-8975
དངུལ་ལོར་	-8976
▁གྲོང་ཚོའི་	-8977
གློག་འཕྲིན་བ	-8978
ཨར་ལས་	-8979
▁ཉོན་མོངས་པ་	-8980
▁ཆ	-8981
▁གྲོང་ཚོར་	-8982
མ་ལག་བ	-8983
ཡིན་པའི་ཕྱིར།	-8984
འབུམ་བ	-8985
སྒོར་ཐེར་	-8986
▁ཕྱི་འབྲེལ་	-8987
གཞོང་	-8988
▁ཟིན་པ་དེ་	-8989
ཐང་གའི་	-8990
▁དེ་ལས་མང་།	-8991
ར་འཚོལ།	-8992
ནི༷	-8993
མི་རུང་བའི་	-8994
▁ཁེ་	-8995
▁ལྷག་ཙམ་གྱི་	-8996
ལྗོན་	-8997
ཚད་ལོན་	-8998
རྩལ་བ	-8999
དང་བཀོད་སྒྲིག་	-9000
མྱུ་	-9001
གང་དང་	-9002
སྲུང་འཛིན་	-9003
ཡོངས་རྫོགས་	-9004
ཨེར་ཏེ་	-9005
ཞེས་བྱ་སྟེ།	-9006
རླངས་འཁོར་བ	-9007
ལམ་དང་	-9008
རྩོད་ཀྱི་	-9009
ཟེར་བའི་	-9010
རྒྱ་ཆེར་བ	-9011
▁འཁྲབ་	-9012
ཁྱོད་ལ་	-9013
དབང་པོའི་	-9014
གྱུར་པས་	-9015
▁དེ་དག་ནི་	-9016
▁གསོ་སྦྱོང་	-9017
▁ཏིང་	-9018
སྡུག་བསྔལ་གྱི་	-9019
མ་བུ་	-9020
▁ཡུན་ནན་ཞིང་ཆེན་	-9021
ས་ཁུལ་ལ་	-9022
གསར།	-9023
རང་ལྗོངས་ཀྱིས་	-9024
▁”“	-9025
འཚོགས་པ་རེད།	-9026
ཁྲིམས	-9027
ར་བྲི	-9028
གཞུང་གི་	-9029
གསུང་འབུམ་	-9030
དགོངས་འཇགས་	-9031
ཅོན་གྱིས་	-9032
འཛུགས་སྐྲུན་ཐད་	-9033
ན་བླ་	-9034
རྣམ་པར་དག་པ་དང།	-9035
བཞི་པོ་	-9036
སྒྲུབ་པ།	-9037
ཁྱམས་	-9038
མེད་ལ་	-9039
▁རྨ་ཆེན་རྫོང་གི་	-9040
ཁ་གསལ་	-9041
མོས་མཐུན་	-9042
▁རྐྱེན་ལམ་དུ་ཤོ	-9043
གསར་བར་	-9044
▁ཀྲུང་དབྱང་དམག་	-9045
▁དེ་ཕྱིར་	-9046
བའམ་	-9047
སྒོམ་པའི་	-9048
ཆ་ཚ	-9049
འདིར།	-9050
སྦྱོར་གྱི་	-9051
དར་གོས་	-9052
འཕེལ་བ་	-9053
གྲོས་རིམ་	-9054
ཟའི་	-9055
ལ་ཐབས་	-9056
མེས་རྒྱལ་གྱི་	-9057
སྤོ་ལོ་	-9058
གསལ་བསྒྲགས་	-9059
ཚད་སྤྱི་ལེ་	-9060
སྡོམས་འབོར་	-9061
ཡུལ་ལ་	-9062
▁དུག་	-9063
བཞི་བཅུ་	-9064
རེ་འདུན་	-9065
གསར་གཏོད་དང་	-9066
རེངས་	-9067
སུ་ཞིག་གིས་ཀྱང་བ	-9068
ཤད་པར་	-9069
དབུ་ཚོགས་	-9070
ལྡན་པའི་འཚོ་བ་	-9071
བ་པར་	-9072
མཛད་དོ།	-9073
▁སྨྲས་པ།	-9074
བཅའི་	-9075
ཚོགས་འདུ་ཚོགས།	-9076
གཞི་གཅིག་	-9077
ཤེས་ལྡན་པའི་	-9078
ལྟ་ན་	-9079
བྱང་བུ་	-9080
ཡུང་གིས་	-9081
▁གཞོན་ནུ་	-9082
ཚོང་ཟོག་	-9083
སོང་ཡོད།	-9084
སྔ་གཞུག་ཏུ་	-9085
དམིགས་ཏེ་	-9086
ཕུད།	-9087
ཇི་ལྟ་བུ་	-9088
▁ལ་བ	-9089
གཞོན་པ་དང་	-9090
ན་བརླིང་	-9091
ང་བར་བྱའོ།	-9092
ཨ་མ་	-9093
▁ཡུལ་ཤུལ་	-9094
▁ངག་	-9095
དགའ་བོ་	-9096
འགྲོ་བཞིན་པའི་	-9097
ཟམ་ཆེན་	-9098
གུང་ཁྲན་ཏ	-9099
དགོངས་འཇགས་ཞུ	-9100
ཟག་པ་	-9101
ལ་བརྟེན་ནས།	-9102
མྱ་ངན་ལས་འད	-9103
ལ་སོགས་པར་	-9104
གནོད་སྐྱོན་ལ་	-9105
སློབ་འབྲིང་	-9106
དབྱི་སི་རལ་གྱི་	-9107
གྲོས་མཐུན་བ	-9108
ཕྱོགས་ཁག་གི་	-9109
ས་བཟོ	-9110
ལ་སོགས་པ་སྟེ།	-9111
སྒོ་ནས་བ	-9112
ཆོད་པའི་	-9113
ས་བརྗོད་	-9114
སྲི་	-9115
སློབ་གསོ།	-9116
རླན་	-9117
▁ལས་ཀྱི་	-9118
ཞི་བདེའི་	-9119
སྐོར་ཞིག་	-9120
མི་རྣམས་ཀྱིས་	-9121
བསམ་འཆར་བ	-9122
རྒྱུའི་སྐོར་གྱི་	-9123
▁ཕྱ	-9124
ཞིང་འབྲོག་ལས་	-9125
མིང་དང་	-9126
ནང་ཞུགས་མཁན་	-9127
འོངས་	-9128
བསྒོམས་	-9129
སློབ་ཆུང་	-9130
སིང་ག་	-9131
དབང་བའི་	-9132
མ་གནས་	-9133
བཅུ་བདུན་	-9134
▁དྲིལ་བསྒྲགས་	-9135
སྙེན་བཀུར་	-9136
ང་གཞ	-9137
འོན་	-9138
འགྲེལ་པ་	-9139
འོས་པའི་	-9140
ལེགས་སྒྱུར་	-9141
ལ་ལས་	-9142
▁འདུ་ཤེས་བ	-9143
ཕོ་ཉ་	-9144
ག་གིས།	-9145
ཞིས་ཅིན་ཕིང་གི་	-9146
▁ཧྥེ་	-9147
འཁྲུལ་	-9148
གཏི་མུག་	-9149
ས་གཤིས་	-9150
འགུགས་	-9151
སྨོས་སོ།	-9152
བྱས་ཐོག	-9153
བྱེད་ཅིང་།	-9154
ལོ་ལྔ་	-9155
▁གཅིག་ནི་	-9156
▁གང་དུ་	-9157
པེ་ཅིན་དུ་	-9158
མི་དམངས་ཀུན་ཁྱབ་	-9159
གཡར་	-9160
ལག་ལེན་གྱི་	-9161
▁དུ	-9162
ལ་འཇུག་	-9163
གྲུབ་མཐའ་	-9164
གཙོ།	-9165
འགྲོས་	-9166
དམའ་བའི་	-9167
བསྟན།	-9168
དབུས་ཤར་	-9169
ཡིག་ཆ་ཨང་དང་པོ།	-9170
ཧྲུའུ་ཅིའི་	-9171
འདུལ་	-9172
གཉིས་པ།	-9173
▁ཨར་	-9174
རྫོང་ནས་	-9175
▁ཧན་གོའི་	-9176
▁ནང་དོན་	-9177
ཆོག་པ་	-9178
ཡུལ་ལྗོངས་	-9179
ཞུགས་པ་རེད།	-9180
▁ཝང་གོ་	-9181
ཉེས་དོན་	-9182
ཡོ་བ	-9183
གྱུར་ན་	-9184
ལྷོ་ཁུལ་གྱིས་	-9185
▁གཡོ	-9186
ཟེར་རོ།	-9187
འཁེལ་	-9188
མིང་གི་	-9189
ཅེས་བྱའོ།	-9190
▁མཚན་ཉིད་	-9191
རྩུབ་	-9192
རྒྱུན་ཨུ	-9193
འབྱུང་གནས་	-9194
▁མི་རིགས་ཀྱི་	-9195
ཕྱོགས་ཁག་	-9196
མཆན་བཀོད་མཛད།	-9197
དཔུང་སྡེའི་	-9198
▁གཡས་	-9199
རྒྱུན་ལྡན་	-9200
གལ་ཆེན་ཞིག་ཏུ་	-9201
བཅས།	-9202
ཅུས་ཀྱི་ཅུས་	-9203
མན་ངག་	-9204
ཧྲིལ་པོ་	-9205
ཨོ་སི་ཁྲུ་ལི་	-9206
སྐྲག་	-9207
རྒོལ་གཏམ་བ	-9208
མཐོ་ཤོས་	-9209
ཟིན་པ་དང་	-9210
གུལ་	-9211
མུན་	-9212
སྲ་བརྟ	-9213
ཚད་ལྡན་དུ་	-9214
ཚོགས་འདུར་ཕེབས་	-9215
བྱས་པ་ལས་	-9216
འཕྲོ་བའི་	-9217
རྫོང་ཡོངས་ཀྱི་	-9218
རྒྱལ་ཡོངས་སུ་	-9219
གྲོས་མཐུ	-9220
སི་ཐན་དང་	-9221
གྲོན་ཆུང་	-9222
བྲི་	-9223
གང།	-9224
གསལ་བོར་	-9225
ཝུའུ་དབྱིང་	-9226
དམག་འཁྲུག་	-9227
▁གངས་ལྗོངས་	-9228
རེའུ་	-9229
དྲོ་སྐྱིད་	-9230
ཁྲེ་	-9231
▁[2019-0	-9232
ག་གན	-9233
ཁང་གིས	-9234
འདུན་པ་	-9235
དྲོད་ཚད་	-9236
▁རྨང་གཞི་	-9237
▁ཟིན་པའི་	-9238
▁བཞིན་	-9239
སྨྱོ	-9240
རྣོ་	-9241
ཧན་གྱི་	-9242
▁ཚད་གཞི་	-9243
སེམས་ཁམས་	-9244
༣༧	-9245
ཆེས་ཆེ་བའི་	-9246
▁ལོ་ནས་བཟུང་	-9247
ཤི་རྨས་	-9248
སླེབས་ཡོད།	-9249
▁གུང་	-9250
ལྷ་སར་འ	-9251
▁ཆོས་ཐམས་ཅད་	-9252
བཏུང་	-9253
མི་ཟ་	-9254
▁ཁྱོད་ཀྱི་	-9255
འབྲེལ་གཏུགས་	-9256
▁•	-9257
▁གཏོང་	-9258
སྨྱན་བྱད་	-9259
འདི་འདྲ་	-9260
བྱེད་དགོས་ཤིང་།	-9261
དམྱལ་བ་	-9262
ལྟེ་གནས།	-9263
མ་ཡིན་པས་	-9264
བྱུང་ན་	-9265
▁གྲུབ་འབྲས་	-9266
དམན་པ་	-9267
མཁན་པོ་	-9268
དཔལ་ལྡན་	-9269
ལེ་ཚན།	-9270
ལག་བསྟར་བྱས་ཏེ།	-9271
འདི་དག་ནི་	-9272
▁ཁྱད་པར་དུ་	-9273
▁ཉན་ཐོས་	-9274
ལག་ཤེས་བཟོ་	-9275
༢༥	-9276
བསམ་པའི་དཔལ་ཡོན་	-9277
གཉེན་པོ་	-9278
སྡོད་རང་	-9279
སྤྱི་ཚོགས་ཀྱིས་	-9280
ཆེ་ཞིང་	-9281
མིང་གིས་	-9282
མདའི་	-9283
སྙམ་པ་	-9284
ཆོས་དང་	-9285
ཡོད་པ་ནི་	-9286
ས་ནི་	-9287
ལྟེ་གནས་ཀྱིས་	-9288
དགོས་མ	-9289
ཁྲེང་ཏུའུ་	-9290
རྨ་ཆུའི་	-9291
▁སྣང་	-9292
མེ་གསོད་	-9293
མཉན་	-9294
རུང་བའི་	-9295
▁སྦྱོར་བ་	-9296
ཚོང་རྟགས་	-9297
ཙམ་ལས་	-9298
ཕྱེད་ཀ་	-9299
▁རྔ་	-9300
▁༢༠༡༧	-9301
▁ཤེས་པ་	-9302
བྱེད་མཁན་གྱི་	-9303
དབུལ་སྐྱོར་དང་	-9304
གནས་སོ།	-9305
གྲུ་བཞི་མ་	-9306
ཞུད་	-9307
འགས་གཏོར་	-9308
འཕྲལ་དུ་	-9309
▁མུ་མཐུད་དུ་	-9310
▁མཛོ	-9311
▁མའོ་	-9312
རྩོད་གཞི་	-9313
ཤང་དུ་	-9314
སྙིང་གར་	-9315
རྩ་འཛུགས་དང་	-9316
ཤག་	-9317
མཉམ་པ་ཉིད་	-9318
▁པོ་	-9319
▁འབྲེལ་གཏུག་	-9320
▁དགེ་སློང་དག་	-9321
ཉེ་བ་	-9322
ལ་བརྩོ	-9323
རྒན་པ་	-9324
ད་བྲ	-9325
འགྲོ་བ་དང་	-9326
ཐོག་ནས་བ	-9327
སྲོལ་སྲིད་གཙང་	-9328
ཅེས་བྱ་བའི་	-9329
སུའོ་	-9330
ལོངས་སུ་སྤྱོད་	-9331
སྒྲིག་སྦྱོར་	-9332
25	-9333
དབེན་	-9334
དཔོན་གཞོན་པ་	-9335
སྐྱོད།	-9336
▁བརྩེ་	-9337
གཏན་འགོག་	-9338
▁མཛེས་སྡུག་	-9339
ང་བར་འ	-9340
ཏང་ཀྲི་པུའུ་	-9341
ག་གམ་	-9342
ཆ་འཕྲིན་ལག་རྩལ་	-9343
ཀླུའི་	-9344
▁སྐྱེས་	-9345
▁ཡོ་རོབ་	-9346
བུ་ཕྲུག་	-9347
ལ་ཉེ་བའི་	-9348
སྤྱན་རས་གཟིགས་	-9349
▁ཁྱབ་	-9350
བྱང་གི་	-9351
800	-9352
གལ་ཆེན།	-9353
སྤོང་	-9354
▁འཇིག་རྟེན་གྱི་	-9355
▁དང་པོ།	-9356
གང་ཐུབ་	-9357
འཇགས།	-9358
བོད་ཀྱི་རིག་གནས་	-9359
སྤོ་ལོའི་	-9360
ཀས་	-9361
ཞིང་ལས་དང་	-9362
ངམ།	-9363
ལ་སྤྱོད་པའི་	-9364
མེད་ཀྱང་	-9365
རྒྱ་ཆེན་པོ་	-9366
▁ཨེ་ཤ་	-9367
▁རྒྱབ་	-9368
ཕུའུ་ཅིན་གྱིས་	-9369
ཏང་ཡོན་གྱི་	-9370
▁གང་ལ་	-9371
རལ་གྲི་	-9372
བྱེད་ན་	-9373
ཅིག་ཅ	-9374
དང་དེའི་	-9375
ཏྤ	-9376
ཚན་ཆུང་	-9377
མེད་པ་རེད།	-9378
བས་བ	-9379
འེ།	-9380
▁པད་མ་	-9381
གྱོན་ཆས་	-9382
སྦྱོང་གི་	-9383
གྲོས་ཁང་གི་	-9384
མིག་དཔེ་	-9385
སྟོད་པ་	-9386
ཤུགས་ཆེ་	-9387
མཚོན་གྱི་	-9388
▁སྤྱི་ཚོགས།	-9389
▁གཙུག་	-9390
ཀྲུའུ་ཞི་གཞོན་པ།	-9391
ཚིག་དང་	-9392
གཞན།	-9393
སླེབས་པ་	-9394
བར་ཐག་	-9395
རྣམ་རྒྱལ་	-9396
▁མཇུག་	-9397
མི་འཐད་	-9398
▁ཡན་ལག་	-9399
མངགས་གཏོང་	-9400
ཕན་བ	-9401
དུད་ཚང་དབུལ་པོ་	-9402
ལྷུ་ཚིགས་	-9403
▁རྡོ་རྗེ་བསམ་	-9404
འཛིན་པར་	-9405
གཉིས་པ་བསྡུས།	-9406
▁ལྷ་མོ་	-9407
རྩྭ་ཐང་གི་	-9408
གནང་བཞིན་	-9409
མ་ཧཱ་	-9410
༤༡	-9411
ལ་ན་	-9412
རྒྱུ་བ་	-9413
རྒྱ།	-9414
དྲ་བར་	-9415
ཡིན་ནམ།	-9416
ཚུལ་རེད།	-9417
▁དབྱི་ལི	-9418
ང་གཙང་པོའི་	-9419
ཧུར་ཐག་གཏོ	-9420
བསྡོམས་རྩིས་	-9421
སྨན་པའི་	-9422
འབྱུང་ངོ།	-9423
གདངས་	-9424
ཆད་གཅོད་	-9425
ཆོད་བ	-9426
ཏང་ཙུ	-9427
▁དམར་	-9428
▁ཧོར་	-9429
▁བྱམས་པ་	-9430
ཞིབ་བཤེར་དང་	-9431
ཕྱི་མའི་	-9432
འགོད་པའི་	-9433
▁བྱམས་	-9434
འདུག་པ་	-9435
ཨུད་དང་	-9436
▁——	-9437
དམག་བ	-9438
འགྱུར་མེད་	-9439
༣༦	-9440
ལྔར་	-9441
▁གེ་སར་	-9442
འཛུགས་པར་	-9443
ལག་བསྟར་ནན་མོ་	-9444
ཡོད་པར་མ་ཟད།	-9445
ཡིས་བསྟན་དོན།	-9446
བྱ་སྟེ་	-9447
བཀྲ་ཤི	-9448
བསྟར་	-9449
དཔེ་སྐྲུན་ཁང་།	-9450
གཱ	-9451
ལག་བསྟར་གཏིང་ཟབ་	-9452
▁རྒན་	-9453
གཡུར་དུ་	-9454
སྐོར་ནས་	-9455
དལ་	-9456
▁ཞོ	-9457
ཨེ་ཤེ་ཡའི་	-9458
ཕྱིན།	-9459
སྙམ་དུ་སེམས་	-9460
འཚམ་པའི་	-9461
▁ཝུའུ་ཁི་	-9462
ནོར་གྱི་	-9463
ན་བྲི	-9464
མཐོང་རྒྱུ་	-9465
ང་བཀྲ་ཤིས་	-9466
ག་པར་བྱའོ།	-9467
འཛུགས་པ་དང་།	-9468
ཨ་མེ་རི་ཁས་	-9469
ལ་གནས་པ་	-9470
▁གཉིས་པ།	-9471
ནན་གྱི་	-9472
ཉིང་གིས་	-9473
ཉམས་འགྱུར་	-9474
ས་ན་	-9475
ལྷུག་	-9476
གྲོལ་འགག་	-9477
ངོས་ནས་བརྗོད་	-9478
མཚམས་ཀྱི་	-9479
ཛ་དྲག་	-9480
ཟླ་རེར་	-9481
ལྕགས་ཀྱུ	-9482
ལྕགས་ལམ་གྱི་	-9483
ལ་ཤུགས་རྐྱེན་	-9484
དགྲ་ལྷས་	-9485
བྱེད་པའི་བྱ་བ་	-9486
དབྱང་གིས་	-9487
ལས་ཁུངས་ནས་	-9488
ལ་བརྟག་ཞིབ་	-9489
མཚོན་ན།	-9490
ཚུན་གྱི་	-9491
རྟོག་པ་དང་	-9492
ཕ་རོལ་དུ་ཕྱིན་པ་	-9493
རྒྱབ་ནས་	-9494
སྐྲུན་པ།	-9495
སྤེལ་རྒྱུ་	-9496
དོན་ཐོག་ཏུ་འཁྱོ	-9497
ཚི་	-9498
ལ་ཕྱོགས་	-9499
ཚོགས་འདུ་བསྡུས་	-9500
ཉིན་བཤད་རྒྱུར།	-9501
ལྡིང་	-9502
▁ཐོན་ཁུངས་	-9503
དགེ་འདུན་གྱི་	-9504
རབ་འབྱོར་	-9505
▁འཕར་ཡོད།	-9506
བཞི་བ་	-9507
ཀྵ་	-9508
ཕྱུག་པོ་	-9509
ཏིང་ངེ་འཛིན་གྱི་	-9510
ཡམས་	-9511
རིམས་ནད་	-9512
▁ཕུང་པོ་	-9513
གསལ་གྱི་	-9514
ག༷་	-9515
ཏྲ་	-9516
རིང་པོ་	-9517
ཐུག་འཕྲད་བྱས།	-9518
རྙེད་པ།	-9519
ཐེངས་དང་པོར་	-9520
▁སྟོད་	-9521
སྤེལ་བ་དང་	-9522
མཐོང།	-9523
ཚ་རླབས་	-9524
▁གཡ	-9525
ཕིང་	-9526
གཏོང་དགོས་པ།	-9527
ཐག་གཅོད་པའི་	-9528
▁བོད་སྐྱོར་	-9529
མོན་	-9530
བུད་	-9531
སྐྱེས་བུ	-9532
མཆི་	-9533
ཡིན་ཡང་	-9534
▁ཁྱད་ལྡན་	-9535
▁བདེ་སྐྱིད་	-9536
▁ནུབ་བྱང་	-9537
ལོ་ཤས་	-9538
གཉིས་ཉིན་	-9539
ཉིས་བརྒྱ་	-9540
▁བྱ་སྤྱོད་	-9541
༣༩	-9542
▁ཨི	-9543
ནང་ན་	-9544
▁དེ་ལྟར་བ	-9545
ཛྙ	-9546
▁ཞེས་གསུངས་སོ།	-9547
སྟབས།	-9548
དུ་ཤེས་	-9549
▁གཡོན་	-9550
དེང་རབས་ཅན་	-9551
ལྟ་བུ།	-9552
བཤེས་གཉེན་	-9553
ཞིམ་	-9554
རིམ་གྱི་	-9555
ཧྥོ	-9556
དེ༷	-9557
སྲོལ་གྱི་	-9558
ཁ་བ་	-9559
ཏོར་	-9560
ལས་གྲུབ་པའི་	-9561
▁གཟི་	-9562
སྒྲུབ།	-9563
▁དམ་ཚིག་	-9564
ངས་པ་དང།	-9565
▁མདུན་ངོས།	-9566
གཉིས་སུ་བྱར་	-9567
ཞིན།	-9568
ངོ་བོར་	-9569
ནས་ཀྱང་	-9570
▁ཤེས་ལྡན་	-9571
▁སྐར་	-9572
ང་གནོད་	-9573
བྱས་ཚེ་	-9574
ཟིན་ཏོ།	-9575
ཁྱོན་ཡོངས་ལ་	-9576
▁ཏ་	-9577
ཕྱིར་ལོག་	-9578
▁ཐུར་ཁེའི་	-9579
སྔོན་འགོག་དང་	-9580
གཏོང་བའི་ཐད་	-9581
▁37	-9582
ལོ་རྒྱུ	-9583
ཏང་ནན་	-9584
ངྒ	-9585
ཞིབ་བཤེ	-9586
ནན་ཏན་གྱིས་	-9587
སྲུང་བ་	-9588
▁དེ་ལྟ་བུའི་	-9589
▁ཝང་ཆི་	-9590
▁རང་སྐྱོང་	-9591
གྲེམས་སྟོན་	-9592
ཆེན་པོ་ཞིག་	-9593
▁སྔར་ལས་	-9594
དང་འདྲ་བར་	-9595
ཐབས་ཤེས་	-9596
གྱང་	-9597
དྲག་ཤུགས་	-9598
▁ཨཱ	-9599
▁ཕྱོགས་བསྡུས་	-9600
པ།།	-9601
▁སྟེང་	-9602
ལས་དོན་དེ་	-9603
སྣང་བར་	-9604
ཁྱབ་གདལ་བ	-9605
རྫོགས་སོ།	-9606
༤༣	-9607
སྲུང་བའི་	-9608
▁འཕྲིན་	-9609
བཅུ་བའི་	-9610
ནུབ་ཕྱོགས་	-9611
སེམས་ཅན་ཐམས་ཅད་	-9612
སྲུང་སྐྱོང་།	-9613
སྟོན་ཏེ།	-9614
▁འཁོར་ལོ་	-9615
ལ་ཆམ་ཕབ་	-9616
ཡི་ལོ་རྒྱུས་	-9617
ཁང་བ་	-9618
ལྷ་རྣམས་	-9619
གམ་	-9620
གཤེད་	-9621
བརྗེ་	-9622
ཆུ་ལོ	-9623
དྲིའི་	-9624
རིང་བའི་	-9625
ཏང་ཙུའུ་ཡི་	-9626
▁སེར་	-9627
རྩེ་རྫོང་	-9628
དུ་བསྐྱོད་པའི་	-9629
དེར།	-9630
སྒྲུང་གཏ	-9631
བརྒྱད་པ་	-9632
ཁྱིམ་མཚེས་	-9633
གན་རྒྱ་	-9634
ལ་གཟེངས་བསྟོད་	-9635
གཡེང་	-9636
མགོ་རྩོམ་པའི་	-9637
ཁྱོ་	-9638
ང་བདེ་ཆེན་	-9639
བློས་	-9640
▁འོག་	-9641
ལ་ཤུགས་སྣོན་དང་	-9642
འཁྲི	-9643
ཆེན་པོ་དང།	-9644
ངལ་ནུས་	-9645
སྲོང་བཙན་	-9646
འགན་འཁུར་བས་	-9647
བུ།	-9648
ལ་ཉན་	-9649
མགུ་	-9650
རྩིས་ལེན་	-9651
དོན	-9652
ཡོད་ཅེས་བསྟན་	-9653
བསྐ	-9654
▁4000	-9655
འཆར་ལྡན་བུ་	-9656
རླབས་ཆེན་གྱི་	-9657
ནི༷་	-9658
ཏོན་ནས་	-9659
ཆེད་དམིགས་	-9660
མེད།།	-9661
ནི་བོད་	-9662
ཉིན་གྱི་དགོང་	-9663
ཆུང་།	-9664
རོན་	-9665
▁གཡང་	-9666
སྒྲིག་བཟོ་	-9667
བླངས་ནས་	-9668
ལེགས་སྐྱེས་འབུལ་	-9669
▁ཐུན་མོང་	-9670
ཞིང་ཕྱུགས་ལས་	-9671
འཇགས་སུ་	-9672
▁ཁྲུང་	-9673
ཙུང་ཐུང་གི་	-9674
དྲོད་ཁང་	-9675
དད་ལྡན་	-9676
སྐྱབས་སུ་	-9677
▁ལག་ལེན་	-9678
རེས་སྐོར་	-9679
▁མྱི་	-9680
སྤ་སེ་	-9681
ཚད་རིམ	-9682
མ་དངུལ་གྱི་	-9683
ཚོང་ར་	-9684
ལོགས་སུ་	-9685
དབྱེ་འབྱེད་	-9686
ཆོས།	-9687
ཆོས་ལུགས།	-9688
གང་ཡོད་	-9689
ལ་སོགས་ཀྱི་	-9690
ཧ་ཅང་ག	-9691
ཀུང་ཟི་	-9692
གྲེམ་སྟོན་	-9693
གྲུབ་འབྲས་ལ་	-9694
སྐོང་འཚོགས་	-9695
ཕྲད་	-9696
ཆུར་	-9697
གསུམ་པ།	-9698
ཚོགས་འདུ་དང་	-9699
ལྷན	-9700
▁གནོ	-9701
དེ་མི་	-9702
ཚེས་བརྒྱད་	-9703
▁ཀུན་ནས་	-9704
ཚེ་རིང་གིས་	-9705
དབྱི་སི་རལ་	-9706
ཐ་མི་	-9707
དམས་ཐོན་	-9708
རྦད་དེ་	-9709
བ་སོགས་	-9710
བཙུགས་པ་	-9711
ཞེས་བྱ་བ་དང།	-9712
ལ་ཕེབས་	-9713
སྣང་།	-9714
ནག་གི་	-9715
▁༡༠	-9716
རི་མོའི་	-9717
བྱེད་དགོས་ཞེས་བ	-9718
འབྲས་ཀྱི་	-9719
དམ་འཛིན་ཡག་པོ་	-9720
▁ཧྲན་	-9721
དངོས་གཉེར་	-9722
དྲུག་ཉིན་	-9723
སྐྱིད་གྲོང་	-9724
དེ་བ	-9725
ཚད་བརྒལ་	-9726
▁ཅིའི་ཕྱིར་	-9727
རྟེན་འབྲེལ་ཞུས།	-9728
སྒྲུབ་པ་དང་	-9729
སྐྱེལ།	-9730
ཕྱོགས་བསྒྲིགས	-9731
འབྱུང་ཡུལ་གྱི་	-9732
རྒྱུར་བ	-9733
ང་བར་འགྱུར་རོ།	-9734
▁ལོ་ནས	-9735
ཅན་དང་།	-9736
སྔོན་ཆད་	-9737
▁དོན་དམ་	-9738
ཞུས་པ་དང་།	-9739
ལ་ཞུགས་པར་	-9740
▁74	-9741
གང་འདྲ་	-9742
འགོ་འཛུགས་ས་	-9743
ཨེ་ཤེ་ཡ་	-9744
༣༠	-9745
▁སྲོག་	-9746
ཆ་འཕྲིན།	-9747
ལྗར་	-9748
▁ཉེན་	-9749
རྣམ་པ་བཟང་པོ་	-9750
གནས་ཚུལ་བ	-9751
ཀྱོ	-9752
རྒྱ་ཆེ་རུ་	-9753
ཚིས་	-9754
སེམས་ནི་	-9755
བྱེད་རོགས་	-9756
འཚམས་འདྲིར་	-9757
ཡུལ་སྐོ	-9758
བྱས་ཤིང་	-9759
མཁར་གྲོང་	-9760
▁འདོད་པའི་	-9761
བཤེར་འཚོལ།	-9762
འདེམས་ཤོག་	-9763
▁མཛུ	-9764
ཡའི་ཙུང་ལི་	-9765
ཆགས་ཡོད།	-9766
ཇི་ལྟར་འ	-9767
སེམས་འགུལ་	-9768
ཐོབ་པ་དང་	-9769
▁ཧྲིན་ཀྲང་	-9770
གནད་དོན་ཐད་	-9771
ཐེངས་མང་	-9772
རྒྱུད་ནས་	-9773
▁སྤྱི་པའི་	-9774
འདི་ཡང་	-9775
ཤུལ་བཞག་གི་	-9776
ལྔ་བ་	-9777
དངོས་གཞི་	-9778
▁ཁྲེན་	-9779
སེང་གེའི་	-9780
གནས་ཚུལ་ལྟར་ན།	-9781
ཤྭ་	-9782
▁ལས་བརྒ	-9783
ཅི་རིགས་	-9784
ཅང་གི་	-9785
▁དབྱངས་	-9786
སྲོག་གཅོད་པའི་	-9787
འུའི་	-9788
ར་དྭ་ཏིའི་བུ་	-9789
▁<	-9790
དོ་སྙོམས་	-9791
ཤེས་ལྡན་པ་	-9792
མཇུག་འགྲིལ་	-9793
ཡུལ་དང་	-9794
བཅུ་གཉིས་པའི	-9795
གྲུབ་པ།	-9796
མི་བརྗེད་པར་	-9797
སྐུ་མགྲོན་	-9798
དབྱི་རག་གི་	-9799
ཕྱོགས་སྟོན་	-9800
སྤྲད་པའི་	-9801
▁ཆུའི་	-9802
རྣམ་པ་གསུམ་	-9803
ཟད་པ་	-9804
ཕྱེ་བ་	-9805
▁སློབ་གྲྭའི་	-9806
ཉིན་རེ་བཞིན་	-9807
ཆེ་ལ་	-9808
༢༡	-9809
ཁོངས་ནས་	-9810
ཁོ་ཚོའི་	-9811
ཁྲལ་དོན་	-9812
གསུམ་ཉིན་	-9813
ས་ཡོ	-9814
ལྕེའི་	-9815
བཟོས་ནས་	-9816
དངོས།	-9817
▁མཚོ་ཤར་	-9818
རྩར་	-9819
ཝེ་ནེ་	-9820
གས་པ།	-9821
▁བཟུང་	-9822
སྐབས་བཞི་བའི་	-9823
ཞེས་བགྱི་	-9824
▁ཨ་ཧྥེ་རི་	-9825
བླ་ན་མེད་པའི་	-9826
རྒྱད་ཀྱི་	-9827
ཀྲུང་ལུགས་	-9828
སྒྲིག་འགལ་	-9829
ལ་གཞིགས་ནས་	-9830
སྐྱོང་བར་	-9831
ཕྲ་མོ་	-9832
སྨྱུག་	-9833
འན་	-9834
སྤྱད་དེ།	-9835
▁ང་ཚོ	-9836
གནས་ལུགས་	-9837
དང་མཇལ་འཛོམས་	-9838
▁ལོར་སླེབས་སྐབས་	-9839
▁གཉིས་པ་ནི།	-9840
གོ་རིམས་	-9841
▁སྲིད་གཞུང་གིས་	-9842
ཤི་ཀ་	-9843
འོ་ཨར་	-9844
དགའ་ཞེན་	-9845
སྤྲོ་བ་	-9846
▁2006	-9847
ཟད་པར་	-9848
གོང་འཕེལ་འགྲོ་	-9849
བྱེ་མ་	-9850
ནང་རྐྱེན་	-9851
ར་བསྐྱོད་	-9852
གལ་ཆེན་དང་	-9853
ཏགས་པ་	-9854
▁དེ་རྣམས་	-9855
▁གལ་སྲིད་	-9856
དེ་དག་ཀྱང་	-9857
དམངས་སྤྱོད་	-9858
▁མཛུབ་	-9859
རྒྱས་བཤད་	-9860
▁གསོལ་པ།	-9861
ཆོས་གོས་	-9862
གནས་སྤོར་	-9863
ལ་གནས་པའི་	-9864
▁ཁྱབ་ཁོངས་	-9865
མ་འོངས་	-9866
དུས་ལྟར་	-9867
སྐོར་གླེང་	-9868
ཆུང་བའི་	-9869
ཁ་གས	-9870
བཏོན་པ་	-9871
གླིང་ཕྲན་	-9872
▁ཀྲའོ་	-9873
ཆེ་ཆུང་	-9874
གློག་སྤྱོད་	-9875
▁ཚོ	-9876
གཙོ་སྒྲུབ་	-9877
གླིང་།	-9878
ཞབས་བྲོ་	-9879
▁སྒྱུ་རྩལ་	-9880
▁ད་ལྟར་	-9881
སྤྱིར་ན་	-9882
ཞུགས་རྒྱུ་	-9883
འཚོ།	-9884
▁དབུལ་སྒྲོལ་འགག་	-9885
རྐྱེན་ངན་	-9886
ཡར་ཐོན་གྱི་	-9887
ཁོ་ནའི་	-9888
རྒྱལ་སྲུ	-9889
སྤྱིར་བཏང་གི་	-9890
.5%	-9891
སློབ་ཞུགས་	-9892
སྒོ་ཀུན་ནས་	-9893
ཕི་	-9894
▁དཔྱིད་	-9895
སྐྲུན་པ་	-9896
ཞིག་ཀྱང་ཡིན།	-9897
པ་ལས་	-9898
ལ་མངོན་པར་	-9899
སོད་སྙོམས་	-9900
གངས་ལྗོངས་	-9901
▁ནུས་ཤུགས་	-9902
ཉིད་དང་	-9903
ཤ་སྟག་	-9904
ང་གཞུང་སྒྲུབ་	-9905
བརྟུ	-9906
མ་བཤད་	-9907
བཅར་འདྲི་དང་ལེན་	-9908
▁བདུན་	-9909
ས་གནས་ས་	-9910
རྗེས་གཉིས་	-9911
བགོ་	-9912
ཤུགས་ཚད་	-9913
དང་བྲལ་བའི་	-9914
སྦྱོར་བས་	-9915
གནང་སྟེ་	-9916
དམིགས་ནས།	-9917
རྡུང་རྡེག་	-9918
དམས།	-9919
ལྡན་པས་	-9920
མི་ཐེངས་ཁྲི	-9921
▁ཟི་	-9922
དཔེར་	-9923
▁ལོ་བར་	-9924
སྐས་རིམ་	-9925
▁གར་	-9926
འོས་པ་	-9927
དང་བསྟུན་ནས།	-9928
ཟིལ་གྱིས་	-9929
གྲོང་སྡེ་	-9930
▁ཨུ་	-9931
གྲུབ་ཚུལ་	-9932
ཞུགས་པ་དང་	-9933
ཤིག་བ	-9934
གཏོད་པའི་	-9935
སྟངས་འཛིན་	-9936
ལ་ངོས་འཛིན་	-9937
▁དགོན་སྡེ་	-9938
▁གློ་	-9939
▁ཐ་ན་	-9940
ཚུན་ལ།	-9941
ཀྲེ་ཅང་	-9942
ཕུལ་བྱུང་གི་	-9943
སློབ་ཁྲིད་ཀྱི་	-9944
གཏོང་དགོས་པ་	-9945
སིར་	-9946
ཐུབ་ནས་	-9947
འཇོ་	-9948
འདི་ལས་	-9949
ཁེ་ལས	-9950
འཚོ་བ་དང་	-9951
ཙུའེ་	-9952
ཐ་དད་པར་	-9953
རླངས་འཁོར་འ	-9954
འབྲོག་ལས་	-9955
བསྡུ་ལེན་	-9956
མགོ་བོ་	-9957
བསྡུས་པ་	-9958
དགེ་སློང་མ་	-9959
དུ་མི་	-9960
ན་བཟང་	-9961
ལས་དོན་ཐད་	-9962
ལག་བསྟར་དང་	-9963
སྒྲིག་བཤེར་	-9964
བྱིན་རླབས་	-9965
འདྲེ་	-9966
▁སུའུ་	-9967
གླུ་གར་	-9968
འབོད་སྐུལ་	-9969
▁རྒྱ	-9970
▁གསང་	-9971
ཨུ་ཡོན་ལྷན་ཁང་།	-9972
དྷི་	-9973
ན་འདོད་	-9974
▁དུས་ཚོད་	-9975
ཤིག་གི་	-9976
དང་སྦྲེལ་	-9977
བྱས་པ་དེ་	-9978
སོལ་རླངས་	-9979
འཇིག་རྟེན་པའི་	-9980
གཟབ་ནན་	-9981
▁རྒྱལ་ཁབ་ཀྱིས་	-9982
▁རྡོ་རྗེའི་	-9983
▁ཞིབ་འཇུག་	-9984
ཧཾ	-9985
མི་དགོས་པའི་	-9986
ཡུལ་མིའི་	-9987
▁སྔར་ལས་ལྷག་པའི་	-9988
ཕུར་	-9989
▁མཁས་དབང་	-9990
ན་བར་གྱི་	-9991
ཁྲའོ་ཞན་གྱི་	-9992
ན་འགོ་ཚུགས་པ།	-9993
རྒྱུགས་སྤྲོད་	-9994
ཚན་ཞིབ་	-9995
གྲབས་གསོག་	-9996
ཞེད་	-9997
▁རྒྱན་	-9998
སྐུ་གཤེགས།	-9999
ངང་སྤེལ་	-10000
བོགས་	-10001
འཛོལ་	-10002
▁ལྟ་བ་	-10003
འགལ་ཟླ་	-10004
ལ་སོགས་པ་ལ།	-10005
▁197	-10006
བཙུགས་པ།	-10007
རྒན་གྲས་	-10008
སྔ་མོ་ནས་	-10009
▁དོ	-10010
▁རི	-10011
རྒྱ་མཚོ།	-10012
ལ་འགྱུར་ལྡོག་	-10013
ཕྲ་རབ་	-10014
ཐང་ག་	-10015
འདོད་བློ་	-10016
པའོ་ཞེས་	-10017
▁56	-10018
ས་འོག་	-10019
བུད་མེད་ཀྱི་	-10020
▁39	-10021
གྱུར་བའི་	-10022
རེ་རེར་	-10023
▁ཞིང་གསུམ	-10024
▁དབུ་ཤོག	-10025
བརྒྱའི་	-10026
▁1.7	-10027
ཏན་ཏན་ཏིག་	-10028
སྐྱོན་བརྗོད་	-10029
བྱ་རྒྱུ་དང་	-10030
▁43	-10031
ཁོར་ཡུག་གཙང་	-10032
སློབ་མ་བ	-10033
མ་ཐག་པའི་	-10034
ང་བྷ	-10035
▁ལག་པ་	-10036
བདེ་བར་	-10037
སྡུས་པ་	-10038
གླིང་དང་	-10039
ཡན་གྱིས་	-10040
གཞུག་	-10041
▁དབྱང་	-10042
ངོས་ལས་	-10043
ལས་དོན་མི་སྣའི་	-10044
ངས།།	-10045
ཁྲོ་བོ་	-10046
གྲོས་ཁང་	-10047
རྒྱ་གྲམ་	-10048
ཕྱོགས།	-10049
▁དྲན་པ་	-10050
▁སཱ་ཏེ	-10051
སྒྲུབས།	-10052
ཐོབ་པ་རེད།	-10053
ཆུ་འགོའི་	-10054
ཀྲུ་	-10055
དེ་རིང་	-10056
▁ཨང	-10057
ལུད་	-10058
མང་ཤོས་	-10059
▁རྩ་ཁྲིམས་	-10060
མདེ	-10061
རུ་མི་	-10062
བསྲེ	-10063
ལས་འཁྱུར་	-10064
མེར་	-10065
སོང་བ་དང་།	-10066
▁གྲོང་ཁྱེར་གྱི་	-10067
མཉེན་ཆས་	-10068
ནེའུ་	-10069
བསམ་འཆར་དང་	-10070
བཏོན་ཡོད།	-10071
དཔོན་གྱིས་	-10072
མུའུ་ཁྲི	-10073
པར་སྐྲུན་	-10074
▁དམིགས་	-10075
ཇི་ཙམ་	-10076
མ་ཡིན་ཏེ་	-10077
སུམ་བརྒྱ་	-10078
ལ་སོགས་པ་དང་	-10079
༡༥	-10080
ལ་རབ་ཏུ་	-10081
▁སྔོན་གྱི་	-10082
མྱུ་གུ་	-10083
ཐམས་ཅད་དང།	-10084
དྲི་བ་	-10085
རག་ལས་	-10086
འོ་ཅིན་	-10087
དར་སྤེལ་བ	-10088
དུས་ཆེན	-10089
སྐྱེད་སྲི	-10090
▁བོད་ལྗོངས་སུ་	-10091
▁མུའུ་	-10092
རྟེན་འབྲེལ་ཞུ་	-10093
དེར་འ	-10094
▁རྩིས་	-10095
ཉམས་ལེན་	-10096
▁རི་མོའི་	-10097
གསར་འགྱུར་དྲ་	-10098
▁འཆད་	-10099
ཚོགས་འདུར་ཞུགས།	-10100
རྒྱུན་འཛིན་དང་	-10101
ལོ་འཁོར་	-10102
ཕྱིན་ཅི་ལོ	-10103
བརྒྱར་	-10104
དེ༷་	-10105
མེད་པ་ཉིད་	-10106
ཀུག་	-10107
སིལ་ཚོང་	-10108
ལྷམ་	-10109
བསྟུན་	-10110
ཨེ་ཤ་ཡ་དང་	-10111
ལ་སློབ་སྦྱོང་	-10112
རྒྱབ་སྐྱོར་དང་	-10113
འགག་གི་	-10114
འཚོགས་པའི་	-10115
▁དགུན་	-10116
སྤྲོས་པ་	-10117
འཚམ་མཐུན་	-10118
▁400	-10119
འགུལ་བ	-10120
ནུས་པ་འདོན་	-10121
མཚན་མོ་	-10122
ས་གནས།	-10123
▁གཙང་གསུམ་	-10124
▁འགོ་ཁྲིད་	-10125
ཚེས་བཅོ་ལྔ་	-10126
མར་མེ་	-10127
མཆོང་སྐྱོད་	-10128
ངང་ག	-10129
དེ་རིགས་	-10130
གྱུར་བ་	-10131
▁318	-10132
གླ་ཆ་	-10133
དབྱི་ལིང་གི་	-10134
▁རྒྱང་	-10135
ཆེན་མོར་	-10136
ཉེ་འདབས་	-10137
དང་ཆུ་	-10138
ཐི་ཡི་	-10139
བསྟེན་	-10140
ཐ་དད་པའི་	-10141
བྱེ་བྲག་ཏུ་	-10142
འོ་མ་	-10143
རྙེད་པར་	-10144
དངུལ་ཁང་གིས་	-10145
རྟག་པའི་	-10146
▁ལས་འགན་	-10147
▁ངོ་སྤྲོད།	-10148
ན་མ་ཐོ་	-10149
19	-10150
པུའི་པུའུ་ཀྲང་	-10151
འདབ་མ་	-10152
ཁང་གི་རྒྱུན་ལས་	-10153
ལ་འཐབ་	-10154
འཕེལ་རྒྱས་གཏོང་	-10155
གཞིག་	-10156
པས་ཀྱང་	-10157
ཉིན་གྱིས་	-10158
▁སོ་སོ་	-10159
སྐྱར་སྐྲུན་	-10160
▁དངོས་གྲུབ་	-10161
སིང་	-10162
འཐུས་མིར་	-10163
དེ་མིན་	-10164
ཆེས་ཆེར་	-10165
ཕན།	-10166
རྗེས་གཉིས་མཐུད་	-10167
གནོད་སེལ་	-10168
ཁ་ནས་	-10169
བརྒྱད་བ	-10170
ས་བདག་	-10171
▁པོའི་	-10172
འགྲུལ་པ་	-10173
གཙང་གི་	-10174
▁ཚོགས་འདུ་	-10175
རྒྱུགས་ལེན་	-10176
▁འགོ	-10177
མི་རྟག་པ་	-10178
བའམ།	-10179
དབྱེ་བས་	-10180
རི་སྐྱེས་	-10181
▁ཚགས་པར།ཕབ་ལེན།	-10182
སྙམ་པའི་	-10183
ལྔས་	-10184
▁ཤི་	-10185
འགྲེལ་བཤད་	-10186
ཏྟ	-10187
སློབ་ཆེན་དུ་	-10188
འདིང་	-10189
གཙོ་བོ	-10190
ཉིས་ཀྱི་	-10191
བཞི་དང།	-10192
ལ་འགྱུར་བ་	-10193
▁46	-10194
ལན་གསུམ་	-10195
▁དོ་	-10196
ཨང་གཉི	-10197
སྒྲིག་ཡིག་	-10198
ང་བློན་ཆེན་	-10199
གདབ་	-10200
འདི་ནས་	-10201
ར་འགོག་	-10202
འཕུར་སྐྱོད་	-10203
སན་	-10204
ལ་འཇུག་པ་	-10205
འཛིན་པ་དང་།	-10206
རྐྱེན་སྲོལ་	-10207
ལ་གནོད་འཚེ་	-10208
བཙའ་	-10209
མི་ཐུབ་	-10210
མཛད་དེ།	-10211
གཅིག་མཚུངས་	-10212
རྩིས་བཤེར་	-10213
ཤིང་ག	-10214
▁ཆེད་ལས་	-10215
ཝུའུ་ཁི་ལན་	-10216
ཞིང་ཆེན་དུ་	-10217
མི་སྒེར་གྱི་	-10218
ཀྱང་གནང་བ་རེད།	-10219
ནས་ཚུལ་	-10220
གཞོན་ནུའི་	-10221
▁ཞེས་བཤད།	-10222
གཉན་	-10223
ཀྲང་ཀྲང་	-10224
སྙམ་ན།	-10225
གནད་དོན་ཐད་ནས་	-10226
ཁྱད་པར་ཅན་	-10227
གྱི་དགོངས་དོན་	-10228
སྐབས་བརྗེའི་	-10229
ང་བཅོས་སྐྱོང་	-10230
མ་ལག་དང་	-10231
འཕྲལ་མར་	-10232
ཆེན་པོ།	-10233
ལྟ་བ་དང་	-10234
ཥྚ	-10235
གྲེལ་	-10236
ངོ་འཕྲད་	-10237
དམག་ཕྱོགས་ཀྱིས་	-10238
ཧྥུའུ་ཡིས་	-10239
▁རླངས་འཁོར་	-10240
ལས་སོ།	-10241
བདུད་རྩི་	-10242
ཚེས་བདུན་	-10243
དེའང་	-10244
མཁོ་ཆས་	-10245
དུ་བཏང་།	-10246
▁གཞུང་དོན་	-10247
བྱས་ལ་	-10248
རྒྱུད་དང་	-10249
རློམ་སེམས་སུ་	-10250
བྱེད་རིང་	-10251
སྤེལ་རྒྱུ་རེད།	-10252
མི་འདུག	-10253
▁འདི་གའི་	-10254
▁ཧྥ་རན་སིའི་	-10255
ཕུན་སུམ་ཚོགས་སུ་	-10256
བྱ་བས་	-10257
▁ཟ་	-10258
གཅོག་	-10259
སྡོད་ཁང	-10260
གནོད་པར་	-10261
འཇུག་པར་	-10262
ཚོ་བའི་	-10263
ཇི་སྙེད་	-10264
▁གྲངས་ཉུང་	-10265
ཝེ་ནེ་ཙུའེ་	-10266
ཐད།	-10267
▁ཁེ་ལས་ཀྱི་	-10268
དབང་བསྐུར་བ་	-10269
▁མཐུན་སྒྲིལ་	-10270
ནི་ཀྲུང་གོའི་	-10271
མཚམས་འཇོག་པའི་	-10272
སྐུལ་ལྕག་	-10273
▁སྤྱི་ཚེས	-10274
ཝུ་	-10275
▁ས་ཁོངས་	-10276
▁བསྡོམས་རྩིས་	-10277
སྤྱང་	-10278
ཞིང་ཆེན་ཀན་	-10279
སྒོ་དབྱེའི་	-10280
ཉིན་རེའི་ཚགས་པར	-10281
རྣམ་པ།	-10282
གྱུར་ན།	-10283
▁སླར་ཡང་	-10284
ཀྱི་ཀྲུའུ་ཞི་	-10285
རྐྱེན་པས་	-10286
ཤིག་ཡིན།	-10287
སྟོད་ཀྱི་	-10288
ཞག་པ་	-10289
▁འབྲས་	-10290
མཇ	-10291
གྱུར་བར་	-10292
ཚོང་ཟོ	-10293
▁རྡེབ་	-10294
རྒྱག་པ་	-10295
▁ཡུས་ཧྲུའུ་	-10296
ཐུམ་འབུའི་ནད་	-10297
སྙན་ཞུར་	-10298
▁དངུལ་རྩའི་	-10299
རྗོད་པར་བྱའོ།	-10300
▁ལུགས་	-10301
▁ཉིན་གྱི་སྔ་དྲོ།	-10302
ཁ་ཤས་ཀྱི་	-10303
▁གཉིས་ནི་	-10304
ལག་གི་	-10305
སེམས་ཤུགས་	-10306
ཞི་མཐུན་བ	-10307
སྦྲུལ་	-10308
རྣལ་འབྱོར་པ་	-10309
ཟོའི་	-10310
འཕར་བའི་	-10311
སྙན་སྒྲོན་	-10312
ཅན་དུ་འགྱུར་	-10313
▁ཆེན་པོ་	-10314
ཁོ་བོ་	-10315
གཙོས་	-10316
འགར་	-10317
ཡང་བྷ	-10318
ཇི་ལྟ་བ་བཞིན་	-10319
▁འཆ	-10320
ང་བློ་	-10321
བཟུང་ནས།	-10322
▁དུས་ཡུན་	-10323
མིང་ལ་	-10324
▁མངོན་སུམ་	-10325
ལུན་	-10326
▁ཉེ་དུས་	-10327
རོང་འབྲོག་པའི་	-10328
ཁྲོམ་རར་	-10329
ཚིགས་བཅད་	-10330
ཕྱོགས་ཡོངས་ཀྱི་	-10331
ནི་རྡོ་རྗེ་	-10332
བྱས་ཀྱང་	-10333
▁ཁོ་ཚོས་	-10334
བྱེད་ཡུལ།	-10335
སྒྲགས་པའི་	-10336
ཟླུ	-10337
གཙང་བ	-10338
འགག་རྩ་	-10339
བྱེད་པའི་བྱ་བའི་	-10340
▁སྤྲ	-10341
བཅས་ཡིན།	-10342
འཕེལ་རྒྱས་ཐད་	-10343
རོལ་རྩེད་	-10344
▁ཚང་མ་	-10345
ཆེ་མོ	-10346
ར་ལ་	-10347
ལྕོགས་	-10348
དེན་པ་	-10349
བདེ་སྡོད་	-10350
ལས་སྒོའི་	-10351
▁སྐྱེ་བོ་	-10352
ཡོང་ཐབས་	-10353
སྒོ།	-10354
ཐོན་པར་	-10355
ནུབ་བྱང་	-10356
འཕྱ	-10357
ཧྥིན་	-10358
▁གཏིང་ཟབ་	-10359
གནད་འཕིགས་	-10360
▁ཝ་	-10361
ཁྲལ་འ	-10362
ཞིག་དང་།	-10363
མཉམ་བསྲེས་	-10364
▁ཤེས་བྱའི་	-10365
བར་འགྱུར།	-10366
སྟེར་བའི་	-10367
ལ་བསྟུན་	-10368
བྱུང།	-10369
ལམ་ལུགས་དང་	-10370
མཉམ་དུ་བ	-10371
བཟོ་འགོད་	-10372
རྒྱུད་དེ་	-10373
ལ་བསྡུ་	-10374
གནང་སྐབས།	-10375
ཏང་གི་འཐུས་མི་	-10376
208	-10377
ཏཱ་ལའི་	-10378
ར་བ་རེད།	-10379
ནས་བཀྲ	-10380
མཐོང་བར་	-10381
སེམས་ཅན་རྣམས་	-10382
▁པེ་ཅིན་	-10383
ནོར་འཁྲུ	-10384
ཚུད་ཡོད།	-10385
ང་བའི	-10386
གཅོད་པ་	-10387
ནས་དབྱར་	-10388
▁བློ་གྲོས་	-10389
སྲོག་ཆགས་ཀྱི་	-10390
ཆུས་ཀྱི་	-10391
སེལ་བའི་	-10392
▁རྡེབ་ཚད།	-10393
ཐུབ་རྒྱུར་	-10394
ནད་དོན་	-10395
▁འཕར་ནས་	-10396
ཡུན་ཧྲན་གྱིས་པེ་	-10397
སྤང་བའི་	-10398
▁འགྲེམ་སྤེལ་	-10399
འདྲུ	-10400
དང་པོ་ནས་	-10401
རྟེན་དུ་	-10402
གསལ་སྟོན་	-10403
ཕུར་བུ་	-10404
སྐལ་བཟ	-10405
ང་གཉིས་ཀྱི་	-10406
རྒྱུ་ཡིན་པ་	-10407
བཀོད་སྒྲིག་ག	-10408
སྨུག་	-10409
ནོར་སྲིད་ཀྱི་	-10410
རབ་འབྱམས་པ་	-10411
ཅོན་	-10412
དེ་ན་	-10413
གསོ་རིག་གི་	-10414
དང་པོ	-10415
སྐྱིད་ཀྱིས་	-10416
མྱེད་དེ་	-10417
རྣམ་པར་མི་	-10418
པར་འགྱུར་བའི་	-10419
▁-1	-10420
ཅན་ནོ།	-10421
▁ལོ་རྒྱུས་ཀྱི་	-10422
ག་གིས	-10423
གསར་པའི་ཐོག་	-10424
འཐད་པ་	-10425
མག་	-10426
2001	-10427
བྱས་སོ།	-10428
སྡེ་ཚོགས་ཀྱི་	-10429
པུའུ་ཀྲང་གཞོན་པ་	-10430
▁2008	-10431
▁རྫས་	-10432
བཟོད་པ་	-10433
ཞིབ་དཔྱོད་ཁང་གི་	-10434
ལ་མ་བྱས་	-10435
གཏོར་མ་	-10436
དེང་རབས་ཀྱི་	-10437
སྲིད་དོན་	-10438
ཏང་རྩ་འཛུགས་ཀྱི་	-10439
འདི་དང་	-10440
ལོ་ལེགས་	-10441
འཛུགས་སྐྱོང་དང་	-10442
▁སློབ་མའི་	-10443
སྤེན་པ་	-10444
བྱ་བ་དེ་	-10445
▁ལྗང་མདོག་	-10446
ཤིག་རེད།	-10447
▁སྒྲིག་ཁྲིམས་	-10448
▁འོས་སྦྱོར་	-10449
ཁྲི་སྟོང་	-10450
ང་གསུམ་པ་	-10451
སྤངས་པའི་	-10452
▁010	-10453
སྨོས་པ་	-10454
མི་རྣམས་ཀྱི་	-10455
སྙོམས་སྒྲིག་	-10456
རྩོན་འགྲུས་ཀྱི་	-10457
རྗོད་དོན་	-10458
367	-10459
གོང་བུ་	-10460
འགོག་པའི་	-10461
བ།།	-10462
ཏང་ལ་	-10463
འདུམ་	-10464
ཐུབ་བསྟན་	-10465
བྱ་གཞག་ལ་	-10466
དང༷	-10467
སོགས་ཀྱི་ཐད་	-10468
གྲོང་ཁྱེར་བ	-10469
▁རོགས་སྐྱོར་	-10470
རྣམ་པར་དག་པས།	-10471
ཡུལ་ལྗོངས།	-10472
ཤེས་རིག་	-10473
གཞུང་ལུགས་དང་	-10474
ང་བྷ།	-10475
དད་དོ།	-10476
ཞུས་པའི་	-10477
༢༨	-10478
▁:	-10479
ཐབས་དང་	-10480
ཁི་ཨར་	-10481
མཛེས་པ་	-10482
གཟུགས་སུ་	-10483
འགན་ཁུར་བ།	-10484
དུ་མའི་	-10485
ཅིན་ཐའོ་	-10486
ལས་སྐྲུན་	-10487
▁རང་འགུལ་	-10488
དཔེ་སྟོན་ཁུལ་	-10489
ཐེབས	-10490
▁འབར་	-10491
▁ཕྱོགས་གཉིས་པོས་	-10492
ཇེ་ཟབ་ཏུ་	-10493
དཔྱད་གཞི་	-10494
བཟོ་མཁན་	-10495
ལྷན་ཅིག་ཏུ་	-10496
གཏོང་དགོས་ཞེས་	-10497
འོད་ཀྱི་	-10498
དབང་གྲགས་	-10499
▁དབྱང་བྷ།	-10500
བློར་	-10501
འོད་གསལ་	-10502
▁ངལ་རྩོལ་	-10503
▁ད་དུ	-10504
ཡང་བྷ།	-10505
583	-10506
ཨུཏྤ	-10507
རྒྱས་པར་བ	-10508
ན་རྒྱ་	-10509
མཚན་ཉིད་ཀྱི་	-10510
ལོ་རྒྱུས་དང་	-10511
དཔེ་བཟ	-10512
ཁོང་ལ་	-10513
ག་ཆགས་	-10514
རྒྱུན་མཐུད་ངང་	-10515
ཁམ་ཕུ་	-10516
ཆར་གཞི་	-10517
▁གཡང་བྷ།	-10518
ཀྲན་ཧྲུའུ་ཡིས་	-10519
ཀྭ	-10520
བདའ་	-10521
ཕན་ཡོན་	-10522
རྩིས་ནས།	-10523
ཡིའུ་	-10524
▁གཡུ་	-10525
རོལ་མོའི་	-10526
▁སྔོན་ཆད་	-10527
དགའ་སྤྲོ་	-10528
རིག་བྱེད་	-10529
གདོད་མའི་	-10530
ལ་ཞིབ་འཇུག་	-10531
▁བརྟ	-10532
▁ཀྲུང་དབྱང་དང་	-10533
ཧ་ལམ་	-10534
བཅས་དང་	-10535
གདུགས་	-10536
འཐུས་ཚབ་ཚོགས་པ་	-10537
བྱིན་པར་	-10538
ངོར་	-10539
▁དེའི་ཁྲོད་	-10540
ཡང་།།	-10541
ལེགས་པོར་	-10542
▁ལྷག་ཙམ་ལ་	-10543
▁གནད་སྨིན་	-10544
མཚམས་བཞག་	-10545
ཟུངས་	-10546
ན་མའི་	-10547
མི་ལ་	-10548
བཀག་སྡོམ་	-10549
▁ཞབས་ཞུའི་	-10550
▁སྣང་བ་	-10551
རྒྱལ་བོ་	-10552
གཉེར་གྱི་	-10553
རིན་ཐང་ལྟ་བ་	-10554
ཕྱོགས་སྡོམ་	-10555
སྤྱི་ཚོགས་སྐྲུན་	-10556
▁རང་ཉིད་ཀྱི་	-10557
རྟེན་གཞིའི་	-10558
ལི།	-10559
དགོས་ཀྱི་ཡོད།	-10560
▁010-	-10561
ལྷད་མེད་	-10562
ལ་མ་བྱས་གོང་	-10563
དགོས་ངེས་ཀྱི་	-10564
འཕྲོས་	-10565
རི།	-10566
▁ཁྱིམ་བདག་	-10567
▁འབའ་	-10568
འགོག་པ་	-10569
རྡ་ཁྱབ་	-10570
བཞི།	-10571
ཡི༷	-10572
ཚོགས་པ་དང་པོ་	-10573
ཁུ་ཚུར་	-10574
ཉིན་རེར་	-10575
བྱེ་བྲག་གི་	-10576
ཧྲུའུ་ཅིས་	-10577
ཐོ།	-10578
ཕྱག་རྒྱ	-10579
ཟོས་པའི་	-10580
ཅིག་ག	-10581
ཡོད་ཀྱང་།	-10582
ཐཱ་ག་	-10583
སྔོ་ཚ	-10584
ཁུལ་ཡོངས་ཀྱི་	-10585
ཆེ་མོ་བ་	-10586
འདི་ལ་གཉིས་སུ་	-10587
བྱང་ཕྱོགས་	-10588
ལེན་པ།	-10589
ལྷོ་ནུབ་	-10590
བསྟུད་མར་	-10591
ཡག་པོ་ཞིག་	-10592
▁མི་རིགས་ཁག་གི་	-10593
ཤུལ་བཞག་རིག་གནས་	-10594
▁54	-10595
ཧྥོ་	-10596
ཞེས་པ་ནི།	-10597
རྒྱལ་དབང་	-10598
ཧེ་བག་	-10599
སྒྲོལ་མ།	-10600
སྐར་གྲངས་	-10601
རླབས་ཆེའི་	-10602
ལ་པ་དང།	-10603
མཉམ་པའི་	-10604
གསུང་བཤད་གནང་།	-10605
ཡར་ཀླུ	-10606
མཐོ་རྒྱུགས་	-10607
སོ་སོ་མ་ཡིན་	-10608
▁གཞིས་རྩེའི་	-10609
ལ་བཅར་འདྲི་	-10610
ཅུས་ནས་	-10611
གར་འཁྲབ་	-10612
ནས་བརྩམས་	-10613
▁བསམ་འཆར་	-10614
ལ་དབང་	-10615
འཛུགས་སྐྱོང་ལ་	-10616
▁ཀཽ	-10617
གཟ	-10618
ཞིང་ལས་ཐོན་རྫས་	-10619
འདུ་ཤེས།	-10620
▁བྱང་ཆིངས་	-10621
གཙོ་གནད་ཐོག་	-10622
▁ས་མཐོའི་	-10623
བྱུང	-10624
▁ཐེག་པ་	-10625
▁ནུས་པ་	-10626
▁ཟིན་པ་དང་	-10627
འཁོར་བར་	-10628
གས་ན་	-10629
ཐི་ལིང་	-10630
▁བཞི་ནས་	-10631
▁ཅིང	-10632
▁སྲོལ་རྒྱུན་	-10633
▁55	-10634
ལོ་རབས་	-10635
མ་ལུས་པ་	-10636
▁ཉིན་གྱི་སྔ་དྲོ་	-10637
གུའི་	-10638
▁གནོད་འཚེ་	-10639
སྔོན་འགྲོའི་	-10640
གུང་གསེ	-10641
སྦྲགས།	-10642
ཆ་འཕྲིན་མེད།	-10643
རྔུལ་	-10644
ཏང་ཨུས་	-10645
ཤུགས་ཀྱིས་	-10646
སྐད་ཅིག་མ་	-10647
རྣམ་པར་སྨིན་པ་	-10648
ན་འཁྲི་	-10649
དངུལ་གྱི་	-10650
▁བརྒྱད་	-10651
▁འག	-10652
རྒྱལ་མོ་	-10653
▁དགུང་ལོ་	-10654
དཔེ་བཟང་	-10655
དྲག་པོའི་	-10656
ལས་རིགས་ཀྱིས་	-10657
རྩ་བ་ནས་	-10658
▁བ།	-10659
ལྕང་	-10660
▁010-583	-10661
ནས་ད་ལྟའི་བར་	-10662
ལ་དམིགས་པའི་	-10663
མཆེ	-10664
ས་གཙ	-10665
སྒྱུ་མའི་	-10666
▁པེ་ཅིང་སྤྱི་	-10667
36716	-10668
▁བྲམ་ཟེ་	-10669
དྲའི་བདེ་	-10670
▁ཅིངཐེབས།	-10671
▁010-58336716	-10672
▁སྟེ	-10673
20827	-10674
གནས་ཚུ	-10675
རྙིང་པའི་	-10676
▁12020827	-10677
▁ཧྥ་རན་སེའི་	-10678
ཤོག་སྦག་	-10679
རྒྱ་བསྐྱེ	-10680
དྲའི་བདེ་ཐེབས	-10681
བཅུག་ནས་	-10682
འཕེལ་ཕྱོགས་	-10683
ཛྙཱ	-10684
ཐི་ལིང་ཕུའུ་	-10685
ལག་བསྟར་བྱས་ནས་	-10686
ཧྲཱ	-10687
རླུང་ཁམས་	-10688
▁རྒྱལ་ནང་།	-10689
ཆེ་ཤོས་ཀྱི་	-10690
སྔོན་གཤེགས་	-10691
དགོན་དུ་	-10692
སྔོན་མའི་	-10693
ལུང་བ	-10694
▁འདི་དག་	-10695
709-1	-10696
102001	-10697
རམས་པ་	-10698
▁110102001	-10699
▁110102001709-1	-10700
▁དཀོན་	-10701
མཁོ་བའི་	-10702
ན་འཁེལ་	-10703
མི་མཐུན་པའི་	-10704
ཉུང་བའི་	-10705
བསླ	-10706
མེད་དེ་	-10707
གློ་བུར་དུ་	-10708
ཏེ་ཧི་	-10709
ཐོས་ནས་	-10710
ཐེངས་གཅིག་	-10711
བྱ་ཡུལ་གྱི་	-10712
ཁོངས་མིའི་	-10713
འགྱུར་གྱི་	-10714
ལྷུང་བཟེད་	-10715
དེ་དག་ཐམས་ཅད་	-10716
▁དགེ་འདུ	-10717
སླེབས་པའི་	-10718
རང་གི་ངོ་བོ་	-10719
མ།།	-10720
ལམ་སྲོལ་འཐུས་	-10721
སྐྱིན་	-10722
དུང་ཕྱུར	-10723
སྒྲིག་རྣམ་པའི་	-10724
ཧི་ཧོ་	-10725
ནས་བཤད་	-10726
སྐྱོད་པར་	-10727
རྣམ་པ་ཀུན་ཏུ་	-10728
དགུ་པ་	-10729
▁48	-10730
ཁྱད་དུ་	-10731
ཚེས་ལྔ་	-10732
གར་སྟེགས་	-10733
▁98	-10734
▁བི	-10735
ཁེ་སྤོ	-10736
▁འཚོ་བ་	-10737
▁གྱོད་	-10738
རྫུ་འཕྲུལ་གྱི་	-10739
དབོ	-10740
▁ཉ	-10741
▁བསྐྲུན་	-10742
▁ཉིན་གྱི་དགོང་	-10743
མི་ཚེའི་	-10744
གཡུལ་	-10745
ང་དུ་བ	-10746
བསྟན་འཛིན་	-10747
མི་འགྱུར་ཏེ།	-10748
ཡོད་ཟེར།།	-10749
ཞང་དང་	-10750
ལྭ་	-10751
▁བྱ་ཐབས་	-10752
མཉམ་ལས་ཁང་	-10753
རྩོམ་རིག་གི་	-10754
ང་གི་ལོ་རྒྱུས་	-10755
བཏོད་	-10756
ཙུགས་པ་	-10757
ཚོན་ཁྲ་	-10758
ཧུའུ་ཧི་ཧོ་	-10759
དྲག་ཆ	-10760
མས་ནས་	-10761
ཡིད་ལ་དམ་པོར་	-10762
ཀྱི་རྒྱུན་ལས་	-10763
དགའ།	-10764
འཛུགས།	-10765
དགོས་ཞེས་བ	-10766
ནད་བ	-10767
རང་ཞིང་གི་	-10768
རྗེས་སུ་མི་	-10769
ཡོ་རོབ་གླིང་གི་	-10770
བྷི	-10771
ཤམས་སྟོན་	-10772
ཡིད་ལ་བྱེད་པ་	-10773
མ་པ།	-10774
ཁྲའོ་ཞན་དང་	-10775
འཐབ་འཛི	-10776
▁གྲོང་མི་	-10777
▁ཞེས་དང་།	-10778
ལ་བརྟན་པོར་	-10779
ཁང་གི་ཚང་འཛོམས་	-10780
གནང་བ་མ་ཟད།	-10781
གསུམ་ནི་	-10782
ལུང་གི་	-10783
ཕྱི་རོལ་དུ་	-10784
ས་བདེ་ལེགས་	-10785
▁ཀཽ་	-10786
ང་གོང་འཕེལ་	-10787
▁ཕན་ཅི་ཝུན་གྱིས་	-10788
དགོས་ཏེ།	-10789
ནད་རིགས་	-10790
དཔལ་འབྱོར་དང་	-10791
དེ་སྔ་	-10792
པས་ན།	-10793
སློག་	-10794
ལ་བརྟེན་པའི་	-10795
ས་བོ	-10796
ཟློས་གར།	-10797
དཀོན་པའི་	-10798
བོད་ལྗོངས་སུ་	-10799
ར་འདུ	-10800
སྙིང་པོའི་	-10801
ལ་བློན་ཆེན་གྱིས་	-10802
དཔྱད་པ་	-10803
བརྙན་འཕྲིན་ཁ་པར་	-10804
▁སའི་	-10805
▁གོ་རིམ་	-10806
▁སརྦ་	-10807
སློབ་གྲྭས་	-10808
བཅུ་བཞི་	-10809
འགོ་བརྩམས་པ།	-10810
ཤད་ཀྱི་	-10811
བཅའ་ཁྲིམས་དང་	-10812
ནུས་པར་	-10813
ངས་ཏེ།	-10814
▁ཉེ་སྔོན།	-10815
ཡག་ཤོས་	-10816
བྱེད་མི་ཆོག	-10817
༡༨	-10818
▁ས་སྐྱ་	-10819
▁སྤེལ་དུས	-10820
▁གྲོས་མོལ་	-10821
འཚོ་བའི་ཆ་རྐྱེན་	-10822
གྱོང་གུན་	-10823
▁ཆགས་	-10824
དམར་པོའི་	-10825
དཔྱད་བསྡུར་	-10826
ཞིག།	-10827
བར་སྣང་	-10828
མ་ཡིན་ནོ་ཞེས་	-10829
▁རྒྱལ་བ་	-10830
གླུ་གཞས་	-10831
ཕ་ཡུལ་དུ་	-10832
▁ཅིག་	-10833
སློབ་འབྲིང་གི་	-10834
ཏེ་ཧི་ནས་དབྱར་	-10835
དགའ་ཞེན་བཞིའི་	-10836
ཆར་པ་	-10837
དཔལ་བ	-10838
རྩིབས་	-10839
རྒྱག་པ་དང་	-10840
སྐྱོང་བ་	-10841
རྒྱ་མ་	-10842
▁ཉིན་དེའི་	-10843
བདག་ལ་	-10844
གཅན་ཚ་	-10845
▁གསོ	-10846
འཕར་སྣོ	-10847
ཚེས་ཉེར་ལྔ་	-10848
ཕྲིན་ལས་	-10849
གནང་བ་རེད།།	-10850
གཞུང་ལམ་ཐོག་	-10851
▁44	-10852
▁ཉ་	-10853
▁འོས་སྦྱོར།	-10854
ཅོར་ཏ	-10855
དྲུག་པོ་	-10856
▁ཞབས་ཞུ་	-10857
ཆེ་བ་དང་།	-10858
ཞི་འཇགས་སུ་	-10859
ད་ལོ་	-10860
▁སོགས་ཀྱི་	-10861
ཚོགས་འདུ་སྐབས་	-10862
ཝུའུ་ཁི་ལན་གྱི་	-10863
མར་ཁེ་སི་	-10864
གཞུང་ཁོངས་	-10865
སྡོད་དམངས་ཀྱི་	-10866
སྦྲེལ	-10867
རྙེད་པའི་	-10868
▁སྤྱི་ལོ་༢༠༡	-10869
དོགས་ཟོན་	-10870
ཞིབ་མཆ	-10871
ཏང་ཙུའི་	-10872
གཞུ་	-10873
ས་མ་ངོས།	-10874
▁གླུ་གཞས་མ་ངོས།	-10875
ཏཱི	-10876
ངང་ནས་	-10877
འཇུག་དགོས།	-10878
ཧྥན་	-10879
ན་བསམ་	-10880
▁ཉེ་ལམ་	-10881
བྱེད་རྒྱུ་ཡིན་པ།	-10882
▁47	-10883
སྤྲུལ་སྐུ་	-10884
སྟན་ཏེ།	-10885
མ་འདྲེས་པ་	-10886
ཞོལ་	-10887
གཞན་ཞིག་	-10888
སྡུ་བའི་	-10889
ཉིན་ཤས་	-10890
▁ངེད་	-10891
▁འདམ་	-10892
ཁུའུ་ཨར་	-10893
ཧྲིལ་བོའི་	-10894
བྱ་འགུལ་གྱི་	-10895
པའི་ཚེས	-10896
རྡས་	-10897
ག་གླི	-10898
གཞུང་ཞབས་	-10899
▁སྐད་ཅིག་	-10900
བྱེད་ཐུབ་པ་	-10901
ཐོན་ནས་	-10902
བདག་ཏུ་	-10903
ལོག་པ་	-10904
▁ཆ་རྐྱེན་	-10905
སྒྱུར་གྱི་	-10906
ཙོ་བོ་	-10907
ཞི་དང་	-10908
▁ལུའུ་	-10909
མ་ཡིན་ལ།	-10910
▁བདག་ནི་	-10911
སྐུལ་འདེད་བཏང་བ།	-10912
ཟེར	-10913
ཡལ་	-10914
རྟེན་ཅིང་	-10915
▁དངོས་སུ་	-10916
ལྕམ་	-10917
▁65	-10918
▁སྲི	-10919
ག་གཏོང་བའི་	-10920
སྨྲས་ཏེ།	-10921
གྲོང་ཚོའི	-10922
ཚ་བ་	-10923
▁འགན་ལེན་	-10924
དད་པའི་	-10925
ང་གཏིང་ཟབ་	-10926
ཡང་མ་	-10927
སྤྱི།	-10928
བཅུ་ཕྲག་	-10929
ཚིག་གིས་	-10930
གཏང་དགོས།	-10931
འབྲེལ་ཡོད་ཀྱི་	-10932
དཔལ།	-10933
པེ་ཅིང་དཀྱིལ་	-10934
ཁ་པར།	-10935
གོ་བར་	-10936
▁ཕ་རོལ་	-10937
འགན་སྲུང་གི་	-10938
སྐབས་བཅུ་པའི་	-10939
ཙྪ	-10940
གྲུལ་	-10941
▁ཉེ་བའི་ལོའི་	-10942
▁བདེ་ཐང་	-10943
▁དེ་སྐད་	-10944
སྤུས་ཚད་མཐོ་བའི་	-10945
གཅོད་པའི་	-10946
ནང་འདྲེ	-10947
གར	-10948
གཏོང་བ་བཅས་ཀྱི་	-10949
▁ལྕགས་ལམ་	-10950
ཆེད་མཁས་	-10951
དབུལ་གྲོལ་འགག་	-10952
ཡུལ་སྲོལ་	-10953
སྡེ་ཁག་དང་	-10954
གླུ་ལེན་	-10955
ཉར	-10956
སྒྲ་ནི་	-10957
ཁའེ་	-10958
▁མང་དུ་	-10959
གོང་སྤེལ་	-10960
མེད་པ་བཟོ་	-10961
མིང་དུ་	-10962
མཚར་	-10963
གནད་འགག་	-10964
གྲལ་བཤེར་	-10965
དབུལ་བའི་	-10966
ཚེས་བཅུ་བདུན་	-10967
མེད་པ་ལ་	-10968
ཇོ་བོ་	-10969
ཕོད་	-10970
དག་དང།	-10971
▁ནང་གི་	-10972
གསྡ	-10973
ཉམས་ཞིབ་	-10974
▁རྟོག་ཞིབ་	-10975
གོང་འཕེལ་དང་	-10976
སྒོམ།	-10977
བུས་	-10978
དུད་ཚང	-10979
རྣམ་པར་སྣང་མཛད་	-10980
སྟན་པར་	-10981
མ་ཡིན་ནམ།	-10982
དགེ་སློང་གི་	-10983
གཟུང་བར་	-10984
ཤི་རྨ	-10985
མཆོད་པར་	-10986
གཏོར་བརླག་	-10987
གོང་འཕེལ་དུ་	-10988
80000	-10989
དབུ་ཁྲིད་	-10990
གསལ་པོར་	-10991
རྩད་ཞིབ་	-10992
མཁྱེན་རྟོགས་	-10993
ཕན་ཚུན་གྲོས་མོལ་	-10994
ལེའི་	-10995
ལ་བལྟ	-10996
ལུང་གིས་	-10997
▁ཞུ་	-10998
▁དགོན་	-10999
གསུང་རབ་	-11000
▁ཁོས་བཤད་རྒྱུར།	-11001
ཁམས་སུ་	-11002
▁གླུ་གར།	-11003
འབྲེལ་པར་	-11004
ནུས་བ	-11005
སྒོས་བ	-11006
བསྟན་པར་	-11007
སྐྱེ་བར་འགྱུར་	-11008
དཔོག་	-11009
ན་གནས་	-11010
དགའ་སྤྲོའི་	-11011
ཆུང་མ་	-11012
སྤྲོ་སྐྱིད་	-11013
▁རྩོམ་པོ།	-11014
མིའི་རིགས་	-11015
དཀྲུ	-11016
▁ཁྲག་	-11017
▁བདེན་	-11018
▁ཁང་	-11019
འཚང་རྒྱ་	-11020
གཞི་རྩའི་ཆ་ནས་	-11021
༣༧༥	-11022
ལ་བཤད་	-11023
▁བོད་དུ་	-11024
▁མགོན་པོ་	-11025
ཧྲཱི	-11026
▁ཇ་ཁང་།	-11027
▁བྱེད་པ་	-11028
ཁ་བ	-11029
བྱས་ཡོད་ལ།	-11030
བསམ་བློ་དང་	-11031
མ་མཐའི་འཚོ་བའི་	-11032
▁མན་	-11033
བདུན་ཅུ་	-11034
ཁ་སྣོན་	-11035
དཔལ་འབྱོར་བ	-11036
སྤུས་ཚད་དང་	-11037
ངོ་།།	-11038
རྡོར་	-11039
ནེ་པ་ལའི་	-11040
བསྐྱར་འཛུགས་	-11041
དང་བེ	-11042
སྦྱིན་བདག་	-11043
སྣ་ཁ་	-11044
ང་གླེ	-11045
མཐའ་འཁྱོངས་ཀྱིས་	-11046
འབོད་སྐུལ་བཏང་བ།	-11047
ཧ་ཅང་མཐོང་ཆེན་	-11048
ཞབས་ཞུའི་མ་ལག་	-11049
མངར་	-11050
དམ་པོར་བ	-11051
བཏང་ཞིང་།	-11052
ཉརཨང་	-11053
8000030	-11054
▁08000030	-11055
འགྲོ་ལུགས་	-11056
བརྩོན་	-11057
མོད་ཀྱི།	-11058
ཨུ་ཡོན་གྱི་	-11059
མཚུངས་པའི་	-11060
▁འཇར་པན་	-11061
ལག་བསྟར་བྱེད་པར་	-11062
ནོའུ་	-11063
དུ་བ་	-11064
ནྡྷ	-11065
ཉམས་པར་	-11066
པའོ་ཡིས་	-11067
༣༩༦	-11068
▁བཀྲ	-11069
▁གཞན་ཡང་།	-11070
དོ།།	-11071
▁དུས་ཚིགས་	-11072
▁མཚོ་ཉརཨང་	-11073
ཙཱའི་	-11074
ཚེས་བཅོ་བརྒྱད་	-11075
ཕྱིན་ཡོད་པ་རེད།	-11076
▁ཡུལ་སྐོར་ལམ་ཐི	-11077
ཐོབ་མཁན་	-11078
རང་སྐྱོང་ཀྲོའུ་	-11079
དངོས་པོར་	-11080
གྲོས་མོལ་གྱི་	-11081
ལམ་སྒོ་རྟགས	-11082
དཀྱིལ་འཁོར་བ	-11083
དེ་བཞིན་ནོ།	-11084
ཞིག་བསྐྲུན་	-11085
དགའ་ལྡན་	-11086
ཤད་བྱུང་།	-11087
བྱེད་རྒྱུ་ནི་	-11088
གོང་བ	-11089
པས་མི་	-11090
ཆུ་རགས་	-11091
▁དྭངས་	-11092
འཐུས་མི་དང་	-11093
▁སྐབས་འདིའི་	-11094
▁གཉེར་	-11095
ཞིག་ཏུ་གྱུར་	-11096
ཆུ་འགོ་	-11097
ཆེན་མོ།	-11098
བདེ་བླག་	-11099
བཀོད་པའི་	-11100
གཞི་འཛིན་ས་	-11101
ཁང་གཞུང་སྒྲུབ་	-11102
བརྩོ	-11103
༣༧༥༤༣	-11104
དོན་འཁྱོལ་ནན་ཏན་	-11105
ཉིས་བརྒྱ་དང་	-11106
▁མཛེས་ལྗོངས་ཁུལ།	-11107
▁༦༨༣༧༥༤༣	-11108
༣༩༦ས་གནས།	-11109
▁དཀར་མཛེས་	-11110
ལམ་སྒོ་རྟགས༤༡	-11111
དགོངས་འཇགས་ཞུའོ།	-11112
ལ་བྲེ	-11113
སྐྱེས་ནས་	-11114
མང་པོ་ཞིག་གིས་	-11115
▁དད་	-11116
ལྷ་ཁང་	-11117
འཇུག་གི་	-11118
སྤྲོ་སྣང་	-11119
སྐོར་གཟིགས་	-11120
ན་གཞོ	-11121
ལྷོ་ཁ་གྲོང་ཁྱེར་	-11122
ཚེས་ཉེར་བདུན་	-11123
ཞིབ།	-11124
▁མ་ངོས།	-11125
མ་ཆད་པར་	-11126
▁འདི་གའི་པར་དབ	-11127
རྩི་ཤིང་	-11128
མངོན་ཡོད།	-11129
ཧྥི་	-11130
རྨོས་	-11131
ཇེ་མང་	-11132
ཚོམས་ཆེན་	-11133
དང་རྒྱབ་སྐྱོར་	-11134
བཏང་བའི་	-11135
▁འདས་པའི་	-11136
དམན་	-11137
ཕན་ཚུན་ལ་	-11138
ཕིགས་	-11139
ལས་ཞུགས་ཀྱི་	-11140
ཞིང་ཆེན་མི་དམངས་	-11141
དང་པོ་དང་	-11142
འབུམ།	-11143
རང་བཞིན་ལྡན་པའི་	-11144
ཆ་འཕྲིན་ཅན་	-11145
མཆོག་ག	-11146
▁195	-11147
རྒྱུན་འཁྱོངས་དང་	-11148
▁དམངས་གཙོ་	-11149
ལག་བསྟར་བྱེད་པ།	-11150
▁བཟོ་རིག་པ།	-11151
ཏང་ཀྲི་པུའི་	-11152
༩༡༠	-11153
▁བྲི	-11154
ལམ་ཐག་	-11155
རང་ཉིད་ལ་	-11156
▁བྱིས་པའི་	-11157
མཆུ་	-11158
ཁེ་ལས་ལ་	-11159
སྟོབས་ཀྱི་	-11160
ནད་ཡམས་	-11161
དབུས་ཀྱི་	-11162
སྲ་བརྟན་དང་	-11163
སྤྱི་ལོ་༢༠༡	-11164
▁མགྲོན་	-11165
འགོས་	-11166
ལྡུམ་	-11167
▁སྦྲ་	-11168
▁སྲིད་ཀྱི་	-11169
ཤགས་	-11170
▁ཟླ་ལྔ་བའི་	-11171
▁ང་ཚོའི་གནས་ཚུལ།	-11172
སུའེ་	-11173
སྐར་མ	-11174
▁བོད་ཡུལ།	-11175
▁བོད་རིག་པ།	-11176
མ་བྷ	-11177
སྦྱར་བའི་	-11178
▁ཐུན་	-11179
▁ཧྲང་ཧའེ་	-11180
ག་བྲ	-11181
བྲམ་ཟེ་	-11182
ཡང་གཞན་	-11183
ཡོང་བ་དང་	-11184
སྣང་བརྙན་	-11185
བྱེད་ཆེད་	-11186
གབརྙན་མཐོང་།	-11187
ཡོང་འབབ་སྒོར་	-11188
ལེན་པ་དང་	-11189
སོགས་ཕྱོགས་	-11190
བྱ་བའི་སྙན་ཞུ་	-11191
གྱེན་	-11192
འདོད་པས་	-11193
▁གང་ཟག་	-11194
▁ལུས་རྩལ་	-11195
ཆོས་ལུགས་ལས་དོན་	-11196
སྡེ་བར་	-11197
འགན་འཁྲི་འཁུར་	-11198
▁ལྷག་བ	-11199
འཕེལ་བའི་	-11200
བུ་བཅོལ་	-11201
▁སྔོན་ཐོན་	-11202
སྙོམ་	-11203
▁སྲིད་པ་	-11204
ནར་	-11205
རྟིང་	-11206
དགག་པ་	-11207
▁གཙོ་དོན།	-11208
▁ཡོད་པ་དང་	-11209
བརྒྱད་ཅུ་	-11210
རོགས་སྐྱོར་གྱི་	-11211
ང་གསོ་	-11212
རྒྱུན་མི་	-11213
ཥ་	-11214
ཨང་༨	-11215
ཉེན་བརྡ་	-11216
༡༦	-11217
ཤོར་བའི་	-11218
▁ལེ་པཱ་ནུ	-11219
▁རྨ	-11220
▁གློག་བརྙ	-11221
ཁྲལ་བསྡུའི་	-11222
༡༣	-11223
ཕྱུང་	-11224
ཡང་དག་པར་རིག་པ་	-11225
▁དུད་	-11226
▁༦༨༢༧	-11227
མགོ་གཙོ་	-11228
པར་གཞི་ཕབ་ལེན།	-11229
ཐོའོ་ཨར་	-11230
▁༦༨༢༧༩༡༠	-11231
ཨང་༨༥༠༠༠༠	-11232
བྱས་པ་ཡིན།	-11233
ཐོའོ་ཨར་སི་	-11234
ནི་བོད་ཀྱི་	-11235
▁སྦྲག་ཨང་༨༥༠༠༠༠	-11236
གོ་སྐབས་དམ་འཛིན་	-11237
བསྐྱར་སྐྲུན་	-11238
རོགས།	-11239
འབྲིང་ཆུང་གི་	-11240
འོག་ནས་	-11241
▁མཁའ་མཚོ།	-11242
དྲུག་ཅུའི་	-11243
གྱུར་པ་དང།	-11244
སྒྲོལ་དཀར་	-11245
▁བྱེ་	-11246
ཕྲག་ཏུ་	-11247
▁ལྗོངས་ཏང་ཨུད་	-11248
ལྷག་ལ་	-11249
ཟི་ལིང་ནས་ཚོགས།	-11250
བྱས་པ་དང།	-11251
ཉིད་དུ་བ	-11252
མཁས་པ་དང་	-11253
ལ་སྣང་ཆེན་	-11254
ས་བབ་མཐོ་	-11255
རྒྱུ་སྤུས་	-11256
དང་བསྡུར་ན་	-11257
ཁྲིན་ཏུའུ་	-11258
རང་བྱུ	-11259
▁མང་ཚོགས་ལ་	-11260
▁ཏང་གིས་	-11261
ཅི།	-11262
▁ཁོང་གིས	-11263
▁ཀཽ་ཤི་ཀ་	-11264
▁ལོར་མཚོ་སྔོན་	-11265
ཇི་སྙེ	-11266
གལ་འགངས་	-11267
ལས་ཐ	-11268
སྐུ་ཚབ་	-11269
ཁོང་ཚོར་	-11270
མཐུན་སྒྲིལ་དང་	-11271
ཨི་	-11272
ལ་གཅེས་	-11273
▁འཇིགས་	-11274
ལག་བསྟར་བྱས་པའི་	-11275
ཁྱད་ཆོས་དང་	-11276
ཅན་དང།	-11277
གཉིས་པ་དང་	-11278
▁བརྙན་གཟིགས།	-11279
འཆར་འགོད་དང་	-11280
མི་རིགས་སྐད་ཡིག་	-11281
བསྐོའི་	-11282
▁ཅི་སྟེ་	-11283
འཐབ་ཇུས་མཉམ་ལས་	-11284
རྩ་ཆེའི་	-11285
ང་བཅའ་	-11286
ཕུལ་བ་	-11287
སྣང་དང་	-11288
▁ཀུན་དགའ་བོ་	-11289
བཤའ་	-11290
གླང་པོ་	-11291
སྐབས་གཉིས་པའི་	-11292
ཀྲུང་གོ་མི་དམངས་	-11293
དུད་རྩི་	-11294
སྐྱེ་ལྡན་	-11295
▁འཇར་པན་གྱི་	-11296
▁ག་	-11297
འཇོག་པ་	-11298
འཛམ་བུའི་	-11299
▁ནགས་ཚལ་	-11300
རྡོ་སྣུམ་	-11301
ན་བྱང་ཆུབ་	-11302
ལྷོ་ཕྱོགས་	-11303
▁སྤང་	-11304
ཁྲག་ཁྲི	-11305
ནང་བའི་	-11306
མཆོག་དང་	-11307
ལྷུན་པོ་	-11308
དབྱིངས་སུ་	-11309
ཞིག་རེད་	-11310
ལོ་རེའི་	-11311
རྐང་རྩེད་	-11312
རི་འཛེག་	-11313
བཟང་།	-11314
མེ་མད	-11315
ཐ་མྱི་	-11316
▁ཁོང་ཚོས་	-11317
▁བསྟན་པ་	-11318
▁ཉོན་མོངས་	-11319
▁ཕན་འབྲས་	-11320
བསྒྲུབ་པའི་	-11321
▁ཟླ་དྲུག་པའི་	-11322
བར་བྱ།	-11323
ཞིབ་བསྡུར་	-11324
ཡའོ་	-11325
སློབ་བསྡུའི་	-11326
རུ་ཁག	-11327
རྒྱུན་ཨུའི་	-11328
འམ་ཡང་ན་	-11329
ཁུལ་ལ་	-11330
འབྱིན་	-11331
ཏང་ནང་ཁུལ་གྱི་	-11332
བཅས་བྱེད་དགོས།	-11333
▁མྱུར་	-11334
ཚུན་དུ།	-11335
དུན་གྱི་	-11336
བྷཱ་	-11337
དང་གྲོང་ཁྱེར་	-11338
ཚེས་ཉེར་བརྒྱད་	-11339
ཅང་།	-11340
ཁག་གཉི	-11341
ཀྱིས་བླ	-11342
ཞིན་དུ་	-11343
རྡོ་སེང་གེ་	-11344
▁གཟུགས་ཀྱི་	-11345
རྒྱལ་ཁབ་གཉིས་	-11346
པར་རིས།	-11347
ཚོར་སྣང་	-11348
རྨས་ཕོག་	-11349
ཕེའོ་ཅིན་	-11350
▁བཞི།	-11351
འདུལ་བའི་	-11352
རྒྱུ་ཡིན།	-11353
བཅས་ནས་	-11354
མཁའ་ལམ་	-11355
ཀུན་རྫོབ་	-11356
ཅེས་པ་ནི་	-11357
རོགས་འདེགས་	-11358
ཀྱིས་ཀྱང་	-11359
▁མཁའ་འགྲོ་	-11360
▁དང་སྐར་མ་	-11361
དབུལ་ཐ	-11362
▁བས	-11363
▁བཞི་པ་	-11364
མཐེ་	-11365
མུའུ	-11366
མགུར་	-11367
བཟང་པོའི་	-11368
གཏོང་རྒྱུ་དང་	-11369
▁ཧོང་	-11370
ཙུང་ཐུང་གཞོ	-11371
ག་ཚགས་པར་	-11372
མཐོ་སྒང་	-11373
པའི།།	-11374
ཎྜི	-11375
རིག་བ	-11376
རྡར་	-11377
སྐུལ་ལྕ	-11378
▁གང་ཡང་	-11379
ཐ་མྱི་དད་དོ།	-11380
ངོ་བོ་ཉིད་ཀྱིས་	-11381
ཡོན།	-11382
▁ལིས་ཁི་ཆང་	-11383
དགོངས་པའི་	-11384
▁དགྲ་བཅོམ་	-11385
གཅིག་གྱུར་བ	-11386
ཤིག་གསར་དུ་	-11387
གཞལ་	-11388
འཚམས་འདྲི་བྱས།	-11389
ཞད་	-11390
དཔང་ཡིག་	-11391
མང་ཚོགས་རྣམས་	-11392
འབྱུང་སྟེ།	-11393
དཔག་ཏུ་མེད་པ་	-11394
ཇིག་	-11395
བྱས་རྗེས་འཇོག་	-11396
གསྡོ	-11397
ཚན་པ་དང་	-11398
བྱས་པ་དེས་	-11399
ཡན་ཆད་	-11400
ཤིང་རྟ་	-11401
རིན་ཆེན་མཚོ།	-11402
ལབ་	-11403
▁ལོའི	-11404
མཁྲི	-11405
▁གཏམ་	-11406
ར་འགན་ལེན་	-11407
སམ་འཆར་	-11408
བརྟན་དུ་བ	-11409
རྒྱུས་མངའ་	-11410
▁ཁོང་གིས།	-11411
▁ཀུ་	-11412
འཐུས་ཚང་	-11413
▁ཡོད་པ་རེད།	-11414
བྱེད་པའི་ལས་དོན་	-11415
ཆོག་པ།	-11416
བཞིན་པ་	-11417
མཛུབ་སྟོན་དུ་	-11418
མཚོན་ཆའི་	-11419
འགྱུར་རོ་	-11420
མི་བྱ།	-11421
གྱིད་པ་	-11422
མེ་ཟོན་	-11423
▁དེས་ནི་	-11424
▁རྨི་ལམ་	-11425
ཉེས་བྱས་སོ།	-11426
མཐོ་ཚད་སྨི་	-11427
གསུང་བ	-11428
བྱང་བ	-11429
ཡིག་ཆའི་	-11430
སྟོང་པའི་	-11431
སློབ་ཐོན་སློབ་མ་	-11432
དེབ	-11433
༡༧	-11434
གསུངས་པ་ཡིན་ནོ།	-11435
ར་འདོད་	-11436
ཞིབ་འཇུག	-11437
▁ཀུན་དུ་	-11438
▁ཞེས་སོ།	-11439
▁ཤཱ་རིའི་བུ་	-11440
ཏོན་ཡོད།	-11441
སྲིད་དུ་	-11442
བྱ་སྤྱོད་ལ་	-11443
▁དེ་ལྟ་བས་ན་	-11444
ལ་མཁས་པ་	-11445
ལྷན་སྐྱེས་	-11446
ཐོབ་ནས་ལོ་	-11447
ང་བོད་རིགས་	-11448
མའེ་	-11449
མུན་པ་	-11450
འི་ཆུ་ཚོད་	-11451
བས་ནས་	-11452
ཐེབས་པ་	-11453
བཏོན་པ།	-11454
བརྟན་པོའི་ངང་	-11455
ལ་གཟིགས་ཞིབ་	-11456
གསྡོད་	-11457
གསོག་འཇོག་	-11458
ཛྙཱ་	-11459
▁ཁ་དོག་	-11460
ཉིན་ལྟར་	-11461
ཞོ་སྟོན་	-11462
སྡིག་པའི་	-11463
སྐོམ་	-11464
བསྒྲགས།	-11465
▁བཙུགས་པ།	-11466
▁དམིགས་བསལ་	-11467
འཁོད་ལ་	-11468
དེང་སྐབས་	-11469
གཞན་ལས་	-11470
མི་སྲིད།	-11471
ལྡན་པ་དང་།	-11472
ཤའི་	-11473
སྐུལ།	-11474
དགེའི་	-11475
ཨང།	-11476
ཉིས་སྟོང་	-11477
དེ་བ་	-11478
འཇར་པན་གྱི་	-11479
▁ལོར་བ	-11480
▁གོང་གི་	-11481
མདུན་ལམ་	-11482
གྲོང་ཨུད་ཀྱི་	-11483
ཡོ་ནན་	-11484
ཡང་གནས་	-11485
ལུགས་པའི་	-11486
▁བརྙན་སྐྱེལ།	-11487
▁ཀུན་རྫོ	-11488
སྲེད་པ་	-11489
དྲ།	-11490
ཞོག་	-11491
ཅི་ལྟར་	-11492
བྱེད་ཅིང།	-11493
ཀྭ་	-11494
ཀྱང་།།	-11495
སྦྲུམ་	-11496
དོ་མཉམ་	-11497
▁གཞུང་ལམ་	-11498
འཕར་བ་	-11499
ལས་བརྒལ་བའི་	-11500
ཀཱི	-11501
ས་མཐོར་	-11502
▁ཕྱོགས་གཉིས་ཀྱི་	-11503
ཌཱ	-11504
སཾ	-11505
དྲ་ཐོག་ནས་ཕབ་	-11506
ཚད་ཀྱི་	-11507
མྦ	-11508
དཔེ་ལེགས་	-11509
བྱེད་ཐུབ།	-11510
ཨ་རི་	-11511
▁ཅིང་	-11512
རྒྱང་སྐྱོད་	-11513
ཅག་གི་	-11514
མཛད་ནས་	-11515
གཞི་གཅིག་ཏུ་	-11516
འགྲུལ་བ	-11517
རྣམ་བཤད་	-11518
བཟུང་སྟེ་	-11519
གཉོ	-11520
འཕྲི་	-11521
ལ་བསླབ་	-11522
▁ལྷག་ཕྱིན་པའི་	-11523
ཧྭ།	-11524
བརྟུལ་ཞུགས་	-11525
ལྷ་དང་	-11526
༧༣༣	-11527
སེལ་བ་	-11528
ཉེ་སྔོན་	-11529
སྨིན་པའི་	-11530
ཐུབ་པའི་འགན་ལེན་	-11531
རུའི་	-11532
ཆུད་པ་	-11533
མཚན་གནས་	-11534
▁རང་རེའི་	-11535
▁རྒྱལ་ཡོངས་སུ་	-11536
ལམ་སྒོ་ཨང་	-11537
གྱི་པར་དབང་	-11538
▁ཉིན་གྱི་ཆུ་ཚོད་	-11539
གསྡོད་གནས།	-11540
ཚོན་ཁྲ་ཅན་གྱི་	-11541
འཛད་སྤྱོད་པའི་	-11542
ཉ༷	-11543
ཚང་བ་	-11544
▁མགྱོ	-11545
མཛེས་སྡུག་གི་	-11546
ཀོད་སྒྲིག་བྱས།	-11547
▁༨༥༠༠༠༠	-11548
མི་ཆོགསྡོད་གནས།	-11549
ཤུགས།	-11550
▁ཡོངས་	-11551
ང་གློག་	-11552
དམ་ཚིག་གི་	-11553
བྱེད་པའི་ཆེད་	-11554
ལམ་སྒོ་ཨང་༣༦	-11555
▁མཛད་	-11556
གོམ་པ་	-11557
རང་བདག་ཡིན་པས་	-11558
སྦྱར་ཏེ།	-11559
སྦྱིན་གྱི་	-11560
ཡོང་མཁན་	-11561
▁རང་རྒྱལ་གྱིས་	-11562
ཉམས་མྱོང་བ	-11563
བྱེད་དགོས་པ་དང་	-11564
བཟོ་མཁན་ལས་ཁུངས།	-11565
▁སྦྲག་ཨང།	-11566
ག་མ་	-11567
སྤུས་ཀ་	-11568
འགོ་ཚུགས་པ་རེད།	-11569
དང་གྲངས་	-11570
▁ཅ་	-11571
ཆོག་གི་	-11572
▁ཨེ་ཅིབ་	-11573
▁སྲིད་ཀྱི་སྐོར།	-11574
ལྟ་བཤེར་	-11575
སྨན་རིན་	-11576
རྒྱབ་ལྗོངས་	-11577
འབྲེལ་བ་ཡོད་པའི་	-11578
སྤྱི་གླིང་	-11579
པང་	-11580
ཞོགས་	-11581
▁འོང་	-11582
ཉེ་བའི་ལོ་ཤས་	-11583
གཱ་	-11584
▁ཉིན་དེར་	-11585
རྩེས་	-11586
▁ཕཱ་ལེ་	-11587
ས་ཁུལ།	-11588
ཤེས་སོ།	-11589
ཅིབ་ཀྱི་	-11590
གཙང་མ་	-11591
▁ཞི་ཅིན་ཕིང་གིས།	-11592
གཡོ་བ་	-11593
ཉིང་ཁྲིའི་	-11594
ཡོང་རྒྱུ་	-11595
མི་ཚེ་	-11596
འཕྲེད་	-11597
གདན་འདྲེན་	-11598
▁གཡོ་	-11599
རྟགས་མ་	-11600
▁ཤིན་ཧྭ་དྲ་བའི་	-11601
▁གཟའ་འཁོར་	-11602
ཆེན་རྫོང་གིས་	-11603
རི་དྭགས་	-11604
འགན་བཅོལ་གྱི་	-11605
ང་བརྙན་འཕྲིན་	-11606
དགའ་སྟོན་	-11607
ཚད་ཡོད་ཀུང་སི་	-11608
▁ཞབས་ཕྱི།	-11609
▁སྡེ་བ་	-11610
▁མེས་རྒྱལ་	-11611
སྐྲུན་པ་དང་	-11612
སྟེ།།	-11613
▁གྲོས་	-11614
▁སྡུག་བསྔ	-11615
རྟན་པའི་	-11616
ཞུས་པ་དང་	-11617
བརྙན་མཐོང་།	-11618
▁བསྐལ་པ་	-11619
ལས་རིགས་ལག་རྩལ་	-11620
རོའི་	-11621
དེ་ཆེན་	-11622
བཀོལ་	-11623
ཁོང་ཚོས་	-11624
ལ་སྤྱོད་པའི་ཚེ།	-11625
ཡོངས་སུ་རྫོགས་	-11626
ཁྲི་ཚོ་	-11627
ཅག་གིས་	-11628
དྲུང་ཆེ་	-11629
སྲོག་གི་	-11630
ཕྱིར་ཚོང་	-11631
▁པོའི་ཚེས	-11632
▁བསྡོམས་པས་	-11633
▁པྲ	-11634
ཧྲན།	-11635
ཆ་ནས།	-11636
འ༷	-11637
ཁམས་དང་	-11638
སྒོར་ས་ཡ་	-11639
དང་ལྡན་པས་	-11640
གང་ཡིན་པ་དང།	-11641
ལྡོག་པར་	-11642
སྒྲུབ་པ་དང་།	-11643
གྱིན་	-11644
རང་ངོས་ཀྱི་	-11645
བདག་ཉིད་ཀྱི་	-11646
བྱུང་ནས།	-11647
ལག་བསྟར་བསམ་	-11648
མཚོ་སྔོན་པོའི་	-11649
ཞིབ་ཀློག་	-11650
རྣམ་གཉིས་	-11651
སྐོར་བའི་	-11652
▁གསུམ་ནི་	-11653
ལས་རིམ་	-11654
ཉིན་དེའི་	-11655
སྐུལ་འདེད་བཏང་།	-11656
▁100%	-11657
▁ཐོབ་	-11658
ཀྲིག་གི་	-11659
ཆེ་གེ་མོ་	-11660
▁ཅིའི་ཕྱིར་ཞེ་ན།	-11661
སིམ་	-11662
འབྱེད་པའི་	-11663
ཡིག་རིགས་	-11664
དུས་ཆེན་ལ་	-11665
འདི་དག་གི་	-11666
འཁོར	-11667
ཆེས་བ	-11668
ཞེས་པའོ།	-11669
ན་བཟའ་	-11670
ཁས་བླངས་	-11671
དུར་ཁྲོད་	-11672
▁ཕུ་	-11673
ཧ་སག་	-11674
གུང་དཀར་	-11675
▁གོམ་སྟབས་	-11676
འབུམ	-11677
དོ་དམ་བྱེད་པའི་	-11678
ཞན་པའི་	-11679
▁ཨུ་ལྷན་	-11680
ས་ཁོངས་ཀྱི་	-11681
▁དམངས་གཙོའི་	-11682
རྒ་	-11683
ལས་སྣོ	-11684
རོམ་ཕུ་	-11685
ན་བཞུགས་	-11686
▁འཆམ་	-11687
འཛུགས་སྐྲུན་དང་།	-11688
22	-11689
ལྷག་བསམ་ཟོ	-11690
རྣམ་པར་རྟོག་	-11691
གཏུག་བཤེར་	-11692
▁བསམ་བློའི་	-11693
གཅིག་ཉིན།	-11694
སྐྱེས་ཀྱི་	-11695
མི་སེམས་	-11696
▁སྐབས་དང་པོའི་	-11697
གནས་ནས་	-11698
ཕྱོགས་གཉིས་པོའི་	-11699
ན་རེ་	-11700
བྱིན།	-11701
ཙནྡ	-11702
སྦྱང་	-11703
དམག་ཁུལ་	-11704
བར་གྱི་འབྲེལ་བ་	-11705
ངོ་བོའི་	-11706
ཆར་ཆུ་	-11707
འཛིན་པ་དང།	-11708
▁ལས།	-11709
སུམ་ཅུའི་	-11710
འགོ་ཚུགས།	-11711
▁འབྲི་ཆུའི་	-11712
འཚོ་སྡོད་	-11713
ཞི་ཅིན་ཕེན་དང་	-11714
ཟམ་པ་	-11715
དྱ	-11716
བཞད་	-11717
▁རྫོགས་	-11718
རླུང་དང་	-11719
ལྡན་ཞིང་	-11720
བྱིན་གྱི་	-11721
ཚོགས་པ་དང་།	-11722
གཉིས་ལས་	-11723
དགུ་བཅུ་	-11724
འཇོག་གི་	-11725
ཡོད་དམ།	-11726
▁ཧྲུའུ་ཅི་	-11727
ཟློས	-11728
▁ཁྲོམ་རའི་	-11729
▁ཉིན་ནས་བཟུང་	-11730
ཉེ་འགྲམ་གྱི་	-11731
ལྗང་སྒྱུར་	-11732
ཏང་བར་	-11733
▁དཔའ་བོ་	-11734
ཤར་ཕྱོགས་ཀྱི་	-11735
ཉུང་མཐར་ཡང་	-11736
བསམ་གྱིས་མི་	-11737
དམངས་ཡོངས་	-11738
▁གསར་སྐྲུན་	-11739
བསྟེ	-11740
རྡོའི་	-11741
▁ཀུན་ཏུ་	-11742
སྤྱད་པར་	-11743
ཏན་ཏན་ཏིག་ཏི	-11744
ཁྱད་འཕགས་	-11745
▁གསང་སྔགས་	-11746
རྡུལ་ཕྲ་རབ་	-11747
ཐོན་པ།	-11748
སོའི་	-11749
དང་བྱང་ཆུབ་	-11750
ལྡན་དུད་	-11751
ཉོ་ཚོང་གི་	-11752
▁བོད་བརྒྱུད་	-11753
བྱུང་བས།	-11754
མཐོང་སྟེ།	-11755
མཐའ་འཁོར་དུ་	-11756
▁སྟེ་	-11757
དེ་ཉིད་ཀྱི་	-11758
ཚོགས་འདུར་ཞུགས་	-11759
གཟུགས་ཅན་	-11760
སོག་རིགས་	-11761
▁ཕུའུ་ཅིན་གྱིས་	-11762
སྒྱོ	-11763
▁མདོར་ན་	-11764
སྡེ་ཁག་སོ་སོས་	-11765
སྤེལ་བར་གཞིགས་ན།	-11766
གོང་འོག་	-11767
འབད་བརྩོ	-11768
སྒ་	-11769
སྒྲུབ་དགོས།	-11770
མ་འོངས་པ་	-11771
▁༢༠༡༦	-11772
▁བུམ་པ་	-11773
ཅིན་ཀྲེང་	-11774
▁ངེས་	-11775
ང་གསལ།	-11776
▁སྟོན་པ་	-11777
རང་གི་མཚན་ཉིད་	-11778
ར་བས།	-11779
སྱ	-11780
ཤས་བ	-11781
ལས་མངོན་	-11782
ལྷང་	-11783
སྦ་	-11784
▁2009	-11785
▁རྒྱལ་དབང་	-11786
དྲན་པའི་	-11787
ཞིབ་མོ་	-11788
རྟེན་པ་	-11789
▁ཉེས་པ་	-11790
▁ཀུན་སྤྱོད་	-11791
དགེ་བཤེས་ལྷ་	-11792
ཁང་གི་ཧྲུའུ་ཅི་	-11793
▁བཟང་	-11794
▁དེར་བ	-11795
རྒྱལ་སྐྱོང་	-11796
འགན་སྲུང་དང་	-11797
བྲོ།	-11798
དགེ་རྒན་ཆེན་མོ་	-11799
ཁྲི་ཀ་	-11800
སྣང་གི་	-11801
མངའ་ཁོངས་ཀྱི་	-11802
བ་བསྟུན་	-11803
བཅུག	-11804
▁རྒྱལ་སྤྱི།	-11805
དབེན་པ་	-11806
མ་ཟེའི་	-11807
གསར་གྱི་	-11808
ཤིང་འཛུགས་	-11809
▁ཆོས་ཀྱི་དབྱིངས་	-11810
ཁོར་ཡུག་ལ་	-11811
དགེ་སློང་གིས་	-11812
ཁེངས།	-11813
▁བཛྲ་	-11814
བླ་མའི་	-11815
ལྷ་ཡི་	-11816
མངའ་ཁོངས་སུ་	-11817
དེས་ན་	-11818
གསུང་གི་	-11819
ཆེ་མོར་	-11820
▁འདིས་ནི་	-11821
▁༡༢	-11822
▁དཔལ་ལྡན་	-11823
▁དགོ	-11824
ཉོན་	-11825
ཚེར་	-11826
དེ་བས་ཆེ་བ་	-11827
ང་གཱ	-11828
ཤུག་	-11829
རེག་པ་	-11830
བཏོན་པའི་	-11831
འཛུགས་བསྐྲུན་	-11832
▁བརྙན་ཟློས	-11833
དགའ་བསུ་ཞུ་བའི་	-11834
གཏན་དང་	-11835
འཛུགས་དགོས།	-11836
པོ་ཡིས་	-11837
▁ཡུན་རིང་	-11838
ཟུང་བའི་	-11839
ཐོག་གནས་ཚུལ་	-11840
▁པཱ	-11841
པོ་ཡོད།	-11842
དྲང་བདེན་	-11843
འདེམ་བསྐོ་	-11844
དགེ་འདུན་པ་	-11845
རིལ་	-11846
ད་བཞི	-11847
ཉེ་བར་གཞག་པ་	-11848
བྱང་ཁུལ་	-11849
མི་ཤེས་པ་	-11850
གྱུར་པའོ།	-11851
མཐའ་འཁྱོངས།	-11852
གློག་གཏོང་	-11853
▁ལོངས་སྤྱོད་	-11854
ཁོང་དུ་ཆུད་པ་	-11855
རྒྱ་བོད་	-11856
རྒྱག་པ་དང་།	-11857
ཐོག་མར་བ	-11858
དམིགས་ཏེ།	-11859
བྱེད་རྩིས་	-11860
མངགས་བཅོལ་	-11861
འདུ་ཤེས་ཟབ་ཏུ་	-11862
སྟེགས་བུའི་	-11863
དཔྱད་གཞིའི་	-11864
མགོ་ཁྲིད་པས་	-11865
ཁྲིར་	-11866
མ་ལགས་	-11867
ཡོ་བསྲང་	-11868
རྣམ་པ་དང་	-11869
རིམ་པ་བཞིན་	-11870
ཆེན་པོ་ཐེབས་	-11871
ཚལ་གྱི་	-11872
བྱས་པ་རེད།།	-11873
ཀུན།	-11874
ཆིག་སྟོང་	-11875
ལུང་བསྟན་	-11876
གནད་དོན་གལ་ཆེན་	-11877
གནས་བབ་ལ་	-11878
▁ཧེ་	-11879
སྡེ།	-11880
ཅང་སུའུ་	-11881
དཔོན་དམག་ཚོས་	-11882
འགྱིག་	-11883
ལ་གྲོས་འཆམ་	-11884
ཁོང་ཚོ་	-11885
གྲྭ་བཙུ	-11886
ན་ནི།	-11887
ལ་ཞིང་	-11888
མེད་ཅེས་	-11889
▁པར།	-11890
ལྟ་བ།	-11891
ཏ་ཐཱ་ག་	-11892
གཡུར་དུ་ཟ་བ་	-11893
ཁྲི་ཚོ	-11894
དཔོན་རིགས་ཀྱིས་	-11895
གཡས་གཡོན་	-11896
ན་བཟང་པོ་	-11897
དུ་བསྒྱུར་	-11898
▁ཞི་ཅིན་ཕིང་	-11899
ཚོགས་འགོ་བརྩམས།	-11900
▁53	-11901
ཕེན་	-11902
རྣམ་པ་གསར་བ་	-11903
ལི་ཁེ་ཆང་གིས་	-11904
▁དཔྱིད་གསར་	-11905
སྨི་ངོས་གྲུ་	-11906
ཁ་དོ	-11907
ནི་གང་	-11908
དྲི་བར་	-11909
▁གསར་དུ་	-11910
ཐོད་	-11911
སྡུག་པའི་	-11912
གོ་ལའི་	-11913
ར་བ་དང།	-11914
▁ས་དེའི་	-11915
རྒྱལ་རབས་ཀྱི་	-11916
ཅུས།	-11917
སྤྱིའི་ཆ་ནས་	-11918
▁ལས་བརྒལ་	-11919
ས་བས	-11920
▁དབྱིན་ཇིའི་	-11921
སོང་བ།	-11922
ལེ་པཱ་ནུ	-11923
▁ཁྲོན་བོད་	-11924
ལས་དབང་	-11925
པོའི་སྒོ་ནས་	-11926
▁ཟླ་བདུན་པའི་	-11927
རེས།	-11928
དུས་མཉམ་	-11929
▁དཔར་	-11930
དྲུག་ཏུ་	-11931
ལས་དོན་དང་	-11932
བསྐོ	-11933
ཆེར་འགྲོ་	-11934
བྱུང་རྗེས་	-11935
▁ཟླ་བརྒྱད་པའི་	-11936
ར་བར་བ	-11937
འགོ་ཁྲིད་འོག་	-11938
ས་ཁུལ	-11939
ཡིག་འབྲུ་	-11940
སྤེལ་དགོས།	-11941
▁རྩོམ་ཁུངས།	-11942
▁གཞུ	-11943
བྱས་ཏེ་རྒྱལ་ཁབ་	-11944
ཅིག་ཅེས་	-11945
ཐུང་ངུ་	-11946
▁ཆེས་མཐོའི་	-11947
ན་གནས་པའི་	-11948
བར་ཆད་	-11949
འགྲོ་འོ	-11950
གུང་གཞོན་	-11951
བཟུང་བ་	-11952
ཁྲིད་པ་དང་	-11953
སྤྱོད་པ་དང།	-11954
བྱང་ཕྱོགས་ཀྱི་	-11955
ཀང་གིས་	-11956
སྤོ་བོ་	-11957
བྱེད་པ	-11958
▁དེའི་རྗེས་སུ་	-11959
རྨས་ཕོ	-11960
གཉེན་སྒྲིག་	-11961
ལྕག་སྐུལ་	-11962
ཕུན་སུམ་ཇེ་	-11963
འཚོགས་ཤིང་།	-11964
ན་འདུག་	-11965
བྱུང་དུ་	-11966
བྱ་ཡུལ་དུ་	-11967
རིམ་རྩིས་བྱས་ན་	-11968
རྣམ་གྲངས་ལ་	-11969
ལས་འག	-11970
གཡུང་དྲུ	-11971
མེ་མདས་བ	-11972
གང་ཡིན་པ་དེ་ནི།	-11973
སི་ནས་	-11974
ཤིན་ཅང་	-11975
མི་དམངས་ཤོག་	-11976
༡༤	-11977
ཆུང་གིས་	-11978
ཞིག་ཀྱང་རེད།	-11979
སློབ་ཆུང་གི་	-11980
▁དེའི་འོག་ཏུ་	-11981
ཐ་སྙད་དུ་	-11982
▁ཉེན་ཁ་	-11983
རིགས་པས་	-11984
མཛད་སྒོར་ཞུགས།	-11985
བྷོ	-11986
དཔྲ	-11987
མིག་གིས་	-11988
གཅིག་སེམས་	-11989
འདྲི་གཅོད་	-11990
སློབ་གྲོགས་	-11991
▁ཉིན་ནས་ཚེས	-11992
གཉིས་ཀའི་	-11993
བཅའ་ཁྲིམས	-11994
དགོན།	-11995
ལ་བརྩེ་	-11996
གྱུར་ནས།	-11997
འགྲན་སློང་	-11998
ལམ་ལུགས་ལག་བསྟར་	-11999
ཕྱོངས་	-12000
སངས་རྒྱས་བ	-12001
ཏང་ནན་པོས་	-12002
དེང་འཇོག་	-12003
གཙོར་	-12004
▁གདན་	-12005
▁འབྲུ་	-12006
ཕྱི་ནང་	-12007
ཧྲིན་ཏོན་	-12008
▁ངན་	-12009
ང་གོལ་	-12010
བྱུང་།།	-12011
▁42000	-12012
གནད་འགག་གི་	-12013
སྟབས་བདེའི་	-12014
སྤྱི་བའི་	-12015
དམིགས་པ་དང་	-12016
གཟབ་རྒྱས་ངང་བ	-12017
ནང	-12018
རང་ངོས་	-12019
དྲན་སྐུལ་	-12020
རྫོང་བ	-12021
དགོན་གྱི་	-12022
འཚམས་འདྲིའི་	-12023
དཔེའི་	-12024
རྔམ་	-12025
ལན་དུ་	-12026
ཏང་གི་སྐབས་	-12027
རྩམ་	-12028
རྩེ།	-12029
ཆོས་འཕེལ་	-12030
བྱ་དགོས་པའི་	-12031
སེམས་དཔས་	-12032
ཝོ	-12033
ཡི།།	-12034
ཞིབ་ཀློག་བྱེད།	-12035
ཡོངས་སུ་སྨིན་པར་	-12036
རུང།	-12037
ཡེ་ཤ	-12038
བརྟེན་	-12039
བར་དུ།	-12040
གོང་མཐོར་	-12041
འབྲེལ་བ་དང་	-12042
སྐད་དང་	-12043
▁སྨོན་པ་	-12044
▁བསླབ་	-12045
མངོན་པ།	-12046
མཛོད་ཁང་	-12047
པེ་ཅིང་ནས་ཟླ་	-12048
དང་འབྲེལ་གཏུག་	-12049
བུམ་	-12050
སྐོར་གྱི་བརྡ་	-12051
དགྲ	-12052
ཉིན་མོར་	-12053
གྱོང་གུད་	-12054
མུ་སྟེགས་	-12055
རྒྱལ་ཁབ་ཁག་གི་	-12056
ལས་གཞི	-12057
▁ལས་ཀ་	-12058
རྗེས་དྲ	-12059
▁ཞེས་གསུངས་	-12060
མོས་བ	-12061
གཞས།	-12062
བྱུག་	-12063
བྱས་རྗེས་བ	-12064
ག་རྩོད་	-12065
བྱས་པ་ནི་	-12066
ཅིན་ཀྲེང་ཨེ	-12067
སྐུ་དང་	-12068
བར་དུ་བ	-12069
རྨོངས་པ་	-12070
ང་བདེ་འཇགས་	-12071
བཅོས་སྐྱོང་གི་	-12072
ཚད་ལྡན་ཅན་གྱི་	-12073
བུ་ཕྲུ	-12074
ཞིག་ཡོད་པ་	-12075
▁ཡས་མས་	-12076
ཆབ་མདོའི་	-12077
ཅོམ་	-12078
ཐོན་འབབ་	-12079
བཅོ་ལྔའི་	-12080
གྲོས་གཞིར་	-12081
དུས་ཡུན་རི	-12082
ད་ཐེངས་ཀྱི་	-12083
པེད་	-12084
རྩིས་ཀྱི་	-12085
▁མཛའ་	-12086
གླུ་དབྱངས་	-12087
ཚད་འཇལ་	-12088
ལ་འཚོ	-12089
གོམས་སྲོལ་	-12090
མ་ཟ་	-12091
བྱ་བ།	-12092
ངང་ཚུལ་	-12093
ཀྲུའུ་ཞི་ཡུས་	-12094
ཚད་སྤྱི་ལེ་ཁྲི་	-12095
སེར་གྱི་	-12096
ན་འདོན་	-12097
ནི་རྣམ་པ་	-12098
ཚམས་འདྲིར་	-12099
▁སྨ	-12100
མདོར་	-12101
ཙུགས་ཏེ་	-12102
▁ཆང་	-12103
▁གྲོ་	-12104
ཁ་པར་བ	-12105
ཕོ་མོ་	-12106
ཊཱ	-12107
བཞིས་	-12108
མོར་བ	-12109
འདོན་པ་	-12110
སློབ་པ་	-12111
▁མི་སྣ་	-12112
སྨན་བཅོས་ཀྱི་	-12113
གནས་ལ་	-12114
བཙུགས།	-12115
གལ་ཆེན་ཞིག་ཡིན།	-12116
སྨྲ་བར་	-12117
སྙིང་སྟོ	-12118
རླངས་འཁོར་ཞིག་	-12119
སྒྲོག་སྤེལ་	-12120
ཐོབ་ཡོད་པ་རེད།	-12121
ཐེབས་རྩའི་	-12122
འཇིག་རྟེན་དུ་	-12123
གཤིས་བ	-12124
▁རྒྱ་གར་གྱི་	-12125
▁མྱོ	-12126
གླིང་ཕྲ	-12127
ཆིའུ་	-12128
ཐེབས་ཏེ་	-12129
པར་དུ་བ	-12130
ཡོངས་སུ་མ་	-12131
བ་དང་བསྟུན་ནས་	-12132
▁49	-12133
གནད་བ	-12134
ཁུར་པོ་	-12135
དེ་དག་ག	-12136
དབུལ་གྲོལ་	-12137
▁ཧུར་ཐག་གིས་	-12138
ས་སུ་	-12139
སྐད་གཉིས་	-12140
ལ་འཇུག་པའི་	-12141
▁ལྷག་གི་	-12142
འགྲན་བསྡུར་གྱི་	-12143
བདག་མེད་	-12144
ནས་བསྡུས་པ།	-12145
དབུལ་སྒྲོལ་གྱི་	-12146
རྱ་	-12147
རིགས་ཀྱི་བུ་	-12148
ཆུ་ཤུར་	-12149
བའི་ཕྱིར་	-12150
མེན་གྱིས་	-12151
▁ཨ་ཧྥེ་རི་ཁ་	-12152
▁150	-12153
ཐུག་པ་	-12154
ལ་སྙོམས་པར་	-12155
དེང་གི་	-12156
▁ཐུར་ཁེ་	-12157
འཛོམས་པའི་	-12158
ཆ་དང་	-12159
ཡོང་།	-12160
སྙན་རྩོམ་	-12161
▁པེ་ཅི	-12162
བྱོལ་	-12163
▁ཧའོ་	-12164
སིས་	-12165
གཙོ་བོ།	-12166
ཚའེ་	-12167
བོད་ཀྱིས་	-12168
སོང་བ་དང་	-12169
ར་འགན་སྲུང་	-12170
རིམ་པ་ཡན་གྱི་	-12171
ཏྱ	-12172
སྒེའུ་	-12173
▁རྩ་བའི་	-12174
ཞེས་བྱ་བ་སྟེ།	-12175
▁གཤིན་	-12176
འཛུགས་པ་	-12177
བཟུང་སྟེ།	-12178
▁འདི་ནི་ཟླ་	-12179
འཐབ་འཛིང་གནམ་	-12180
ཐཱ་ལེ་	-12181
▁དུང་	-12182
ཡང་དང་	-12183
བདག་སྐྱོང་	-12184
རྩ་ཆེན་	-12185
▁བྱས་པ་	-12186
སྭ་	-12187
འགོ་ཚུགས་པ་	-12188
ཡོན་ཏན་གྱི་	-12189
▁གསང་བ་	-12190
▁ཕལ་	-12191
བྱེད་དགོས	-12192
▁1.	-12193
སོགས་ཁྱབ་ཁོངས་	-12194
མང་ཚོགས	-12195
གོས་ཀྱི་	-12196
སྔོ་ལྗང་	-12197
▁ལྟར་	-12198
དུན་པའི་	-12199
སྟོབས་ཆེན་	-12200
སི།	-12201
ལམ་སྲོལ་བ	-12202
▁ཉིན་བར།	-12203
ཉེ་ལམ་	-12204
བཤད་པའི་	-12205
གཏན་སྡོད་	-12206
ཧྲེང་གིས་	-12207
བསྒྲུབ་པར་	-12208
རང་བཞིན་དང་།	-12209
འགངས་	-12210
ལ་གནོད་པ་	-12211
▁ཨུ་ལྷན་གཉིས	-12212
ཏང་བཅོས་སྐྱོང་	-12213
12	-12214
འཁྲུལ་པ་	-12215
▁སྔོན་དཔག་	-12216
▁ཨི་	-12217
དུན་ཅུ་	-12218
དོན་ཚན་བ	-12219
མངོན་པར་འདུ་	-12220
▁རྐྱེན་	-12221
དྲི་མེད་	-12222
▁དགོས་པ་	-12223
སཾ་	-12224
མཚན་བ	-12225
ཆོད་པ་	-12226
དང་ལྡན་པ།	-12227
ཁྲི།	-12228
སའེ་	-12229
ཐད་པ་	-12230
ཀུང་ཟིའི་	-12231
ལས་གཏོད་ཀྱི་	-12232
▁དབུལ་སྒྲོལ་	-12233
▁ཉིན་ཤས་གོང་།	-12234
སྤུས་ཚད་མཐོ་རུ་	-12235
འགེལ་	-12236
▁མཆོག་	-12237
▁ཕྲུ་གུ་	-12238
མེད་པར་བཟོ་	-12239
ལས་བཟོའི་	-12240
ལ་སྐུལ་མ་	-12241
འགྲོ།	-12242
སྐྱར་བ	-12243
ཡོད་པའི་སྒོ་ནས་	-12244
▁ལྕེ་	-12245
དམག་འཁྲུག་ལ་	-12246
ལས་སུ་	-12247
འགྱོ	-12248
▁ཚོད་	-12249
ག་མདངས་	-12250
འཚེར་	-12251
བསྐྱུར་	-12252
བོད་ཁུལ་	-12253
དཀྱུས་མ་	-12254
རྒྱལ་ཁོངས་	-12255
འབྲུབ་	-12256
▁58	-12257
▁ཉེ་བར་	-12258
སོ་སོ་ནས་	-12259
▁ཉེས་	-12260
སྤྱོད	-12261
▁འདི་ལོའི་	-12262
རྒྱ་ཆེའི་ཏང་ཡོན་	-12263
ལེགས་བསྒྱུར་	-12264
སྡོད་ཁང་དང་	-12265
▁ནི	-12266
▁སློབ་གྲྭ	-12267
ཝུའུ་དབྱིང་ཅེས་	-12268
སྤྲད་པ་རེད།	-12269
▁མ་ཧཱ་	-12270
ནང་སའི་	-12271
ལོ་ཏོག་	-12272
སྒྲ་དང་	-12273
མངོན་མེད་	-12274
ཐུབ་པ་རེད།	-12275
ངེས་རེད།	-12276
བགྲོད་	-12277
ལེའོ་	-12278
▁༢༠༡༥	-12279
ལག་ཤེས་	-12280
▁གྲོས་ཚོགས་ལས་	-12281
▁དུས་བ	-12282
ར་བའོ།	-12283
རྩིས་ཏེ་	-12284
ཡིབ་	-12285
ཡོང་བ་དང་།	-12286
སྐད་འཕྲིན་ལམ།	-12287
ཎྜི་	-12288
ཞི་བས་	-12289
▁དོན་རྐྱེན་	-12290
ལས་སྐྱེས་པའི་	-12291
གྲང་ངར་	-12292
ཉོ་ཚོང་དང་	-12293
▁ས་གནས་ཀྱི་	-12294
.6%	-12295
བཞེངས་	-12296
ཞུ་གཏུག་	-12297
མི་མངོན་པའི་	-12298
དང་པོ།	-12299
▁གསལ་	-12300
གནམ་ལོ་	-12301
རིན་ཐང་བ	-12302
དམངས་ཡོངས་ཀྱི་	-12303
དྲུག་ལོའི་	-12304
རྣམ་པ་ཞིག་	-12305
ཡོང་བ	-12306
ངོ་ཞེས་	-12307
.3%	-12308
སྙམ་ནས་	-12309
གཙོ་ཁྲིད་	-12310
བརྒྱ་ཕྲག་	-12311
ཕ་རོལ་ཏུ་ཕྱིན་	-12312
གྲོ་གུང་དཀར་	-12313
གཞུང་ལས་ཁང་གིས་	-12314
བློན་	-12315
འདུས་བྱས་	-12316
ལོ་ཙཱ་བ་	-12317
ལས་ཁུངས་ལ་	-12318
ལྷག་བསམ་རྣམ་	-12319
མཆོག་བ	-12320
སྒོ་ཚང་དུ་	-12321
▁ཚངས་	-12322
ཞིག་ཡོད།	-12323
▁གཅིག་གྱུར་	-12324
ཚོ་བ་	-12325
སྟན་བཅོས་	-12326
བཞེས་	-12327
བརྩེ་སེམས་	-12328
▁བརྩོན་འགྲུས་	-12329
འབྱུང།	-12330
སྒྱུར་བ།	-12331
གསར་བ།	-12332
དག་གོ།	-12333
ལོ་གཅིག་གི་	-12334
▁དུས་མཚུངས་སུ་	-12335
ལ་འཁྲུ	-12336
ཧེ་རུ་ཀ་	-12337
གནོད་པའི་	-12338
གཞིར་བཟུང་ནས་	-12339
དགོས་པ་མ་ཟད།	-12340
འགྲོ་བཞིན་ཡོད།	-12341
ཡོད་རྒུ་	-12342
▁ཨུ་རུ་སི་དང་	-12343
ཨ་མེ་རི་ཁ་	-12344
ལོ་སར་གྱི་	-12345
དང་དངོས་	-12346
ལཱའི་	-12347
བཏང་བས་	-12348
རྒོལ་གཏམ་	-12349
ཆོག་མཆན་མ་	-12350
ལྷན་ཚོགས་	-12351
དོན་དམ་པའི་	-12352
▁དབྱི་སི་རལ་	-12353
ཉན་པ་	-12354
རིར་	-12355
ག་གམ།	-12356
གསུངས་ཡོད་པ་རེད།	-12357
▁ཛ	-12358
མཐུད་བ	-12359
▁115	-12360
ཅན་ནི་	-12361
▁བསྟན་འཛིན་	-12362
སྐུ་ཞབས་	-12363
མས་པར་	-12364
རྩིས་བརྒྱབ་	-12365
ལས་བཤད་རྒྱུར།	-12366
ལྟ་སྟངས་	-12367
ལ་བརྟེན་པ་	-12368
སྐད་ཆ་ཤོད་	-12369
རྒྱལ་ལམ	-12370
རིག་འཛིན་	-12371
▁ད་རེས་ཀྱི་	-12372
ཙོན་	-12373
ལོ་ཏོ	-12374
བཤད་པར་	-12375
སྤྱི་དབང་	-12376
དང་ལྡན་པར་	-12377
▁6.9	-12378
ཐག་པ་	-12379
▁ཀྲུང་གོ	-12380
མོང་	-12381
བཟོ་རྩལ་	-12382
▁རྒྱུན་མཐུད་	-12383
▁རང་ལྗོངས་ཀྱིས་	-12384
ཕྱོགས་མང་	-12385
སྟོད།	-12386
གཙང་སྦྲ་	-12387
རྒྱ་ཁྱོན་ལ་	-12388
མགྱོགས་མྱུར་ངང་	-12389
འཇོག	-12390
པར་བརྟེན་	-12391
▁ཚོང་དཔོན་	-12392
སྤྱོད་པ་དང་	-12393
སྟོན	-12394
ཞི་ཅིན་ཕིང་དང་	-12395
▁600	-12396
▁འདིར་བ	-12397
གཉིས་བར་གྱི་	-12398
མཛད་རྗེས་	-12399
ན་བཟ	-12400
ཤང་ཀ	-12401
རྨས་མ་	-12402
གསར་པ་དང་།	-12403
སྒྲུབ་ཐབས་	-12404
འབྲལ་ཐབས་	-12405
མི་འགྱུར་བ་	-12406
འཚོ་བ།	-12407
ཤུགས་འཕུར་	-12408
ཆུ་གློག་	-12409
ནི་ཆོས་	-12410
▁དཀོན་མཆོག་	-12411
ཉེ་དུས་	-12412
ལོ་རིམ་	-12413
མི་བཟ	-12414
དར་བའི་	-12415
གདན་ཞུའི་	-12416
ཉིན་བཞིན་	-12417
སྙིང་བ	-12418
ལྷན་ཚོགས་ཀྱི་	-12419
▁སྐྲ་	-12420
ང་སྟེགས་	-12421
འཛུགས་རྒྱུར་	-12422
གྲོས་མཐུན་བཀོད་	-12423
ས་གནས་ས་ཐོག་ཏུ་	-12424
ག་གནོད་	-12425
བོད་ཡུལ་	-12426
གཞན་སྒྱུར་	-12427
ན་རེ།	-12428
སུ་མ་	-12429
▁དགུ་	-12430
▁སྲིད་པའི་	-12431
ན་ག	-12432
གཙུག་ལག་ཁང་	-12433
ནང་སྲིད་	-12434
ཡིས།།	-12435
སློབ་མ་དང་	-12436
▁རྣ་བའི་	-12437
ཞིབ་འཇུག་ཁང་གི་	-12438
བལྟ	-12439
ཙམ་ཞིག་	-12440
ཁོར་སྲུང་	-12441
སྐྲན་	-12442
ཕྱིར་དྲན་	-12443
▁རྐང་ཚ་	-12444
▁196	-12445
དྲན་པར་	-12446
ངོས་བ	-12447
ཞང་ཀང་	-12448
▁མངོན་འགྱུར་	-12449
གྲང་ལས་འདས་པ་	-12450
ས་ཏེ།	-12451
སྒྲོམ་གཞིའི་	-12452
སྤྱི་ཚོགས་དང་	-12453
ངོས་ཟིན་	-12454
▁ཁོའི་	-12455
མཉམ་འགུལ་	-12456
▁མཚོ་སྔོན་པོ་	-12457
རལ་དང་	-12458
གྲས	-12459
ཧན་གོ་	-12460
མཉེས་པར་	-12461
ཧྥུན་	-12462
སྲ་ཞིང་བ	-12463
དྲུག་གིས་	-12464
ཡུན་ནན་ཞིང་ཆེན་	-12465
གསེས་	-12466
གོས་ནས་	-12467
ཕྱག་རྒྱའི་	-12468
དྲིལ་བསྒྲགས་དང་	-12469
.2%	-12470
དེ་རང་	-12471
སྲུང་བ	-12472
▁ཡབ་	-12473
རི་ཆུ་	-12474
མི་རུང་བ་	-12475
ཐིམ་	-12476
ལོ་ཚོགས་	-12477
▁བདེན་པ་	-12478
ཚད་གཞིའི་	-12479
གདན་དྲངས་པ་	-12480
གཞོན་པ་ཀྲང་	-12481
གས་ཏེ།	-12482
སྐབས་དེར་	-12483
བྱེད་པ་ལས་	-12484
▁འབྲུ་རིགས་	-12485
ཧེའི་	-12486
བཅུར་	-12487
ཅི་འདྲ་	-12488
▁འཆར་གཞི་	-12489
▁སེམས་ཅན་ཐམས་ཅད་	-12490
ཡོ་བྱ	-12491
རུང་སྟེ།	-12492
དེ་སྐྱིད་	-12493
དུས་ཆེན་སྐབས་	-12494
ཆེད་མངག་	-12495
ཟློག་པར་	-12496
ཆོས་མ་འདྲེས་པ་	-12497
དོན་འཁྱོལ་ཡག་པོ་	-12498
སྐྱི་	-12499
ཉམས་ཞན་	-12500
▁སྡིག་པ་	-12501
བྷི་	-12502
འདི་རྣམས་	-12503
སློབ་ཡོན་	-12504
འབོ་	-12505
ཉིད་ཀྱི་ཕྱིར་རོ།	-12506
མ་སྐྱེས་	-12507
ཏང་ཀྲུང་དབྱང་	-12508
བར་འགྲོ་	-12509
དམངས་ལ་	-12510
མི་རྟག་	-12511
དོམ་	-12512
རྒོལ་གཏམ་བཏང་།	-12513
དངུལ་རྩ་	-12514
སིང་ག་ཕོ	-12515
བྱ་རྒྱུ་ཡིན།	-12516
ཡོད་དོ་	-12517
ཏུན་ཁྲི་	-12518
ནས་ཟླ་	-12519
ཞག་སྡོད་	-12520
རབས་ཀྱི་	-12521
▁སྦྱིན་པ་	-12522
▁འགྲན་བསྡུར་	-12523
སྐུ་གསུང་ཐུགས་	-12524
ང་གེ་	-12525
ཅུད་ཀྱི་	-12526
དུས་སྐབས་སུ་	-12527
ཆགས།	-12528
དེ་དག་ལས་	-12529
སྐུལ་འདེད།	-12530
དཔེ་ཀློག་	-12531
སྐྱིད་པོ་	-12532
ཉམས་སུ་མྱོ	-12533
འགོ་ཁྲིད་དང་	-12534
མཉམ་འབྲེལ་ཐོག་	-12535
ལིན་གྱིས་	-12536
ཉི༷	-12537
ཐུབ་པ་བྱེད་དགོས།	-12538
དེ་འདྲའི་	-12539
ཕིན་གྱིས་	-12540
▁སྣེ་	-12541
རྒྱུན་གཏན་	-12542
ལེགས།	-12543
ཟིན་བྲི	-12544
གཤིས་ཀྱི་	-12545
པོར་འགྱུར་	-12546
ཕེབས།	-12547
བདེ་འཇགས་ལ་	-12548
གིས་	-12549
ང་གླི	-12550
ཕྱིར་འཚོང་	-12551
ཞེས་བྱ་བའི་བར་	-12552
བོད་ལྗོངས་འཕྲིན་	-12553
▁མཆོད་པ་	-12554
གྱིས་ཤོག་སྦག་	-12555
▁ལི་ཁེ་ཆང་གིས་	-12556
ང་བརྒྱད་	-12557
ལྗོན་ཤིང་	-12558
ཚན་རིག་གི་	-12559
▁སེ་	-12560
བྱེད་ན།	-12561
ཤེས་ནས་	-12562
གི་ཡོད།	-12563
▁བསམ་པ་	-12564
འགོད་ཀྱི་	-12565
ནོར་བཟ	-12566
མ་ཟད་བ	-12567
ཡིན་པ་མ་ཟད།	-12568
དགེ་ལེགས་	-12569
པེར་	-12570
སྐུ།	-12571
དེ་མ་	-12572
པར་མཛོད།	-12573
ད་བྲོ	-12574
འབབ་པའི་	-12575
▁གསར་སྣོན་	-12576
ལ་འགོ་འཛིན་	-12577
ཚབ་ཞུས་ནས་	-12578
སྙན་གྲགས་	-12579
བྱས་པ་མ་ཟད་	-12580
ཞུམ་	-12581
གཉི་ག་	-12582
འཇིག་པའི་	-12583
བྷྱ	-12584
སྲན་	-12585
རྒྱན།	-12586
ཚངས་པ་	-12587
▁རང་ཞིང་གི་	-12588
ཉེ་འཁོར་གྱི་	-12589
ཤིན་ཧྭ་དྲ་བའི་	-12590
▁ཕན་ཚུ	-12591
ཇི་སྐད་	-12592
ཁམ་བུའི་	-12593
▁བོད་ཡིག་དྲ་བ།	-12594
གཏོང་སྤྲོད་	-12595
མི་འབོར་དབུལ་པོ་	-12596
སྟན་ཡོད།	-12597
▁ཀྲུང་ཧྭའི་	-12598
ལ་བརྟག་དཔྱད་	-12599
དཔག་མེད་	-12600
▁གཙུག་ལག་	-12601
ཡི་ར	-12602
ཅོམ་ལྡན་	-12603
བདེན་དཔང་	-12604
དྲན་གསོ་ཞུ་བའི་	-12605
འཐུས་མི།	-12606
ལོ་གཉིས་	-12607
རིང་ལུགས་དང་	-12608
ཁོར་ཡུག་བཟང་པོ་	-12609
གཟུང་བ་	-12610
ཀོད་ཀྱི་	-12611
ཤུལ་གྱི་	-12612
ཁ་ན་མ་ཐོ་	-12613
དྲག་ཆས་པས་	-12614
གལ་ཆེན་གནང་།	-12615
བསྟན་པའི་ཕྱིར།	-12616
གཞན་བ	-12617
ཟློག་པ་	-12618
▁གསུམ་པ།	-12619
རྒུན་	-12620
མང་བས་	-12621
ཚོ་དཔོན་	-12622
▁བརྙ	-12623
མས་པ།	-12624
ཀླུང་གི་	-12625
རྗོད་དོ།	-12626
དེ་བཞིན་དུ།	-12627
འདི་སྐད་ཅེས་བ	-12628
ཉིན་མོ	-12629
ཆུ་བོའི་	-12630
ཚད་ནི་	-12631
པུ་ཡཱའི་	-12632
ཕྲ་བ་	-12633
མི་འདོད་	-12634
▁ཅེས་བྱ་བ་	-12635
▁ཟླ་དགུ་བའི་	-12636
.8%	-12637
ལ་ཞུགས་ནས་	-12638
▁ཧ	-12639
བཞི་ལ་	-12640
རོགས་ཟླའི་	-12641
འགན་ཁུར་བའི་	-12642
▁འདི་ལོའི་ཟླ་	-12643
ཉེན་ཁའི་	-12644
བཞིན་དུ་བ	-12645
སྟན་པའི་ཕྱིར།	-12646
པུའུ་དང་།	-12647
ཡིན་ཞིང་	-12648
གཅིག་སྒྲི	-12649
པར་དགའ་བསུ་	-12650
མི་ཁྲི	-12651
སྒྲུབ་པར་བྱེད་པ་	-12652
▁57	-12653
སྐྲུན་འགོ་	-12654
▁ཤོག་ངོས་	-12655
▁རིང་གི་	-12656
ཏྣ	-12657
སིལ་ཚོང་ས་ཚིགས	-12658
ཐིན།	-12659
དེ་ནི།	-12660
ང་བུའི་	-12661
ཟློས་གར	-12662
གྲངས་ཀ་	-12663
དོན་འཁྱོ	-12664
▁འདུས་བྱས་	-12665
▁མེད་པ་	-12666
བཀའ་རྒྱ་	-12667
གསུམ་སྟེ།	-12668
▁རིན་	-12669
ནུས་པ་ཆེན་པོ་	-12670
ལྗོངས་ཡོངས་སུ་	-12671
ཕྱོགས་གཉིས་ཀྱིས་	-12672
ཟ་བའི་	-12673
དར་ཆ་མཐོན་	-12674
ཧྭ་ཡིས་	-12675
▁འབྱོར་འབྲིང་	-12676
▁ལྟ་ཞིབ་	-12677
བཅིངས་འགྲོལ་དམག་	-12678
▁དབྱི་སི་རལ་གྱི་	-12679
པོ་ནས་	-12680
ཆའོ་	-12681
རིམས་འགོག་	-12682
▁ད་ལོའི་ཟླ་	-12683
སྐྱིད་བ	-12684
▁རྒྱལ་པོའི་	-12685
ལོ་ཙཱའི་	-12686
ཟི་ལིང་དུ་ཚོགས།	-12687
ཨེ་ཤ་ཡའི་	-12688
ཞིང་ཆེན་མཚོ་ནུབ་	-12689
ཅིང་ག	-12690
ཡང་མ་ཡིན།	-12691
གལ་ཆེ་	-12692
ཞྭ་མོ་	-12693
སྐུ་འབུམ་	-12694
སློབ་གྲྭ་ཆེན་མོ་	-12695
གསར་དར་	-12696
▁རིན་པོ་ཆེ་	-12697
པེ་ཅིན་ནས་བསྡུས།	-12698
ཟིལ་	-12699
▁ཟླ་བཞི་བའི་	-12700
སྐྱོང་དང་	-12701
དགེ་ལུགས་པའི་	-12702
ཉིན	-12703
འགག་སྒོའི་	-12704
ཙུང་ཐུང་གཞོན་པ་	-12705
ཞེས་པའི་དོན་ཏོ།	-12706
ཟེར།།	-12707
ཧཱུཾ།	-12708
▁དེ་ན་	-12709
ཁམས་དང།	-12710
ལས་དོན་སྒྲུབ་	-12711
▁སྡེ་བའི་	-12712
བོད་ཡིག་གི་	-12713
སྤྱི་ཚོགས་གཉིས་	-12714
སྲུང་སྐྱོང་ཁུལ་	-12715
..	-12716
▁སང་	-12717
དབྱིས་	-12718
འཚམ་མཐུན་ཡོང་	-12719
ཁག་གཉིས་	-12720
སྡོད་ཀྱི་	-12721
གསོལ་སྟོན་	-12722
ཐུན་མོང་དུ་	-12723
ཆུ་འདྲེན་	-12724
ལྕོག་	-12725
▁སྣའི་	-12726
པའེ་ཅིན་	-12727
སློབ་གྲྭ་དང་	-12728
▁ཐག་གཅོད་	-12729
འགན་ཁུར་བ་	-12730
ཧཱུཾ་ཕཊ།	-12731
▁སྐྱེ་མཆེད་	-12732
དབེན་པའི་	-12733
ཡིན་ནམ་	-12734
རྡོ་རྗེ།	-12735
གཏོར་གྱི་	-12736
དངོས་སྒྲུབ་	-12737
པེན་	-12738
ཧྲའན་	-12739
འཚོ་བ་སྐྱེལ་	-12740
▁འཛིན་	-12741
བྱུང་ལ།	-12742
མྱོང་རོལ་	-12743
ཡིད་ཀྱིས་	-12744
ཤོགགསར་འགྱུར།	-12745
རྦད་	-12746
ཐུགས་རེ་	-12747
འགྲོ་སོང་	-12748
དགོང་ཚོགས་	-12749
▁ལེགས་འགྲུབ་	-12750
ལ་བར་འགྱུར་རོ།	-12751
▁ད་བར་	-12752
ཚངས་པའི་	-12753
བསྐྱེད་པར་	-12754
ཁྱབ།	-12755
གོ་ཆ་	-12756
མང་དག་	-12757
རྟན་འཇགས་	-12758
▁ན་ནི	-12759
བསམ་འདུན་མ་བ	-12760
དང་ས་	-12761
▁41	-12762
▁75	-12763
བྱིན་གྱིས་རློ	-12764
གོང་དཀར་	-12765
ངལ་གསོའི་	-12766
བརྐོས་	-12767
ཁྲལ་འབབ་	-12768
གནས་སྤོའི་	-12769
འགྲུབ་པའི་	-12770
བཱ་	-12771
སྭཱ་ཧཱ་	-12772
ལ་གཞིགས་ན།	-12773
འཚོགས་པ་དང་།	-12774
▁ཞིང་ཆེན་ཏང་ཨུ་	-12775
.7%	-12776
འདུ་ཚོགས་	-12777
▁དམིགས་པ་	-12778
འཚུབ་	-12779
སྔ་མའི་	-12780
▁2015-0	-12781
མགོ་རྩོམ་	-12782
མཱ་ལིའི་	-12783
ཡོད་ཅིང་	-12784
ཁག་སོ་སོར་	-12785
ལོག་ནས་	-12786
གཅེས་སེམས་	-12787
▁མིའི་རིགས་ཀྱི་	-12788
▁༢༠༠	-12789
བཟོས།	-12790
སྲང་ལམ་	-12791
གང་གི་ཚེ་	-12792
མདོར་བསྡུས་	-12793
ཐུབ་པ་བྱུང་ཡོད།	-12794
ཤོང་	-12795
ཞིབ་འཇུག་པ་	-12796
སོ་ཏི་ཨ་རབ་	-12797
མནའ་འབྲེལ་དང་	-12798
ལ་ཆོས་	-12799
འཕྲོད་བསྟེན་བདེ་	-12800
མ་བྷ་	-12801
བཟོས་པ་	-12802
དུས་བཅད་	-12803
མི་དགོས་	-12804
སྡད་དེ་	-12805
▁རིག་པ་	-12806
དམག་མིའི་	-12807
▁དུས་ཆེན་	-12808
▁སྒྲུབ་པ་	-12809
བདེ་ལེགས་	-12810
གོང་འཕེལ་ལ་	-12811
སྤྱི་སྡོམ་	-12812
▁མཚོ་སྔོན་པོའི་	-12813
ཚངས་པར་	-12814
ཐོན་རྫས།	-12815
དཱ་	-12816
བབ་	-12817
འཆར་ཟི	-12818
དེ་སྔོན་	-12819
▁ཡན་གྱི་	-12820
འདི་ལོའི་	-12821
ཁི་སི་ཐ	-12822
▁འཕར་བ།	-12823
སྤྱི་ཚོགས་ལ་	-12824
▁སྐྱོན་	-12825
བསགས་	-12826
དེན་དཔང་	-12827
མ་ཡིན་པ་དང།	-12828
▁བཅོས་བསྒྱུར་	-12829
ཚོང་པ་	-12830
དབར་གྱི་འབྲེལ་བ་	-12831
ཅིན།	-12832
ཡིད་ཆེས་དང་	-12833
མཉམ་ལས་ཁང་གི་	-12834
ཞེས་པས་	-12835
▁སློབ་ཆེན་	-12836
ཁོངས་མི་དང་	-12837
སྲིད་གཞུང་ལ་	-12838
ཧཾ་	-12839
▁སྤྱན་	-12840
ཡིག་རྙིང་	-12841
གསར་པ་ཞིག་ཏུ་	-12842
ཞུ་རྒྱུ་ཡིན།	-12843
▁ཨ་རི་དང་	-12844
▁བལ་	-12845
ལོ་ནས་	-12846
སྦྱར་ནས་	-12847
བཅས་བྱས་ནས།	-12848
▁བདེ་བར་	-12849
རང་རྒྱལ་གྱིས་	-12850
དུན་བ	-12851
▁གཞས་	-12852
རིགས་སུ་	-12853
སྟོང་གཅིག་	-12854
▁བདེ་ཆེན་ཁུལ་	-12855
རེ་ལ་	-12856
སྣམ་བུ་	-12857
▁ད་ལོའི་ལོ་	-12858
རྣམ་པར་དག་པ་སྟེ།	-12859
དིང་	-12860
སྔ་ཙམ་	-12861
ཚན་གཙོ་	-12862
ཁམས་གསུམ་	-12863
འཁྱག་	-12864
ངག་དབང་	-12865
སི་ཁྲོ	-12866
བཟའ་བཅའ་	-12867
ཁྲུའི་	-12868
སྤྲེལ་	-12869
མན་གྱི་	-12870
ལོ་ཆུང་གི་	-12871
ལ་ཤུགས་བསྣན་ནས།	-12872
▁འདྲེ	-12873
ཁ་ཕྲལ་	-12874
ཇུས་འདོན་	-12875
ལས་འཁྱུར་ངལ་གསོ་	-12876
▁མ་ཤོགགསར་འགྱུར།	-12877
ཚད་ལོན་གཅིག	-12878
ཡུལ་ཅན་	-12879
ལ་འགན་ལེན་	-12880
▁རྒྱལ་བའི་	-12881
ཚན་པ་ཁག་གིས་	-12882
མེ་ཏོག	-12883
ཕུལ་ནས་	-12884
རྒྱུད་པ་	-12885
▁དབྱི་རག་གི་	-12886
ལྕགས་ཀྱུ་	-12887
བརྟན་སྲུང་	-12888
གྲོང་གསེབ་ཏུ་	-12889
བཀུ	-12890
ཐོན་ཟོག་	-12891
▁མགྱོགས་	-12892
དཔྱིད་འདེབས་	-12893
▁ཆོས་དབྱིངས་	-12894
དུད་ཁྱིམ་	-12895
▁ཁུལ་ཡོངས་ཀྱི་	-12896
འགོ་ཚུགས་པ་དང་།	-12897
མིང་།	-12898
རྟགས་ཀྱི་	-12899
རྣམ་པར་དག་པ།	-12900
▁བསྒྱུར་བཅོས་	-12901
འཚོར་	-12902
ཞིབ་ཏུ་	-12903
སོང་སྟེ།	-12904
▁ཚང་འཛོམས་	-12905
ཚུལ་ཁྲིམས་ཀྱི་	-12906
དྲུག་ལ་	-12907
ཕྱི་རྒྱལ་དུ་	-12908
དོན་གཅོད་	-12909
དྲག་ཆས་ཉེས་ཅན་	-12910
རྡོ་རིང་	-12911
▁ཝང་ཅན་ཅོན་གྱིས་	-12912
ལ་གཞི་	-12913
མཛུབ་ཁྲིད་བ	-12914
ཞུགས་ཏེ།	-12915
སྙེག་	-12916
གཅིག་སྡུ	-12917
དགེ་རྒན་དང་	-12918
སྐུལ་སྤེལ་བ	-12919
ཁྱབ་ཚད་	-12920
རྒོལ་བ་	-12921
▁འབྲུག་	-12922
ཁྲོམ་གཞུ	-12923
མིའི་ཐོབ་ཐང་	-12924
ལ་འགྱེ	-12925
ལྟ་བས་	-12926
▁རྩོམ་ཡིག་	-12927
ཕྱོད་	-12928
སྐྱོད་པ།	-12929
▁བསྟུད་མར་	-12930
ཀྲང་གཞོན་པ།	-12931
▁༡༡	-12932
▁འབྱུང་བ་	-12933
ལ་མྱུར་	-12934
ཞིག་ནི་	-12935
ནམ་ཟླའི་	-12936
ང་བཤད་རྒྱུར།	-12937
སྐད་གྲགས་ཆེ་བའི་	-12938
ཡོད་དོ།།	-12939
འབྲོང་	-12940
▁<<	-12941
སྔར་ལས་ལྷག་པར་	-12942
གཞག་པར་	-12943
བཀོད་སྒྲིག་དང་	-12944
ཎཱ	-12945
རྒུ་	-12946
བས།།	-12947
▁རི་བོ་	-12948
▁སྒྲིག་	-12949
ལྟུང་བྱེད་	-12950
▁ཁ་གཏད་	-12951
▁ལྷན་ཅིག་	-12952
དང་མཐུན་པར་	-12953
གང་ལེགས་བྱས་ཏེ།	-12954
ཡོད་ན།	-12955
བའང་	-12956
ར་བཞི་	-12957
▁དེ་སྔ་	-12958
▁རེ་སྐུལ་	-12959
གྱུར་པ་ནི་	-12960
མ་བརྒྱབ་	-12961
▁བཟོ་ལས་	-12962
▁སྐལ་བཟང་	-12963
ང་གཞུང་དོན་	-12964
དཔྱད་གཞིར་	-12965
▁རུལ་སུངས་	-12966
རྩེ་གྲ་	-12967
▁སློབ་ཁྲིད་	-12968
ཚེ་བརྟན་གྱིས་	-12969
སྲུང་སྐར་	-12970
▁རླུང་གི་	-12971
སྤྱོད་ལམ་	-12972
▁བརྟག་དཔྱད་	-12973
ར་འཇོ	-12974
བཞིན་དུ།	-12975
སྒྲུབ་བྱེད་	-12976
དབྱེ་བ།	-12977
▁རྩྭ་ཐང་	-12978
ངག་དང་	-12979
སྒྲུང་གཏམ་	-12980
▁ཁུལ་ཨུའི་	-12981
▁གསལ་སྒྲོག་	-12982
ཏང་ཨུད་ཀྱིས་	-12983
ལ་བརྩི་སྲུང་	-12984
རྗེས་ལུས་	-12985
ལྷོ་ཕྱོགས་ཀྱི་	-12986
ཕ་ལེ་	-12987
གནང་གི་	-12988
བཅུག་པ་	-12989
འགྲོགས་	-12990
མགོ་ཁྲིད་པ་	-12991
སྤངས་ནས་	-12992
རྗེ་བཙུན་	-12993
ལ་འགོ	-12994
དུད་ཀྱི་	-12995
ལོ་བཅུ་	-12996
བརྗོད་པའི་	-12997
རྡའི་	-12998
▁ཐུབ་	-12999
ཡུལ་ནི་	-13000
▁དང་པོར་	-13001
བས་ཚུགས་	-13002
སྐྱོད་པ་དང་	-13003
ནག	-13004
བ་ལས་	-13005
གྲོང་ཁུལ་	-13006
ཐོག་གཅིག་	-13007
▁ཟིན་ཡོད་པ་རེད།	-13008
རླུང་གིས་	-13009
དངོས་འབེབ་	-13010
དང་སློབ་སྦྱོང་	-13011
ལེན་བ	-13012
སོར་མོ་	-13013
▁སྐྱེས་པ་	-13014
སྡེ་ཚན་དང་	-13015
▁ཟླ་གསུམ་པའི་	-13016
དཀྱིལ་འཁོར་དུ་	-13017
འབྲེལ་བ་སྔར་ལས་	-13018
▁བི་	-13019
མུ་མཐུད་ནས་	-13020
ལག་བསྟར་བྱས་	-13021
▁མཛོད་	-13022
དབྱི་ཐ་	-13023
ཡིན་ཞེས་བཤད།	-13024
སྟོབས་ལྡན་གྱི་	-13025
དང་རྒྱལ་སྤྱིའི་	-13026
ཀྲི་རི་	-13027
▁ལྕེའི་	-13028
གཞི་རྒྱ་	-13029
བླངས་ཏེ་	-13030
གནས་མཆོག་	-13031
སྡེ་དགུ་	-13032
གཙོ་བོར་བྱས་པའི་	-13033
དམུ་	-13034
པ་བྱ་དགོས།	-13035
དེ་ལ་བ	-13036
དངོས་བྲ	-13037
▁རུ	-13038
ཨ་རི་དང་	-13039
▁རེ་སྐུལ་།	-13040
གནང་སྟེ།	-13041
▁ཙུང་ལི་	-13042
ཇུས་ཆོད་བ	-13043
མར།	-13044
ཏབ་པ་	-13045
▁ཝུན་	-13046
ཚད་མེད་པ་	-13047
སྡོད་ཁང་གི་	-13048
རྩོལ་	-13049
ལས་དབ	-13050
ན་བ་	-13051
▁དྲང་	-13052
ཐག་ཉེ་	-13053
▁བདུད་རྩི་	-13054
གྲུབ་འབྲ	-13055
གྲེས་སོང་	-13056
བསྐྱངས་པ།	-13057
▁ཚོགས་ཞུགས་	-13058
▁བོ	-13059
སྲོལ་རྒྱུན་ལུས་	-13060
ང་གཞུང་ལས་	-13061
ཁྱབ་ཁོངས་ནང་	-13062
འགན་འཁྲི་དང་	-13063
▁སྟོ	-13064
བྱང་མའི་	-13065
▁དཔེ་དེབ།	-13066
ནཱི	-13067
ལྷག་བསམ་རྣམ་དག་	-13068
▁པཱ་	-13069
སྤྱི་ཡོངས་ཀྱི་	-13070
དུས་བབ་གསར་པའི་	-13071
བཅད་པའི་	-13072
▁སེམས་ཅན་གྱི་	-13073
སྦྱོར་བར་	-13074
སྔ་མ་བཞིན་དུ་	-13075
འཕེལ་རྒྱས་དང་།	-13076
▁ལོའི་ཀྲུང་གོ་	-13077
ལ་འཁེ	-13078
སྲུང་།	-13079
དགེ་འོས་སློབ་མ་བ	-13080
ཆོད་དོན་	-13081
▁ཆབ་སྲིད།	-13082
ལ་དམིགས་ནས།	-13083
▁སྒྲིག་འཛུགས་	-13084
རིས་བ	-13085
ཙུགས་པ་དང་།	-13086
ཐིང་ནས་	-13087
མྱི་དམྱིགས་སོ།	-13088
བསྟན་པའོ།	-13089
ཀྱིས་མི་	-13090
མཐའ་མཚམས་ཀྱི་	-13091
ཚེས་བཞི་	-13092
རང་བརྟེན་	-13093
▁ཟུར་	-13094
▁དེའི་རྗེས་	-13095
འཛུགས་རྒྱུའི་	-13096
▁ཏི	-13097
ཞེང་	-13098
འཕེལ།	-13099
▁དགོས	-13100
ཡང་གང་	-13101
ཅི་ཐུབ་	-13102
མཆོག་ནི་	-13103
དཀྱིལ་དུ་	-13104
▁ཞིང་པའི་	-13105
མིན་ཏེ།	-13106
རྒྱལ་ཁབ་ཏུ་	-13107
རྨང་བརྟན་	-13108
རྫོང་བཅས་	-13109
འབྲེལ་འདྲི	-13110
འཇིགས་མེད་ཐེག་	-13111
ཧུར་བརྩོ	-13112
དཔངས་	-13113
བསྐལ་པ་	-13114
སྡུག་པ་	-13115
▁འོད་ཟེར་	-13116
བསྩ	-13117
ཁག་གིས་བ	-13118
བཅར་འདྲིའི་	-13119
▁༢༠	-13120
ཐིང་དང་	-13121
ཐད་ནས་གྲུབ་འབྲས་	-13122
▁འགན་	-13123
▁འབུམ་	-13124
▁འདོན་	-13125
གནད་དོན་དང་	-13126
▁གཏན་འབེབས་	-13127
ནང་སོག་	-13128
ལུས་རྩལ་པ་	-13129
རིག་གནས་འཚོ་བ་	-13130
▁ཨུ་རུ་སུའི་	-13131
སྙུ	-13132
▁ཚོང་དོན་	-13133
▁དེ་ཚེ་	-13134
བྱ་འགུལ་སྤེལ་བ།	-13135
▁ལས་བྱེད་པ་	-13136
ཡང་བླ	-13137
ད་མེད་ཀྱི་	-13138
བྱ་བ་སྣ་ཚོགས་	-13139
གནམ་གྲུ	-13140
ཉིན་བར།	-13141
ཚན	-13142
▁སྣེ་ལེན་	-13143
གསར་པ་ཞིག་	-13144
▁ཟབ་	-13145
མང་བོའི་	-13146
བཅུ་པ་	-13147
ཏ།	-13148
ཨུ་དང་	-13149
ཞེས་སོ།	-13150
▁མེ་འཁོར་	-13151
ལྷན་འཛོམས་	-13152
▁འད	-13153
ག་གཡས་	-13154
མི་ཐུབ་པའི་	-13155
འབྲི་གཡག་	-13156
བཙུགས་པའི་	-13157
སྐྲུན་པ་དང་།	-13158
དམངས་ཁྲོད་ཀྱི་	-13159
གལ་ཆེན་ཞིག་རེད།	-13160
གྱིས་ཤིག།	-13161
ས་དེའི་	-13162
▁ནང་དུ་	-13163
གནས་ཡོད།	-13164
ཉིན་གྱི་སྔ་དྲོར་	-13165
བྱས་པ་དང་འབྲེལ་	-13166
རྒྱར་	-13167
དང་དོ་དམ་	-13168
ཞབས་ཞུ།	-13169
དཀྱུས་མའི་	-13170
▁52	-13171
སུན་འ	-13172
ནང་དུ།	-13173
ལ་གཟིགས་	-13174
ཐམས་ཅད་ལས་	-13175
རྡ་ཐོ་	-13176
ལ་ཞུགས་པ།	-13177
མི་ཤེས་པའི་	-13178
ཐོག་ནས།	-13179
འགན་བཞེས་	-13180
ཚད་ཡོད་ཀུང་སིའི་	-13181
▁དགེ་བ་	-13182
ངོ་སྤྲོད་བྱས།	-13183
མཉམ་འབྲེལ་གྱི་	-13184
མགྲོ	-13185
ལོ།།	-13186
ཁྱེད་ཀྱིས་	-13187
ཉིན་གྱི་སྔ་དྲོར།	-13188
ཡིད་ཆེས་བ	-13189
མ་ཡིན་གྱི།	-13190
རྗེས་སུ་དཔག་པ་	-13191
མ་ལ་ཡའི་	-13192
འཛུམ་མདངས་	-13193
▁སྐབས་དེ་དུས་	-13194
དགའ	-13195
དེ་ཐོག་ནས་	-13196
ཕྱོངས་རྒྱས་	-13197
▁མགོན་	-13198
ཅུང་ཙམ་	-13199
▁གཟིགས་	-13200
ནང་སྦྱོང་	-13201
བདའ་འདེད་	-13202
▁ཨ་མེ་རི་ཁ་དང་	-13203
ས་ཕྱོགས་	-13204
གྲོད་པའི་	-13205
བསྡུས་པ་དང་།	-13206
འདེམས་བསྐོའི་	-13207
ཀར་བ	-13208
དངོས་བྲི	-13209
ཞིང་ལས་ཀྱི་	-13210
བརླ	-13211
ཕྱིན་ཆད་	-13212
མགྲོན་ཁང་	-13213
▁ཟེར།	-13214
▁བྱེད་པ	-13215
རིགས་གཅིག་མཁས་	-13216
སྦྱངས་པ་	-13217
▁སྔགས་ཀྱི་	-13218
གཡོད་	-13219
རྐང་འཛིན་	-13220
ན་དང་གྲོས་མོལ་	-13221
ཡོངས་སུ་གྱུར་པ་	-13222
འཐུས་ཚབ་ཚོགས་པར་	-13223
ཚ་དགོས་	-13224
ཡུལ་གྲུ་	-13225
ཐུབ་པ་མ་ཟད།	-13226
སྐོར་བྲ	-13227
རྒྱད་པའི་	-13228
མེད་པའི་ཕྱིར།	-13229
▁ཡོད་པ	-13230
ཁེ་སྤོགས་	-13231
ན་མོའི་	-13232
ཕྱིན་ཅི་མ་	-13233
རྒྱུ་ནོར་གྱི་	-13234
མི་དམངས་ལ་བདེ་	-13235
▁འཕར་བ་དང་།	-13236
ལས་འགོ་	-13237
▁མདོ་སྡེ་	-13238
བོད་ལྗོངས་ཡན་ལག་	-13239
གྲུ་བཞི་མ	-13240
མེ་ཏོག་བ	-13241
▁མཚོ་ལྷོ་ཁུལ་	-13242
31	-13243
གཅིག་ནི་	-13244
སླེབ་	-13245
ཐོད་པ་	-13246
ལས་རོགས་	-13247
རྣམ་པའི་ཐོག་ནས་	-13248
▁གནའ་བོའི་	-13249
ཅིའི་སླད་དུ་	-13250
མཚོ་སྔོན་གྱིས་	-13251
▁དེའང་	-13252
དར་ཁྱབ་	-13253
རོགས་པ་	-13254
ཤད་པ་དང་།	-13255
ཤེས་པར་བྱ།	-13256
▁འོང་སྐོར་	-13257
བྱ༷	-13258
▁ང་ནི་	-13259
ལ་བརྩོན་	-13260
སྒོར་བྱེ་བ་	-13261
ལང་གི་	-13262
བརྒྱབ་ནས་	-13263
▁བསྟན་བཅོས་	-13264
▁གནོད་སྦྱིན་	-13265
བྲང་	-13266
སྣུར་	-13267
པཱ་མཱ་	-13268
▁དེ་རྣམས་ཀྱི་	-13269
▁ཁྲིམས་འགལ་	-13270
དག༷	-13271
དགྱེས་	-13272
ལ་བལྟས་	-13273
ང་བོད་བ	-13274
ཁྲོད་དུ།	-13275
ན་ཁ་	-13276
དྭངས་གཙང་	-13277
བྱེད་པོའི་	-13278
ཐུགས་ཀྱི་	-13279
ཚལ།	-13280
▁བོད་ལ་	-13281
བརྗོད་དུ་	-13282
མེད་པ་སྟེ།	-13283
▁རྒྱུན་དུ་	-13284
གཏན་འབེ	-13285
མི་རིགས་དང་	-13286
གནས་སྐོར་བ་	-13287
འགན་ལེན་གྱི་	-13288
▁51	-13289
▁[2018	-13290
ལེང་	-13291
གྲལ་དུ་	-13292
མང་བ་དང་	-13293
མ་བཟུང་བའི་	-13294
དང་འགལ་	-13295
བྱེད་པོ་	-13296
སྒྲུབ་བྱ་	-13297
ཚབ་བྱས་ཏེ་	-13298
ན་བརྒྱབ་སྟེ་	-13299
▁ལྐ	-13300
རྟགས།	-13301
▁རང་རྟོགས་	-13302
མང་ཚོགས་ཚོའི་	-13303
འགོ་གཙོ་	-13304
▁གསང་བའི་	-13305
མ་སྐྱེས་པ་	-13306
འདི་ལྟ་སྟེ་	-13307
▁21.4%	-13308
དགོན་པར་	-13309
ཕྱོགས་གཉིས་པོས་	-13310
སྟོད་ལུ	-13311
▁རྫོང་རིམ་པའི་	-13312
མཐོ་སྒ	-13313
གཟུགས་དང་	-13314
ཉེར་གཅིག་	-13315
མཛེས་རྩལ་	-13316
མཉམ་ལས་དང་	-13317
དུ་གྱུར་	-13318
ཐུབ་རྒྱུ་	-13319
མཁན	-13320
▁66	-13321
མཛད་སྒོ་རེབ་གོང་	-13322
འཚལ་	-13323
▁ངོ་བོ་ཉིད་	-13324
ཞུས་པར་	-13325
ཤེས་པ་ནི་	-13326
སྐྱེལ་བའི་	-13327
ཐབས་ལ་བརྟེན་ནས་	-13328
བཅུ་པའི་	-13329
སྔར་གྱི་	-13330
ཨང་གསུམ་པ་	-13331
སྨད་ཀྱི་	-13332
དང་བསྡུར་	-13333
ཕ་ན་མའི་	-13334
སོགས་འབྲེལ་ཡོད་	-13335
མདུན་དུ་བ	-13336
ཞེས་བྱ་བ་ལ་	-13337
ཟོས་པ་	-13338
སླེབས་པ་དང་།	-13339
ཐེག་ཆེན་	-13340
▁དེ་གཉིས་	-13341
ལ་ཤུགས་སྣོན་པ།	-13342
པས།།	-13343
བྱ་བ་བཟང་བོར་	-13344
ཤྲཱ	-13345
▁ཆོས་རྣམས་	-13346
རྟན་ལྷི	-13347
འགན་འཁུར་བའི་	-13348
མ་མཆིས་པ་	-13349
པར་འགྱུར་རོ་	-13350
▁ཡིན་པ	-13351
▁ལེགས་པར་	-13352
▁ཧྭ་	-13353
རྒྱུ་རེད།།	-13354
གནས་ཚུལ་དངོས་	-13355
དང་བེད་སྤྱོད་	-13356
▁གླ་	-13357
ལ་དོ་སྣང་	-13358
བརྗི	-13359
▁ཁྱི་	-13360
ག་བློ	-13361
ཀྲོའུ་ཡི་	-13362
བྱིན་པའི་	-13363
མེ་ཤུགས་འཕུར་	-13364
ཡཱ་ནས་	-13365
▁གོང་དུ་	-13366
ཕུང་པོའི་	-13367
གཤགས་	-13368
▁འདེབས་	-13369
ཇེ་བཟ	-13370
སྲུངས་	-13371
སྤེལ་འགོ་ཚུ	-13372
གསོ་སྦྱོང་གི་	-13373
▁99	-13374
ཞིག་ཡིན་པ་དང་	-13375
༥༠	-13376
འགྲུབ་པ་	-13377
སྐབས་དེའི་	-13378
▁ཟླ་དང་པོའི་	-13379
བཅས་ཀྱི་ཐོག་ནས་	-13380
ཟུང་སྟེ།	-13381
མི་མཐུན་པ་	-13382
བྱས་ཡོད་ཟེར།	-13383
གས་ཤིང་	-13384
སྟན་པ་རེད།	-13385
གྲོང་ཚོ་རིམ་པའི་	-13386
▁སྡོམ་	-13387
ཁོད་	-13388
ཀོང་པོ་	-13389
▁ཨུ་རུ་སི་	-13390
ན་འགོད་པའི་	-13391
བཅས་ཀྱི་སྒོ་ནས་	-13392
▁ཡིན།	-13393
▁སྐོར་	-13394
▁གཞན་དག་	-13395
ཀྲུང་ཧྭའི་	-13396
མཛུབ་མོ་	-13397
གནས་པ་དང་	-13398
དེ་བས་ཀྱང་	-13399
ལ་འགོག་	-13400
ལྡང་	-13401
ཕུལ་དུ་བྱུང་བའི་	-13402
ན་འཚོལ་	-13403
ལ་སེམས་	-13404
རྒྱལ་མཚན།	-13405
ཤུགས་ཆེར་	-13406
ཧུའུ་ཅིན་ཐའོ་	-13407
འཐད་	-13408
གཟུང་བའི་	-13409
ལ་མཐོང་ཆེན་	-13410
ཧྥང་	-13411
ཁ་ཟས་	-13412
▁ཡིན་པ་	-13413
▁གཙོ	-13414
དངུལ།	-13415
སྐྱིད་རོང་	-13416
▁མང་པོ་	-13417
བསྒྲུབས།	-13418
བློ་འདྲི་	-13419
ནྱ	-13420
སྦྱར།	-13421
ཚོགས་རའི་	-13422
བསྡོམས་འབོར་	-13423
གློག་སྤྱོད་ཚད	-13424
ཧྲུའུ་ཅི་དང་	-13425
ལོ་ལྔའི་འཆར་གཞི་	-13426
ཟོས་ནས་	-13427
ནས་བསྡུས།	-13428
ཁྲལ་འཇལ་	-13429
ཞུགས་མཁན་	-13430
▁སྲོག་ཆགས་	-13431
གུང་ཁྲན་ཏང་གིས་	-13432
ལྷག་གིས་	-13433
▁ལཱ	-13434
▁ཨེ་ཤེ་	-13435
རྨ་འབྲི་རྫ་གསུམ་	-13436
ཀ་ནི་	-13437
གཉེར།	-13438
▁སྦྲང་	-13439
བརྟན་པོར་	-13440
ཧྲཱིཿ	-13441
དེ།།	-13442
པར་བླངས།	-13443
དགོངས་པ་གལ་ཆེན་	-13444
ཛི	-13445
ཆུ་བ	-13446
▁སླར་	-13447
སྤེལ་བཞིན་ཡོད།	-13448
▁རྒྱུན་ལས་	-13449
ན་ཡང་།	-13450
འབྱོར་བ།	-13451
▁བརྟན་ལྷིང་	-13452
མི་རིགས་ལས་དོན་	-13453
གྱེས་	-13454
ལོ་མ་	-13455
ཤགས།	-13456
མཐུན་རྐྱེན་	-13457
ར་འགག་སྒྲོལ་	-13458
མཿ	-13459
མཐུས་	-13460
རི་རབ་	-13461
དང་སྨན་	-13462
ཆ་སྒྲིག་	-13463
གཤིན་རྗེ་	-13464
སྤེལ་ཞིང་།	-13465
དད་སེམས་	-13466
ཡོན་གཉིས་	-13467
ག་ལ་བ་	-13468
ས་བཀོད་	-13469
དུ་འཇུག་	-13470
ཕྱག་རྒྱའོ།	-13471
དེ་ཉིད་ཀྱིས་	-13472
ཁོར་ཡུག་གཙང་སྦྲ་	-13473
ཡོང་བའི་འགན་ལེན་	-13474
དྲ་ཚུགས་	-13475
▁འདི་ག་ཚགས་པར་	-13476
མངོན།	-13477
བསྙེན་	-13478
ཞིང་གིས་	-13479
སྒྲིག་པ་	-13480
གྲོས་ཚོགས་སྟེང་	-13481
ཆེད་དུ་བ	-13482
▁དེ་ཁོ་ན་	-13483
བར	-13484
▁2.	-13485
ཞབས་ཕྱིའི་	-13486
▁གཞན་གྱིས་	-13487
མི་དམིགས་པ་	-13488
དེ་ཟླ་	-13489
གླེང་ཕྱོགས་	-13490
ཏང་ག	-13491
བཅུ་ཆ་	-13492
སྐོང་ཚོགས་	-13493
སྤུན་ཟླའི་	-13494
གནོད་སྦྱིན་	-13495
བྱེད་དུ་འཇུག་	-13496
80	-13497
གནམ་ཐང་	-13498
སླའོ།	-13499
ཇེ་ཆེ་	-13500
འཛིན་དང་	-13501
ལོ་ན་	-13502
ཧྲུའུ་ཅི་དང་།	-13503
འཁེ	-13504
འཕྲིན	-13505
▁རྒྱ་མཚོ་	-13506
སེལ་བར་	-13507
རིག་པ་བ་	-13508
མ་ལག་འཐུས་ཚང་དུ་	-13509
ཚོགས་འདུའི་སྟེང་	-13510
འཆར་གཞི	-13511
ཆོས་ནི་	-13512
མཉམ་དུ།	-13513
འཕེལ་སྒྱུར་	-13514
དང་མཚོ་སྔོན་	-13515
ཡོན་ཏན་དང་	-13516
ཚོགས་ཞུགས་	-13517
ལེར་	-13518
དོགས་ཡོད་	-13519
མྱ་ངན་ལས་འདའ་	-13520
ནེའུ་ཙི་	-13521
ན་གོར་མོ་	-13522
འབྲེལ་གྱི་	-13523
▁རྒྱལ་པོ་ཆེན་པོ་	-13524
བོད་རིགས་ཀྱི་	-13525
ཉྩ	-13526
ལངས་ནས་	-13527
▁རྟོག་པ་	-13528
བྱུང་གསལ།	-13529
གྲོང་ཚོས་	-13530
རེའུ་མིག་	-13531
རྒྱལ་སའི་	-13532
བྱེད་དགོས་ཟེར།།	-13533
▁ཤ་ར་དྭ་ཏིའི་བུ་	-13534
ལྤ	-13535
རྒས་	-13536
ན་གནས་པ་	-13537
སྐུ་ཕྲེང་	-13538
ཡངས་པ་	-13539
ཤེས་ཡོན་	-13540
གསྒ	-13541
ལྟི	-13542
ན་འདེམས་	-13543
▁མ་འོངས་པའི་	-13544
▁དྲག་	-13545
▁ཐའེ་	-13546
ཉེ་འཁོར་	-13547
ལེན་པ་དང་།	-13548
▁༢༠༡༩	-13549
ད་པ་ལ་	-13550
ཁེར་རྐྱ	-13551
ཉེས་གསོ	-13552
དུས་གསུམ་	-13553
མཉམ་སྐྲུན་	-13554
སོ་ནམ་	-13555
སྟོང་དུ་	-13556
སྤྲད་དེ་	-13557
ཟློག་པའི་	-13558
▁གཞིས་ཀ་རྩེ་	-13559
ཀའ་སྩལ་ཏོ།	-13560
ལན།	-13561
མ་ཎི་	-13562
འཕོ་འགྱུར།	-13563
གང་ཡིན་པའོ།	-13564
ཐོག་ཁང་	-13565
མེ་འགོག་	-13566
བྱེད་པ་ལ་	-13567
ལྷ།	-13568
གཅོད་པར་	-13569
མིང་གྲགས་	-13570
སཏྭ	-13571
ཝང་ཡུས་	-13572
ཤིང་དང་	-13573
▁སྙིང་པོ་	-13574
ཕྱེ་བའི་	-13575
འོས་འཚ	-13576
དངོས་ཁམས་	-13577
ཡི་ནི་	-13578
▁ཞེ་སྡང་	-13579
ཀྲྀ	-13580
ཡང་མ་ཡིན་	-13581
ཅན་དུ་འགྱུར་བའི་	-13582
དཀར་གྱི་	-13583
སྒོས་སུ་	-13584
གྲོང་བརྡལ་	-13585
ཕོད་པ་	-13586
▁ས་བོན་	-13587
▁ཤེས་བྱ་	-13588
པར་འགྱུར།	-13589
▁ཕྲ་	-13590
རང་སོ	-13591
འདུད་	-13592
ལས་འགུལ་	-13593
དབྱེ་བའི་	-13594
སློབ་པའི་	-13595
བཙུགས་པ་དང་།	-13596
མེ༷	-13597
འཐུ་	-13598
བར་མ་	-13599
རུམ་	-13600
མདོ།	-13601
ཁམས་པའི་	-13602
རྩ།	-13603
བྱུང་བ་ནི་	-13604
རྩིས་སྤྲོད་	-13605
དུས་གཅིག་ཏུ་	-13606
▁འདུ་ཤེས་བཞི	-13607
དུ་བཏང་ནས་	-13608
གསོ་རིག	-13609
ཞིག་ཏུ་བ	-13610
▁རྒྱུས་ལོན་པ་	-13611
ཧཱུྃ།	-13612
སྙམ་དུ་བ	-13613
▁བླང་བྱ་	-13614
འཕྲལ་བསྟུན་	-13615
སྐྱེ་བ་དང་	-13616
མཆན་འགོད་	-13617
ལ་འཛིན་པའི་	-13618
རྒྱལ་སྟོན་	-13619
▁རྒྱལ་གཅེས་	-13620
ཆའང་	-13621
ས་བློ་མཐུན་	-13622
བོད་བཙན་པོའི་	-13623
མདོ་ལས་	-13624
ནག་ཉེས་	-13625
ནང་བོད་	-13626
ཐུབ	-13627
དྷཱ་	-13628
སླ་བའི་	-13629
▁བྱ་དགའ་	-13630
རིག་སྔགས་	-13631
སྙིང་གའི་	-13632
▁མང་ཚོགས་ཀྱིས་	-13633
ཁྲོ་བོའི་	-13634
ཆོ་འཕྲུལ་	-13635
ཏིང་འཛིན་	-13636
ལྗོངས	-13637
ལྷ་སར་བ	-13638
དབྱི་རག་	-13639
ཕན་འདོགས་	-13640
དུས་མཚམས་སུ་	-13641
གཏིང་ནས་	-13642
སྐམ་ས་	-13643
དུས་རབས་གསར་པར་	-13644
རྡོ་རྗེ་འཆང་	-13645
སྲིད་སྤྱི་ཁྱབ་ཁ	-13646
བྱེད་བཞིན་ཡོད་པ།	-13647
▁པདྨའི་	-13648
དུས་བཀག་ལྟར་	-13649
ཕེའོ་ཅིན་ཧོས་	-13650
ཏང་གི་འཐུས་མིའི་	-13651
ནུས་པ།	-13652
ཆགས་པ་དང་	-13653
ཆོག་མཆན་བ	-13654
རྩོམ་པ་པོའི་	-13655
ཞི་བའི་གྲོས་མོལ་	-13656
ཁྱེར་ནས་	-13657
མཐར་ཐུག་	-13658
འོན་ཀྱང་	-13659
ཉེན་འགོག་	-13660
ཡང་ཡིན།	-13661
བྱེད་པ་སྟེ།	-13662
ཕྱིར་སྡོད་རང་	-13663
ནའི་	-13664
འདྲའོ།	-13665
ལས་སྐྱེས་པ་	-13666
རྒྱལ་ཁབ་སོ་སོའི་	-13667
མི༷	-13668
པོ་དང།	-13669
ལྡན་པས།	-13670
གནམ་མཚོའི་	-13671
འོག་བ	-13672
དོན་དམ་པ་	-13673
གྲོང་མིས་	-13674
ཏན་ནས་	-13675
ཙུང་ལིའི་	-13676
བདེ་སྐྱིད་ཀྱི་	-13677
▁ཐུབ་པ་	-13678
དུ་འགྲོ་	-13679
སྲ་ཞིང་བརྟན་པའི་	-13680
བརྩོན་འགྲུས་	-13681
བཟོ་ཚོགས་ཀྱི་	-13682
ཙུང་ཐུང་ཨོ་	-13683
ཟུང་།	-13684
▁ལྷག་ལ་	-13685
པན་གྱི་	-13686
ཏང་ཡོན་དང་	-13687
རང་རྒྱལ་ལ་	-13688
མིས་བ	-13689
འབྱེད།	-13690
བྱ་ཞིང་	-13691
ཆེ་ཤོས་དེ་	-13692
▁ན་གཞོན་	-13693
སོགས་མི་	-13694
▁གྲོང་ཁྱེར	-13695
འ་ཚོན་	-13696
བྱ་སྤྱོད་ཀྱི་	-13697
རྒྱུན་ལྡན་གྱི་	-13698
ཅིག་ཅར་	-13699
[...]
